#version: 0.2
Ġ Ġ
ĠĠ ĠĠ
ĠĠ Ġ
ĠĠĠĠ ĠĠĠĠ
s e
i n
ĠĠĠĠ ĠĠĠ
Ġ =
a t
Ċ ĠĠĠĠĠĠĠĠ
Ċ ĠĠĠĠĠĠĠ
o r
r e
o n
Ċ ĠĠĠ
s t
e r
a l
se l
a r
sel f
e n
d e
r a
Ġ t
Ġ i
m e
l e
Ġ n
ĊĠĠĠĠĠĠĠĠ ĠĠĠ
Ġ self
t i
Ġ f
a s
a n
m p
Ġ p
Ġ c
p e
l o
r o
Ġ '
i t
u t
Ġ in
g e
ĊĠĠĠĠĠĠĠĠ ĠĠĠĠĠĠĠĠ
) :
Ġ s
d i
e s
e l
Ġ re
d at
c t
u r
( )
o l
Ġ m
' ,
a me
s i
e d
Ġ o
Ġ 1
Ġi f
u n
) )
Ġ "
h e
in g
Ġ 0
c e
u m
u e
de f
f i
dat a
l a
e x
Ġ (
ĊĠĠĠĠĠĠĠĠ ĠĠĠĠĠĠĠ
Ġ [
or t
Ġ a
se r
m a
] ,
l i
in t
v al
ti on
o t
Ġ b
y pe
l t
ur n
c h
c o
t urn
Ġn p
i d
Ġ d
en t
) ,
Ġf or
e st
- -
Ġre turn
a d
mp ort
Ġ +
on e
ra n
ĊĠĠĠĠĠĠĠĠĠĠĠĠĠĠĠĠ ĠĠĠĠĠĠĠĠ
h a
r i
Ġ w
( '
] )
at i
Ġ def
at e
Ġ as
_ _
0 0
se t
ge t
ser t
t h
o de
c k
p ut
o p
' )
N one
l en
n ame
t ype
i s
ĠĠĠĠ Ġ
q u
[ '
ra y
i g
c on
z e
an d
re s
Ġ *
a b
Ġ -
ro m
. _
Ġi s
ar ray
ati on
Ġ 2
ha pe
u p
Ġ= =
v e
Ġ st
" ,
ar g
' ]
Ġ el
p o
Ġt he
Ġ x
at h
en d
u lt
or m
p ar
a p
de x
' :
a m
Ġ g
k e
c tion
( "
Ċ ĠĠĠĠĠ
t er
r ue
Ġ T
o m
f rom
ĊĠĠĠĠĠĠĠĠĠĠĠĠĠĠĠĠ ĠĠĠ
v er
= '
Ġi mport
c al
Ġ None
Ġ ex
Ċ Ġ
la b
n p
u l
o ut
e t
ĠĠĠĠĠĠĠĠ ĠĠĠĠĠĠĠĠ
Ġ y
s hape
( [
a x
h t
Ġas sert
Ġn ot
" )
si ze
ab le
r int
li st
Ġ %
Ġ e
i f
l in
ode l
t o
Ġel se
i mport
Ċ ĉ
r or
fi le
qu al
s p
Ġ _
d s
it h
lab el
c l
i m
lo t
p ro
mp le
Ġ v
c es
Ġo f
c ol
lo g
arg s
Ġ data
ti me
-- --
Ġc on
Ġ h
Ġ di
Ġ r
ex t
Ġ {
al se
p er
p ath
ap p
Ġt est
t est
as s
o d
F alse
u re
st r
e ct
Ġ :
val ue
u mp
ran ge
e w
Ġt o
Ġ 3
p y
as sert
lo at
in dex
i se
at ch
f f
o s
u b
f orm
s a
i l
t a
st an
en s
Ġ and
t r
si on
al l
it e
ma x
ke y
i le
e p
ra me
ump y
o w
E r
I n
t ra
d er
Ġp rint
Er ror
z er
Ġre s
Ġ de
ar i
as k
T rue
Ġ len
pe ct
ma ge
app end
i st
Ġ S
val u
ig ht
Ġo ut
m ent
m in
Ġ k
la y
[ :
t e
dat e
p lot
m b
c or
ar t
fi g
o b
Ġa x
Ġ or
b o
c i
Ġ u
] .
Ġc o
m s
ran d
v i
a se
Ġo p
) .
Ġ >
Ġw ith
Ġ A
er s
Ġ l
g ra
n um
c s
re n
di ct
valu es
lo w
re d
ens or
1 0
ad d
s s
f o
Ġ /
Ġ ra
Ġt f
lin e
e qual
in put
ĊĠĠĠĠĠĠĠĠĠĠĠĠĠĠĠĠ ĠĠĠĠĠĠĠ
Ġn ame
Ġd type
Ġ me
D at
d f
u s
" :
f loat
Ġn umpy
Ġp ar
Ġc ol
p h
Dat a
m o
= "
di r
a ck
i me
a c
t s
m odel
d type
t ri
in d
Ġ P
Ġ C
ĠĠĠĠ ĠĠ
Ġ range
( (
Ġ se
ĊĠĠĠĠĠĠĠĠĠĠĠĠĠĠĠĠĠĠĠĠĠĠĠĠ ĠĠĠĠĠĠĠĠ
" "
am s
Ġ )
ĊĠĠĠĠĠĠĠĠĠĠĠĠĠĠĠĠĠĠĠĠĠĠĠĠ ĠĠĠĠĠĠĠĠĠĠĠĠĠĠĠĠ
pect ed
stan ce
p re
Ċĉ ĉ
[ "
um n
f e
0 1
ct or
Ġres ult
e ight
s h
Ġ <
Ġt h
Ġ 4
Ġ __
er i
ro w
l s
Ġd f
j ect
Ġst r
d a
form at
i ze
it y
p t
l y
Ġn um
. .
t y
ĊĠĠĠĠĠĠĠĠ Ġ
m at
V al
rand om
3 2
out put
ari able
tra in
a g
Ġ R
b u
cl ass
at or
Ġ `
a st
s c
a ult
Ġ[ ]
Ġra ise
un d
Ġb e
i r
f un
* *
] [
Ġ M
Ġ N
Ġ 5
s um
ar y
. ,
( ):
' '
re ad
j o
Ġ+ =
ran s
ma p
= =
Ġp ro
u st
f rame
Ġo s
in it
Ġp lt
lo c
po int
Ġex pected
ar n
ĠT rue
res ult
i c
Ġel if
t ext
co mp
" ]
Val ue
v el
o ur
[: ,
f or
he ck
it s
or d
di m
Ġ log
Ġin put
Ġ False
p i
__ (
Ġ D
y s
jo in
Ġm odel
a mple
lo ad
E qual
un t
Ġ get
Ġ I
Ġ F
g th
ti al
Ġ j
o c
Ġ en
() )
6 4
m ask
l l
label s
l it
op s
a ce
Ġt ime
f t
i mage
me an
i p
h o
v ar
w r
li b
st art
Ġout put
w args
Ġm ax
sa mple
---- ----
ro up
par ams
Ġ z
Ġin t
Ġ @
Ġin dex
l at
tion s
Ġ at
ent s
Ġ \
it er
ren t
ax is
ar get
ame ter
e g
Ġn ew
s ub
in stance
1 2
Ġ al
r id
Ġ list
si g
Ġ E
ri x
' ],
an n
b er
ut e
Value Error
in fo
se s
t f
th od
I N
ar d
id x
b atch
() ,
len ame
Ġ{ }
Ġf ile
Ġp re
zer os
Ġf i
an ge
= [
a ge
at ure
st ate
id th
in e
Ġt ra
Ġ L
a y
r y
ction s
Ġ un
st ep
or e
n ode
. __
ce pt
Ġ* *
u ti
Ġ le
E R
p rint
lo se
re q
Ġ set
lay er
C on
cal e
col umn
00 0
Ġ an
w or
re e
u res
wr ite
Ġ array
Ġp o
c at
w eight
A T
Ġt ype
ĊĠĠĠĠĠĠĠĠĠĠĠĠĠĠĠĠĠĠĠĠĠĠĠĠ ĠĠĠ
ing s
r un
Ġo b
Ġ value
at tr
Ġax is
li m
ol d
! =
st at
] ))
la ce
i z
Ġf rom
Ġis instance
Ġ X
ation s
en er
n ew
ces s
p ha
[ -
i es
Ġc h
Ġ" ""
n orm
lo ck
sp lit
Ġp y
i on
g s
Ġ1 0
col or
g ht
par se
e mp
Ġp d
' .
assert Equal
() .
' ])
la mb
b in
Ġ val
cor e
Ġ !=
Ġ B
S T
ĉ ĉ
Ġ[ '
q ue
our ce
i tial
re g
Ġs hape
ex p
co de
se d
9 9
F rame
name s
Ġm at
) ]
i zer
er ror
Ġm in
i x
lamb da
S t
ul ti
qu en
p tion
e le
n d
lo ss
p s
el l
con fig
Ġ key
c y
Ġc l
t rans
le s
Ġt ensor
int er
1 1
re p
he ad
Ġf loat
di ces
k wargs
lt er
w ith
n e
f n
Ġ G
lo b
po s
Ġ ValueError
t en
g er
Ġ' ''
)) )
' ),
st ri
ot al
d en
n o
Ġ on
at ures
Ġb o
l u
up date
ma in
Ġ( '
len gth
Ġf un
Ġ args
s y
Ġi mage
e f
Ġ 6
v ariable
or y
a k
] ]
co unt
po ch
t ensor
co py
f low
c ur
de d
2 0
L E
Ġ O
ra w
C o
= (
ig n
bo x
g roup
re ate
n an
n n
el d
2 5
u ct
Ġco mp
c lose
b y
Ġt ry
n g
k er
b ase
} ,
u al
O N
gra ph
Ġtra in
um ent
Ġ W
f it
c ent
a v
Ġw h
f a
Ġex cept
D i
e c
d o
Ġf e
Ġ label
Ġg ra
a re
ĊĠĠĠĠĠĠĠĠĠĠĠĠĠĠĠĠĠĠĠĠĠĠĠĠ ĠĠĠĠĠĠĠ
fi lename
ti m
sig n
ar r
ed ge
n umpy
Data Frame
im g
pe c
Ġdef ault
', '
fi x
p p
Ġm ask
il l
In dex
d x
stan t
v ent
A r
R E
s on
R e
)) ,
point s
o ff
fun c
Ġ line
re f
Ġ values
se n
] ),
up le
Ġs p
ate g
Ġ ro
mat rix
ri ght
co m
ameter s
Ġ ver
c heck
e m
def ault
sa ve
b s
p ol
g rid
th on
he re
Ġi m
on t
a mp
si tion
Ġa re
s ing
me thod
u de
r c
le vel
lt a
T est
00 00
5 0
wor k
u se
1 6
an g
" .
N ame
Ġcon t
par am
T ype
Ġb atch
d d
ow n
ig h
Ġs ize
ve ctor
ob j
o g
date time
data set
t x
te mp
ise s
} )
Ġst art
str ing
Ġp lot
Ġs h
ser ies
D E
t able
Ġ .
b ack
th er
at ed
Ġcol or
a ve
Ġcol umn
Ġs ub
Ġ 8
fun ction
p u
s q
ti ve
Ġ all
u le
il d
Ġw eight
ar ange
t arget
Ġ q
column s
2 01
lay ers
et a
p a
eri es
en sion
er r
d ot
A R
Ġs up
Ġa c
m ode
ob ject
o f
Ġex p
ind ow
Ġ 7
ot h
ĊĠĠĠĠĠĠĠĠ ĠĠĠĠĠ
key s
or der
r ate
O R
id s
per ty
or ds
r t
ul l
ort ed
( -
in al
l on
a ch
d ing
F ile
A L
P o
w idth
input s
) ):
he ight
Ġ row
res s
p lt
b le
ĠT he
o me
Ġu se
sp ace
Ġc ur
gra d
Ġ{ '
ro p
el s
3 0
M E
uti ls
at es
arn ing
1 00
ro und
di ms
e ar
L ist
tri b
val id
in dices
an ce
E x
t he
res hape
] :
vi ce
lob al
s cale
te m
' ))
m on
res h
P ar
Ġop en
Ġ H
Ġs ample
1 5
ti t
la st
g en
o k
'] .
Ġ V
Ġm a
c le
' ):
Ġth is
ver t
c f
er y
Ġc heck
Ġ Q
st d
== ==
ment s
i v
P ro
er ate
ol s
Ġ U
i ck
: ]
ar k
Ġf ig
f req
m od
and as
Ġdi ct
Ġs ys
Ġc v
w ard
ti v
val s
ab s
{ }
pro cess
ĊĠĠĠĠĠĠĠĠĠĠĠĠĠĠĠĠĠĠĠĠĠĠĠĠĠĠĠĠĠĠĠĠĠĠĠĠĠĠĠĠ ĠĠĠĠĠĠĠĠ
ol u
b ar
re ct
Ġ arg
p lace
S I
b i
Ġin ter
un k
c v
int s
n et
i cal
lin es
an t
in s
in itial
sample s
S E
st ack
ast ype
d t
Ġh as
fe atures
c li
Ġn ode
sc ri
um erate
co pe
Ġ K
con v
Ġt arget
type s
li ce
Ġst ate
S et
ite ms
con t
([ [
I D
a u
pe ci
Ġp ass
weight s
Ġm ath
ĊĠĠĠĠĠĠĠĠĠĠĠĠĠĠĠĠ Ġ
qu ery
fi lter
Ġd o
lo cal
Ġcon fig
tr y
Ġen umerate
Ġb y
a ct
Ġv ar
Ġdi m
cs v
Ġ end
cl as
Ġdata set
mb ed
plot lib
m l
n s
.. .
b lock
head er
ol der
Ġc om
id get
c u
tit le
li c
t op
0 2
le ft
re turn
Ar ray
A G
est im
ti es
ĊĠĠĠĠĠĠĠĠ ĠĠĠĠĠĠ
de p
me ta
ac he
de lta
s o
1 4
ati ve
bu g
el p
ce ption
Ċĉĉ ĉ
Ġ labels
i o
g ing
C ol
Ġth at
mo st
b e
pro perty
Ġp ath
con stant
ar ch
fi ll
Di ct
sh ow
Ġk er
ve c
h ist
'] [
result s
Ġnum ber
T ime
di st
( {
p l
1 8
ĊĠĠĠĠĠĠĠĠĠĠĠĠĠĠĠĠĠĠĠĠĠĠĠĠ ĠĠĠĠ
2 4
ĊĠĠĠĠĠĠĠĠĠĠĠĠĠĠĠĠ ĠĠ
Ġt emp
Ġs um
n el
Ġ ]
) [
bo se
ĠR e
] ],
B o
ĊĠĠĠĠĠĠĠĠĠĠĠĠĠĠĠĠ ĠĠĠĠ
Ġo ther
py thon
T E
e poch
Ġ random
uti l
ro l
m ath
Ġt m
on es
Ġn orm
Ġ }
ĠI f
Ġre ad
> >
Ġ1 00
Ġ lambda
Ġm ust
c reate
quen ce
tion al
al pha
fe ren
Ġpar ams
Ġim g
s k
m ary
Ġc al
A N
ci py
R O
" ),
w e
] ])
p op
ul d
tx t
norm al
Ġt rans
) ],
e val
ĊĠĠĠĠĠĠĠĠĠĠĠĠĠĠĠĠĠĠĠĠĠĠĠĠĠĠĠĠĠĠĠĠĠĠĠĠĠĠĠĠ ĠĠĠĠĠĠĠĠĠĠĠĠĠĠĠĠ
Ġs k
c ul
s cal
Ġ Y
Ġi dx
sa ge
Ġ In
Ġr un
ĠE x
Ġtensor flow
ite m
Ġm ode
0 5
me tri
qu i
con n
vi ew
m an
Ġpar ser
Ġ 9
op y
b l
Ġmat plotlib
Ġv ariable
n er
ax es
zer o
mp l
co ord
st ra
cal l
Ġp er
ĊĠĠĠĠĠĠĠĠĠĠĠĠĠĠĠĠ ĠĠĠĠĠ
ra di
-------- --------
sel ect
] ['
Ġfun ction
s core
1 3
t otal
Ġm o
co der
li ke
low er
C O
Ġ DataFrame
n ot
Ġi ter
at ter
el ds
s g
Ġn o
si fi
5 5
Ġ> =
p ri
mo ve
u i
0 3
Ġ[ [
c an
d oc
" ],
c a
d b
ser v
n a
se q
trans form
Ġme thod
) *
Ġc or
gra m
Ġal pha
es s
ann ot
Ġz ip
m y
ĊĠĠĠĠĠĠĠĠĠĠĠĠĠĠĠĠĠĠĠĠĠĠĠĠ ĠĠ
arg ument
f ace
s ource
ob s
t on
"" "
or ch
Ċĉĉ ĉĉ
m ulti
sq rt
ver sion
1 9
f lat
Ġ( "
d u
off set
ĊĠĠĠĠĠĠĠĠĠĠĠĠĠĠĠĠĠĠĠĠĠĠĠĠ Ġ
Ġk wargs
fe ature
st amp
Ġme an
Ġh elp
t ol
A ll
Ġ1 2
pro b
ut h
C T
ĊĠĠĠĠĠĠĠĠ ĠĠĠĠ
Ġre g
Ġf rame
Ġs y
Ġst ep
ĊĠĠĠĠĠĠĠĠ ĠĠ
Ġw ill
op tions
Ġ layer
ti ck
an o
Ġcolumn s
s cope
con d
ut ure
ust er
Ġ< =
T ensor
col s
num ber
t rue
or s
Ġp andas
iz ed
` .
ateg or
di ff
at s
u ff
Ġsup er
Ġe le
ran k
un it
step s
if t
Ġob ject
pre dict
T o
assert True
R a
in f
Ġ> >>
E N
ver age
7 5
al s
e y
con text
im um
= {
op en
con cat
Ġ |
co un
ex pected
g y
ag er
Ġs cipy
f la
Ġn et
se ed
co ords
si m
ĊĠĠĠĠĠĠĠĠĠĠĠĠĠĠĠĠĠĠĠĠĠĠĠĠĠĠĠĠĠĠĠĠ ĠĠĠ
Ġ --
M odel
file s
m ark
Ġweight s
x y
cur rent
er ge
C l
ĊĠĠĠĠĠĠĠĠĠĠĠĠĠĠĠĠ ĠĠĠĠĠĠ
ma g
ur l
j son
en ti
in ue
( _
de bug
ta in
U T
Ġresult s
r on
Ġt ext
s pec
e ction
al y
Ġt able
ro ot
( *
pe d
Ġp os
stat s
lu x
Ġa bs
ut o
ctor y
6 0
dat es
un ds
ch ann
st em
Ġ[ "
Ġin itial
D I
str uct
Ġt uple
ĠS eries
Ġcl ass
ra ises
w ord
n on
s parse
ro ss
S tr
e v
variable s
Ġt otal
ra p
Ġ up
c ell
un i
Ġ load
t mp
Ġfi lename
Ġ ha
P E
id den
feren ce
2 00
node s
ub e
M e
red u
p ack
resh old
m d
) /
Ġc opy
le d
fig ure
Ġp h
i ch
sen t
y le
al g
ĊĠĠĠĠĠĠĠĠĠĠĠĠĠĠĠĠĠĠĠĠĠĠĠĠ ĠĠĠĠĠ
p ort
Ġm atch
ati c
n t
R es
ma ke
R A
t om
Ġp a
de vice
var s
3 3
re l
cl ude
V ariable
se g
s ort
0 4
S ize
Ġc an
Ġs ig
g a
Ġcont inue
w here
C h
h and
ati o
at om
Ġor der
f uture
tim izer
Ġn e
Ġs cale
output s
m atch
1 7
Ġ lo
Ġob j
po sition
w o
le g
ens ity
o und
le arn
Ġi t
. ")
e vent
Ġg roup
m is
de c
M P
Ġ error
Ġ ,
3 4
m t
G ra
cf g
bin s
conn ect
olu tion
w er
rep lace
Ġinput s
O p
= ['
U n
g lobal
Ġ &
ĊĠĠĠĠĠĠĠĠĠĠĠĠĠĠĠĠĠĠĠĠĠĠĠĠ ĠĠĠĠĠĠ
Ġb ase
un its
Ġm sg
ur ation
ms g
e ff
fi eld
I T
test ing
" ):
g ener
. ')
Ġe poch
s v
Ġre f
Ġ lin
: `
or ig
c ast
Ġb u
Ġf a
en se
Ġwh ile
g pu
ver se
pi x
Ġlog ging
[ ('
w indow
* (
iz ation
'' '
t ings
Ġw r
cor es
ut ton
/ /
Ġop s
m u
po se
" ])
re ak
m and
) ])
L ay
row s
fa ctor
Ġ2 0
+ '
8 0
w h
emp ty
i eld
de s
pect r
= -
Ġlen gth
oc ab
l ate
i dat
h is
Ġd t
N um
ele ment
cent er
a ction
Ġf req
dep th
2 2
6 5
y n
') .
ho uld
C H
ke ep
Ġfor mat
s lice
ti c
g r
clas ses
co s
, '
Ġb in
Ġw idth
M A
u ser
Ġ loss
Ġ` `
s u
Ġstr ing
par ameters
s sage
on g
Ġlog ger
Ġt mp
Ġcur rent
ang le
v ari
o ver
par ser
mple x
6 7
A l
c c
G et
Ġco ord
a f
cl s
as h
Ġu sed
O ut
di sp
mple ment
u d
lim it
l er
Ġ one
sub plot
Ġg en
ext ra
n dim
al most
line ar
Ġa d
p on
Ġ' .
col le
Ġme tri
am ma
Ġa dd
arn ings
Ġmat rix
] ):
re quen
M at
r s
c re
eri od
4 0
v s
cor d
i b
nd array
fo o
Ċ ĠĠĠĠĠĠ
the ta
L O
I G
ses sion
] *
Ġu ti
i al
time s
ir st
g b
f name
Ġfun c
Ġ datetime
ĠN ot
di ctions
D AT
re am
Ġor ig
tiv ation
w ise
Ġa pp
Ġs im
Ġ right
Ġco unt
estim ator
p red
bo ol
edge s
turn s
st op
Data set
Ġm ulti
Ġfi lter
stat es
all close
g g
k en
Ġf it
dtype s
Ġfe ature
'] ['
Ġ qu
Ġs hould
Ġe vent
on ent
Ġle vel
e mbed
oth er
if orm
t ree
Ġof f
s ol
image s
po ut
ul ation
Ra ises
l d
app ly
peci fi
m i
bu ff
ist s
li p
res sion
E n
Ġpy test
Ġver bose
Ġc ls
Ġdi ff
Ġ arr
od y
Ġdi st
di v
s in
O b
ta g
meta data
A B
fi r
c ache
'] :
R eg
Ġma ke
Ġt op
Ġg rid
o ds
h s
Ġc reate
f ind
si s
stri p
g n
Ġt orch
at er
ro pout
In put
loc ation
s ha
W idget
Ġin dices
ten tion
c ation
trib ute
o us
p d
Ġs ave
gra di
Ġle ft
ch ar
Ġse ss
Ġgra ph
ĊĠĠĠĠĠĠĠĠĠĠĠĠĠĠĠĠĠĠĠĠĠĠĠĠĠĠĠĠĠĠĠĠ Ġ
ategor ical
Ġin it
re ctory
Ġt s
as array
po ol
Ġg ener
Ġop tional
: -
Ġb lock
ample s
me sh
Ġgra d
Ġ ar
I mage
y label
Ġ --------
di stance
f ra
t ing
con vert
pa ir
` ,
train ing
i loc
Ġ( (
Ġe ach
o u
Ġf irst
Ġcon text
8 4
an y
if y
assert Raises
d rop
Ġo ver
stri bu
Ġthe ano
ci sion
ut es
Ġbo x
re al
Ġs ource
an ti
Ġcon v
si de
se arch
as sifi
pro p
s ys
Ġm ap
me as
um ents
st ore
6 6
Ġpo ints
3 5
: ,
g o
que st
ĠT ype
Ġra w
() [
T ra
9 0
Ġi d
L o
scal ar
S eries
Ġname s
Ġi tem
Ġa ct
si d
Ġc ent
( ['
p ng
w a
ro t
ck et
redu ce
ĠP ar
di ction
op tion
idat ion
Ġpar am
b ot
and ard
buff er
Ġs ign
9 5
e valu
assert All
Ġin fo
Ġdim ension
add ing
m ory
co st
Ġnorm al
cu ra
g re
i cs
Ġm od
2 7
n b
u int
am er
Ġax es
ro ll
x label
Ġ ..
L ab
fir st
iv en
N A
model s
la g
L AG
Ġa v
Ġst ri
ac c
F e
Ġb reak
Ġp ick
Ġwh ich
Ġun it
c ut
C E
di an
ran ch
S p
int eg
lab le
ro py
d raw
cura cy
I ON
sum mary
ase s
4 5
Ġd s
b eta
Ġha ve
T H
Ġme ta
U N
8 5
py test
D F
fi lt
Ġre t
ĠT est
t uple
al le
Ġw or
A S
L ine
ĠRe turns
t k
[: -
p ts
n ext
it ude
Ġbo ol
s up
ul ari
pi ck
Ġon ly
uni que
n c
d own
re move
scri ption
" ))
F un
Ġfe atures
Ġker nel
==== ====
Ġoutput s
f ull
Ġ last
pa rent
fla gs
f ont
sig ma
in ed
ĠA r
ht t
Ġcol le
Ġs c
T he
LAG S
ĠEx ception
Ġ[ -
bo und
ĊĠĠĠĠĠĠĠĠĠĠĠĠĠĠĠĠĠĠĠĠĠĠĠĠĠĠĠĠĠĠĠĠ ĠĠ
reg ion
op t
ect or
3 7
S e
on ents
dim ension
initial izer
Ġ Z
Ġ' _
F F
Ġc ore
g round
re ction
8 7
Bo x
y ear
to ols
ĠC on
_ (
ex ec
Ġs orted
ĊĠĠĠĠĠĠĠĠĠĠĠĠĠĠĠĠĠĠĠĠĠĠĠĠĠĠĠĠĠĠĠĠ ĠĠĠĠ
Ġat om
par s
p r
ti cal
). __
vi sion
: //
si tions
s rc
si an
Ġ' \
a i
ĊĠĠĠĠĠĠĠĠĠĠĠĠĠĠĠĠĠĠĠĠĠĠĠĠĠĠĠĠĠĠĠĠ ĠĠĠĠĠĠĠ
Ġsk learn
t es
Ġ" ,
ub le
ĠType Error
DAT A
v ed
Ġat tr
per im
il ity
g t
di c
aly sis
co mb
Ġde p
mplement ed
C A
Ġ' %
0 6
Ġ height
Ġ' ,
L e
e b
f c
it le
Ġoff set
= %
Ġx range
metri c
pol y
h older
leg end
. "
~ ~
un iform
eri c
da y
requen cy
res pon
Ġde c
Ġpo int
Ġ update
3 6
attr s
Ġ' __
co ef
M ap
b and
an el
par ameter
b it
z ip
Ġp ol
Ġf ont
` `
mod ule
({ '
P O
T ext
de red
) +
9 4
U L
i i
pro j
me d
Ġop tions
h idden
Ġex tra
U p
i de
a in
Ġ err
r atio
ph i
amer a
P lot
. ],
Ġt ri
pre fix
F I
par ti
stat us
Ġb i
Ġker as
Ġe v
9 7
fi ci
Ġl at
** **
ĠT his
ĠQ t
cul ate
] +
Ġs cal
fi elds
ex ists
Ġde l
h y
av g
C ase
ad er
Ġf ill
ar ker
Ġ lib
p le
Ġa ction
bi as
Ġg lobal
n u
Ġin d
Ġd oc
m erge
le an
si ble
Ġ1 000
A D
L og
den se
k w
Ġn d
B ase
E le
8 8
lay out
IN G
Ġfile s
Ġc f
pro d
py plot
cl uster
w rap
Ġhas attr
Ġ header
comp ute
)) .
_ {
mb ol
s w
Ġb ack
to ur
p ad
t ed
Ġn b
Ġs ame
stribu tion
D e
Ġ vector
h igh
st atic
t ask
ol ute
en ate
Ġstr uct
al ign
color s
p ing
re c
se quence
s ur
s with
s m
Ġst ats
. )
Ġtrain ing
Ġtrans form
coun ts
T Y
Ġ ...
Con v
sh ift
Gra ph
sy m
N o
ci es
f s
in ates
Lay er
our ces
log ger
Ġc ell
Ġm on
epoch s
Ġde lta
Ġvariable s
b est
perim ent
de v
Ġpar ameters
U M
P I
c m
igh b
P re
chann els
Ġ[ (
n own
Out put
bo unds
N N
a uto
th reshold
wor ds
St ate
p atch
metri cs
ch unk
ĊĠĠĠĠĠĠĠĠĠĠĠĠĠĠĠĠĠĠĠĠĠĠĠĠĠĠĠĠĠĠĠĠ ĠĠĠĠĠ
Ġs q
Z E
M ax
P ath
1 000
ge x
Ġcon stant
b a
el se
s n
di ag
d r
Ġw arnings
uff le
]) .
lin k
2 3
n ess
p si
an s
Ġc ode
ener gy
c el
pectr um
in v
c ube
Ġc all
ef ault
' +
Ġ' /
Ġget attr
Co mp
sign al
Ġcont rol
ent ry
N orm
ch o
: :
ut ed
DE F
% (
ep s
Ġ_ ,
w idget
bu ild
Ġuti ls
Ġn ext
Ġin te
Ċ ĠĠ
la p
f inal
di s
Ġst d
n eg
Ġ date
f lux
at ing
Ġs u
atter n
Ġ query
Ġ" \
us h
F i
S S
[: ]
(' %
I O
Ġm u
lon g
Ġp i
ch ild
rand n
de t
Ġ1 5
ker nel
up per
Ġm y
A t
b as
Ġs pecifi
st yle
et we
T able
sk ip
de g
Ġg iven
etwe en
Ġn n
Ġj son
trib utes
Ġn on
ĠC o
Ġsample s
] -
v ocab
9 6
s orted
Test Case
us sian
it or
t ure
Ġf ound
Ġw indow
_ %
level s
-- -
ĊĠĠĠĠĠĠĠĠĠĠĠĠĠĠĠĠĠĠĠĠĠĠĠĠĠĠĠĠĠĠĠĠ ĠĠĠĠĠĠ
k l
s or
on s
ver bose
U R
que ue
n al
arg v
Ġma in
Ġo per
ome try
Ġval id
disp lay
Ġ ),
ti tem
per ties
Ġ: ]
Ġ ge
(' --
lin space
Ġ5 0
_ ,
c r
o st
lin alg
cor r
en gth
trans pose
co mplex
ile d
Ġ loc
op er
olu me
Ġsig ma
ti le
l r
s qu
i date
Ġ local
() ))
Ġu ser
h as
Ġ: ,
Ġin st
Ġ- =
f older
Ġp cv
T I
ari es
s cores
or ith
IN E
hand le
f its
Ġs o
2 8
co ding
ext end
tick s
vi ron
Ġ{ "
a ir
assifi er
Ġ- >
e e
i ew
Ġ ],
sy stem
g ine
ch ange
Ġch unk
2 6
In fo
place holder
Mat rix
Lab el
Ġ3 0
ht ml
Ġt er
cont rol
g amma
en v
Ġt itle
mo oth
v as
Ġ/ /
Ġse g
ix ed
Ġact ual
Ġdi sp
Ġfi eld
le ss
po wer
save fig
Ġs pec
stan ces
ĠS t
concat enate
f y
an k
A c
E L
po st
Ġf n
res ample
Ġ-------- --
Ġw here
x s
Ġp l
set tings
Ġe mbed
shape s
per i
for e
K ey
m ul
Ġs core
ĠT ime
Ġ },
c ap
Ġ J
Ġs m
on ly
Ġs lice
Ġ* =
Ġele ment
Ġs parse
ag g
Ġun i
re cord
ff t
Ġde st
ist er
Ġsh ow
Ġ2 55
Ġ ----
Ġm x
Ġpar ameter
Ġan g
Ġ' -
se c
Ġy ield
SI ZE
do main
f in
r ng
ri s
Ġu sing
j ust
str u
Co unt
li ght
I mplemented
ateg y
S A
w ar
Ġp ri
Ġh ist
c ed
Ġre qui
vi de
dir s
c er
tra ce
Ġepoch s
ul ar
p df
Ġ1 1
d ump
t z
__ ':
Ġ1 6
Ġwr ite
L I
re lu
evalu ate
Ġ ):
ac tive
g ress
Ġs rc
d m
Ġw ord
Str ing
4 4
ker as
sing le
, :]
box es
h i
Q t
ing le
Ġ2 5
ta il
n ing
9 8
F or
id enti
", "
TY PE
en ce
ĠPar ameters
, -
0 7
F a
la ck
Po int
B utton
Ġ lines
me ssage
tr uth
Col umn
([ "
al og
tra ck
flat ten
as sign
sha red
Ġcolle ctions
Ċ ĠĠĠĠ
lo op
Ġ" %
and om
ble m
m ass
Ġr ate
di o
C lose
S hape
(' \
Ġst op
struct ure
time stamp
Ġw e
Ġcon tain
Ġm is
) ;
': '
) **
e red
g u
Ġco un
T rans
peri od
x x
C C
TE ST
j ob
Ġ" .
Ġex t
read er
] =
Ġthe ta
Ġse ed
i k
Ġse quence
c ross
no ise
M O
Ġ% (
3 8
ra vel
chann el
p orted
all y
Ġ old
il der
Ġp red
re set
m m
C heck
v es
CO L
Ġt ag
Ġ rank
S C
Ġch ann
clas sifi
ort h
Ġh igh
bin ary
Ġimage s
it ch
R I
si tive
Ġro ot
NA ME
Ġd b
Ġdi stance
op ts
, ),
an e
gradi ent
ter min
IN T
pe ak
In t
Ġnet work
N ode
r m
Ġ edge
in i
op tim
le arning
Ġb est
comp ile
Ġ keep
Ġver sion
log y
ĠNot Implemented
are a
Ġcomp ute
f er
n ow
ow er
re t
for ward
Col or
/ (
I s
Ġp ix
Ġb ins
w arn
Ġe val
7 7
ser ver
Ġ2 00
et ch
In ter
en tial
Ġs ur
reg ulari
Ġst at
comp onents
s ite
c ase
ser ial
Ġcent er
E T
w w
en cy
o gram
o lean
Ġw x
com m
process ing
) -
P y
Ġs ol
alle l
a verage
rep r
D ir
it es
Ob ject
cat ed
i ve
um my
ĊĠĠĠĠĠĠĠĠĠĠĠĠĠĠĠĠĠĠĠĠĠĠĠĠĠĠĠĠĠĠĠĠĠĠĠĠĠĠĠĠ ĠĠĠ
w ave
orith m
Num ber
\ \
co v
set s
Ġdep th
ew idth
M S
N et
ĊĠĠĠĠĠĠĠĠĠĠĠĠĠĠĠĠĠĠĠĠĠĠĠĠĠĠĠĠĠĠĠĠĠĠĠĠĠĠĠĠ ĠĠ
y lim
si z
om ent
pre sent
Ġan y
i ce
frame s
A dd
D O
D ate
Ġpick le
Q u
: .
Ġ Data
W arning
st er
sq l
ame tri
Ġdi vision
Ġun its
h ot
tol ist
e q
cl u
ateg ory
cor rect
w d
de scription
sel ection
le ase
Ġmetri cs
Ġcf g
.. /
in sert
u g
un time
N ot
Ġ% .
com mand
j or
m k
net work
t d
ch rom
Ġre l
assertAll Equal
so ft
T O
r ho
ust om
g l
p b
ab ility
Con fig
o ck
E D
Ġ[ ],
F orm
cli p
f ul
m ut
O r
ar ge
to ken
b ad
ype s
2 1
: '
ev ents
v is
en e
radi us
k ens
pe ed
p en
lo ud
ĠA n
Res ult
Ġpro b
select ed
Ele ment
i ent
H ist
Ġf ull
im al
par ametri
Ġpre dict
O n
d ings
Ġfe ed
Al most
de code
ic y
Almost Equal
Ġ dat
er ature
DI R
array s
Ġwor k
s li
Ġb eta
ob serv
atom s
T h
dir name
ust ers
Par ams
Ġb ut
' }
3 1
: ])
ath er
ap i
ĠT able
, )
Ġre quest
index er
rand int
ĠP eriod
ĊĠĠĠĠĠĠĠĠĠĠĠĠĠĠĠĠĠĠĠĠĠĠĠĠĠĠĠĠĠĠĠĠĠĠĠĠĠĠĠĠ Ġ
Ġro t
Ġf ind
2 000
P S
l ing
r b
x lim
Ġr ng
a ke
+ "
3 9
at tention
exp and
and le
start swith
Ġdo es
seg ment
Ġmetri c
o x
u les
con f
Ġfont size
in k
Ġsp lit
A n
Ġp ad
Ġ Index
mon th
Ġpa rent
W ith
g in
by tes
parametri ze
" ].
2 9
pre dictions
ator s
f l
Ġ" __
is h
b ranch
assert AlmostEqual
Ġwh en
ction ary
me mory
Ġdtype s
c ri
Ġx y
vari ance
a w
Ġ' '
di rectory
Ġreg ion
Ġcon vert
Ġac tivation
sa mpl
e ager
as ses
group by
se ction
ĠNotImplemented Error
P er
b ody
ue st
Ġse q
Ġtype s
Ġpro cess
M in
in ner
scri pt
Ġy ear
ac curacy
eb q
Ġspecifi ed
0 8
T emp
d ropout
r gb
Ġme ssage
Ġ la
ĠP y
do uble
log ical
C ON
Ġop timizer
], [
99 99
bot tom
< /
dep end
E X
e ak
Ġt ask
qu anti
group s
G ui
c pu
Ġ' --
Ġop t
4 8
V er
Ġd raw
25 5
---------------- ----------------
p ass
Ġco ords
ho od
4 7
pro to
: \
d ensity
r ing
Ġf name
ĠA t
sc atter
C om
H T
log its
Ġt ree
o se
ex ample
Ġg o
cal c
N O
con ds
ex it
4 2
Ġre sp
target s
ar c
S P
} '.
il y
mp ty
able d
ach ed
F loat
th read
Ġcon n
U S
Ġ head
r ation
s d
le te
' s
Ġt wo
Ġd a
op timizer
a ctions
en code
Ġth an
error s
a a
l b
- %
O f
man ager
Ġp adding
c he
Ġin stance
ati st
f ast
di tion
Ġin place
Ġtime s
ro ad
el i
embed ding
ot e
Ġpre dictions
Ġ( -
c d
or iz
V ar
Ġy ou
Ġt rue
pro x
object s
a ded
me dian
e k
. /
er o
w arning
Ġpar se
exp ort
untime Error
F T
cor ds
S ub
hist ory
coun ter
i j
u sed
on al
6 8
A d
[ (
ign ore
ai lable
t n
Ġval s
E S
f p
Ġi gn
th is
form ation
Ġde vice
l ation
(' -
inter val
yn am
c p
Ġkey s
r ary
or g
Ġob serv
A pp
Ġsign al
p anel
Ġpa ir
c g
ter m
w x
e ad
cli ent
c um
ra d
ĠI mage
( __
, ))
on d
I tem
Ġpo sition
Ġ" "
que e
Ġex ec
sp an
ta u
D ist
t wo
Ġp eri
ĠD efault
I d
_ )
re pe
th ods
v ing
st ar
Ġmask ed
ĊĠĠĠĠĠĠĠĠĠĠĠĠĠĠĠĠĠĠĠĠĠĠĠĠĠĠĠĠĠĠĠĠĠĠĠĠĠĠĠĠĠĠĠĠĠĠĠĠĠĠĠĠĠĠĠĠ ĠĠĠĠĠĠĠĠĠĠĠĠĠĠĠĠ
s sion
eri al
N a
ol ds
Ġal low
Ġfa ctor
Ġpre fix
sy mbol
Ġdi stribution
Ġb etween
Ġin clude
() ]
Ġgra di
wr iter
Ġinter pol
con tour
ho me
= ["
x t
p ly
di mage
A x
for ce
M ulti
con stra
st ream
00 1
ast er
' t
ĠS tr
f r
n r
ex cept
Ġe ps
Ġpo ol
wa it
block s
G B
G roup
s peci
t ot
ra in
si st
c md
Ġt ol
co eff
(' /
) ',
lo s
(" \
Ġk ind
x ml
, "
ex amples
C al
Ġob s
Ġdiff e
( **
S h
Ġm ag
f fix
Ġat ol
St art
P UT
a ussian
c ategorical
Ġf lat
Ex ception
uff er
d y
Ġa b
: ],
m c
ĠĠĠĠĠĠĠĠ Ġ
le t
Ġse ssion
. *
ha in
t orch
v m
par t
ver y
Ġ1 4
is nan
Ġ{} '.
o id
ex periment
Ġpro j
Ġc ache
n x
en coder
Ġn an
as ure
ect ed
ĠU n
Ġstep s
Ġd ay
set up
Ġabs olute
M o
V ER
b lack
Ġ zero
el per
quee ze
Ġ url
Ġc sv
k ind
Ġc y
Ġa p
siz es
Ġ low
Ġs ingle
sc re
Ġde t
fla g
P U
r f
Ġ series
W indow
p andas
gener ator
ighb ors
) ')
I M
w s
Ġnode s
i an
mb le
ch ed
bu cket
E ST
req uest
g ame
p us
Con t
cle ar
F rom
Ċĉĉĉĉ ĉĉ
fra c
f ter
filt ers
i fi
val idation
ith er
iter ations
c b
ti ces
Ġre du
ĠP ro
Ġs i
Ġal g
LE CT
B in
u id
I S
pro ject
ho st
in es
Ġt r
ĠF LAGS
Ġbo und
xy z
G rid
Ġen er
Ġcl uster
Ġh idden
ok up
Ġ li
di us
Ġex ample
Ġpro p
ĠAr gs
l st
po sitions
inter pol
static method
Ġperi ods
ati al
Ġth reshold
: %
htt p
' },
t ran
in p
cat es
Ġav g
Ġs ort
Ġsk ip
O T
ä ¸
201 4
) (
Ġdi r
Ġrow s
I ter
Ġset up
Ġ join
al f
Ġf inal
T ree
b utton
Ġt y
__ ":
Norm al
Ġ---- ---
D im
re ference
Ġb and
Ġl on
Ġj ob
tiv ity
B C
p attern
} ".
de sc
o o
s pect
colle ction
regulari zer
m f
time delta
com mon
in c
ent ropy
B y
D A
G ener
se ss
ma jor
Ġ/ =
std out
st or
Ġd own
po w
comp are
out er
', ')
'] ))
Ġsum mary
Fe ature
. '
(" %
back end
il ar
C K
si mple
mis sion
Ġarg parse
F LAGS
t ab
Ġch ar
Ġc re
Tra in
ĠM ulti
ategor ies
Ġbu ild
S pec
Par ser
Ġmod ule
Ġv ari
parti tion
" ][
r nn
Ġc tx
ele ct
dataset s
f ree
am b
pectr al
N D
N T
Ġ layers
class method
Ġfi lt
tra ct
ne ction
est ed
7 0
k nown
Ġs ha
arg max
U ser
W r
") .
sc an
la gs
li ent
R andom
Ġc lose
ta ke
ta gs
Ġpar ti
cli ck
he ma
fa il
i mpl
Ġs cope
end er
Ġco st
Ġop tim
htt ps
Ġm ay
respon se
"] ["
p ress
pro perties
ta ins
Ġ{} ".
A s
M od
g al
Ġc map
Ġ2 01
stan ts
mis sing
dec ay
ac tivation
=[ ]
n ull
he et
ĊĠĠĠĠĠĠĠĠĠĠĠĠĠĠĠĠĠĠĠĠĠĠĠĠĠĠĠĠĠĠĠĠĠĠĠĠĠĠĠĠ ĠĠĠĠ
pri or
integ er
P ol
Ġh ow
] ["
n one
path s
Ġ3 2
Ġstri de
O P
Ġc i
Ġm erge
Ġmon th
Ġf ra
lo pe
inter p
h ash
In valid
ĠF or
Bo und
h at
th resh
test s
P AT
Ġ mp
gradi ents
} .
length s
sid ual
UL T
Ġp eriod
colle ctions
B U
Ġp op
Ġfor ward
da ys
S um
p g
r al
Ġdisp lay
V ector
pe line
radi ent
O per
Ġin to
app ing
loc ity
gener ate
Ġnd array
S V
in clude
[ [
() ),
jo int
t t
Ġ lower
in ate
fici ents
Ġst andard
- >
G L
a ff
ĠK ey
Ġf in
b ers
se p
__ ,
Ġ' {
Ġm arker
Ġb ot
'] ]
M es
re size
ption al
at tributes
10 1
c df
Cl ass
Fun ction
pair s
Ġme mory
$ \
non zero
E d
d up
le v
g ray
is instance
dered Dict
D is
Ġro und
Ġmo ck
O L
v ol
" +
: {
C ore
en u
Ġre ference
') [
D es
__ )
mo id
Ġ" /
Ġse n
h df
Ġa u
im show
EN T
f requency
Ġg l
z ed
Ġ limit
Ġc ase
vector s
K E
u sion
en gine
he ther
Ġse cond
comp onent
le c
Ġ1 3
12 8
Ġang le
R un
as sed
Ġm ore
Type Error
lo or
coord inates
Ġ ])
Ġc ross
Ġto ken
temp late
ï ¼
Ġt z
Ġt au
rep ort
meas ure
de st
Ġme sh
can vas
Ġgener ate
road cast
R ep
st andard
orig inal
M ask
vi ded
pri ce
Ġv ocab
S H
z y
Ġt ile
cont ent
~~ ~~
_ .
c cess
Ġle arning
R ange
s ources
en viron
Ġa verage
assert False
[: :-
B A
lo cs
0000 00
Po ints
} \
cle an
ch ain
Ġst ack
vi ces
cu da
pro gress
check point
b its
Ġ" _
l p
m ol
up les
Ġ4 0
o om
p tr
() ):
quen ces
ĠO r
M ode
V AL
ter n
te ms
are st
Cl assifier
A P
AB LE
x i
Ġs a
Po ol
Ġrequi red
m id
s queeze
gg reg
s ame
prod uct
u es
stri b
Ġf lux
AT ION
call back
Hist ory
reg ister
C ur
o logy
Ġre al
DEF INE
8 9
={ '
pix els
oriz ont
, \
de lete
([ ])
cl f
tic les
MA X
f etch
Ġw as
Ar g
I L
ar m
Ġresp on
) "
u tion
Ġ he
RO M
= .
Ġscal ar
ynam ic
k s
Ġe valu
Ġse arch
pick le
a uth
Ġdi ctionary
11 1
Ġbo unds
Ġsup ported
T R
ur st
Ġm ass
extra ct
Ġorig in
tribute Error
a red
ta ct
den ti
: ',
Lay out
subplot s
d c
al t
Ġdi s
Ġcol s
ĊĠĠĠĠĠĠĠĠĠĠĠĠĠĠĠĠĠĠĠĠĠĠĠĠĠĠĠĠĠĠĠĠĠĠĠĠĠĠĠĠ ĠĠĠĠĠĠĠ
mask ed
ang les
pix el
soft max
4 9
_ [
Ġs cores
ĠR untimeError
Ġarg ument
5 00
si ve
comp at
Ġbi as
Ġinte ger
Ġle g
C L
ti ce
Ġs w
assertAll Close
de coder
Ġc os
Ġc hain
fe ed
P os
di g
Ġg lob
ĠT ensor
Ġ6 0
c rop
Ġc ap
te ction
eli hood
Ġc s
([ ],
re qui
st im
sp y
IG HT
S cal
per io
new axis
Ġno ise
B lock
S y
Ġth en
Ġsy stem
3 00
Ġi ris
)) ]
p x
z ation
C ell
Ġfor ce
Ġr tol
([ (
cl usters
sa fe
H e
V E
Po st
re index
an alysis
ist ic
a co
ri ver
Ġh y
d uration
PAT H
Ġpo st
g z
to ol
age s
Ġare a
orizont al
w b
ct x
Ġb ody
ĊĠĠĠĠĠĠĠĠĠĠĠĠĠĠĠĠĠĠĠĠĠĠĠĠĠĠĠĠĠĠĠĠĠĠĠĠĠĠĠĠ ĠĠĠĠĠ
Ġarray s
ec tive
} $
Ġe qual
Ġmis sing
ot s
Ġi mp
assert Is
Ġph i
Ġsq l
b r
ad r
Ġfig ure
Ġup dates
Ġb box
Ġx s
Ġg round
Ġat tention
Ġn eg
ol low
/ '
b box
at ype
ile up
ĊĠĠĠĠĠĠĠĠĠĠĠĠĠĠĠĠĠĠĠĠĠĠĠĠĠĠĠĠĠĠĠĠĠĠĠĠĠĠĠĠ ĠĠĠĠĠĠ
ject ory
Ġen v
Ġcontain ing
ge d
max imum
act ual
me m
ro i
'] ),
cal culate
sur face
di rection
batch es
Ġarg uments
Ġunit test
N e
mb ols
bl ue
wh ite
m it
v olume
in valid
ge ometry
ig en
Ġr s
roll er
sel ine
rep lic
Ġener gy
__ ()
con trib
iter ator
C ode
Ġ' +
si red
Ġsy m
] /
t ex
Ġb l
Ġd ensity
G radient
s pectrum
str ategy
fix ed
lim its
ten ce
Ġev ents
log ging
ĠS ee
bu f
ĠN um
F it
P ri
W eight
c amera
w fn
ge titem
ele c
Ġobject s
Ġcon d
.. .,
cel ls
( ',')
0 9
Ġi i
ĠV ariable
li ties
AT E
i mp
s f
Ġc md
Ġd rop
read y
ĠD i
Me di
: ",
Ġcom mand
Ġ estim
er ance
Ġc ut
Ġpol y
g on
en cies
val idate
re cords
Ġ" --
Ġrespon se
B atch
w in
in st
Ġpy lab
Ġcolor s
= ='
Ġco ef
D o
ut ing
ve locity
) ].
R ate
ĠI mport
identi ty
w arnings
Ġc r
Ġal ign
sp in
ac ity
7 8
n dims
Ġa uto
om ial
unit test
ĠQt Gui
Ġstruct ure
j obs
w av
Ġf lag
ad ing
sh ort
hy per
Ġn c
Ġf ace
Ġc m
fi ed
per cent
Ġl ong
Ġne ed
Ġdimension s
Ġp art
si lon
ex pect
Name s
hist ogram
se cond
af ter
stru ctor
and ler
/ %
in ds
Ġdi rectory
stri de
= {}
ro s
Ċĉĉĉĉ ĉ
or b
Ġs in
Ġreturn ed
Ġorig inal
in place
Ġc ho
Ġ( %
p li
ar ti
Ġs ix
Ġter m
I I
de lay
Ġtra ck
18 0
Ġcal cul
D B
h our
Ġst yle
Ġe mpty
lu id
orig in
f old
di tional
ele ments
Ġ zeros
Ġ" -
Ġv iew
pre diction
])) )
estimator s
F ield
es sion
map ping
Ġ 64
Ġfi x
Trans form
repe at
99 9
ces sed
Ġch ild
! !
Ġt ran
le ep
el ls
ch i
ep copy
ĠP o
rel ation
align ment
p db
to kens
Ġele ments
Ġn dimage
ul se
Ġv is
sy n
Re gex
n m
Ġ Dataset
Ġc ube
Ġr ho
Ġ å
Ġd x
pha se
======== ========
c map
ĠĠĠĠĠĠĠĠ ĠĠ
f mt
Ġ })
Ġi val
Ġp p
pl ant
exec ute
Ġembed ding
par tial
eg in
Ġpre v
arg in
wor ld
v tk
Ġt a
pro bs
Ġcor rect
Ġl s
the ano
oment um
Ġra dius
Ġmeta data
) '
c ached
Ġp t
Ġs av
con st
Ġtra ce
Ġinitial izer
A ULT
Ġex ist
fig size
201 3
Ġcom bin
ĠImport Error
6 9
p adding
der r
M L
Ġ: :
sub ject
lec ule
Ġ vec
Ġde bug
num eric
Ġth read
re st
ange d
exp r
do f
o ols
Ġs amp
Ġ" +
pro file
squ are
n ed
Ġn x
Ġst ream
fun ctions
Ġmodel s
no v
**** ****
ep silon
pre cision
Ġsh uffle
s mooth
Ġp assed
Ġa fter
Ġiter tools
Fun c
ot ential
mean s
+ =
t an
Ġg re
Line ar
N ew
le af
fi l
([ -
P RO
ter s
ag ent
lat form
normal ize
font size
b ig
cur ve
Ġver ify
Ġcomp onent
psi lon
L ength
U B
W h
t m
Ġmax imum
pre v
Ġan s
Ġlin ewidth
Ġign ore
in ation
ci i
) }
C an
N UM
frame work
Ġ $
vi ous
Ġt e
ut f
w p
div id
A A
ge o
pro c
rot ation
bas is
ul ary
COL OR
c ategory
Ġi ds
me ga
Ġf lags
ci rc
ren ce
back ground
tain er
FI LE
Ġpro blem
Ġpro vided
lim iter
feren ces
dimension s
C S
T RA
X Y
Ġg amma
Ġchann el
6 3
Ġ( [
Ġset tings
Ġval idation
ok ed
Ob j
los ses
Ġph j
Ġw ords
ten sion
ĠAt tributeError
b g
Ġcor respon
E vent
an ces
Ġreturn s
ĠL ist
ĠO ptional
wh ile
C annot
ent er
iter items
Ġsh ift
f loor
Ġ edges
Ġ1 9
ap ter
Ġe ither
hand ler
perio ds
U P
Ġre n
ĊĠĠĠĠĠĠĠĠĠĠĠĠĠĠĠĠĠĠĠĠĠĠĠĠĠĠĠĠĠĠĠĠĠĠĠĠĠĠĠĠĠĠĠĠĠĠĠĠ Ġ
E nd
b b
Ġapp ly
P AR
Ġ et
Ġs peci
Ġre p
oper ator
m n
Ġre ct
mode s
N P
c enti
ç ļ
Ġcon cat
ĠM odel
Ġup per
çļ Ħ
M eta
m arker
re r
Ġp eak
Val ues
ress or
m x
. ),
ch or
Ġsp ace
n ers
re m
Ġf p
Ġtarget s
Ġuni que
Ġt k
Ġd y
N S
Ġc at
file path
Ġerror s
Le vel
li cates
im read
Ġch rom
sm all
oc c
m ixed
se nd
sampl ing
Ġ annot
fa ct
Ġcoord inates
Fi lter
K e
c am
is ode
Ġe q
tra j
ĊĠĠĠĠĠĠĠĠĠĠĠĠĠĠĠĠĠĠĠĠĠĠĠĠĠĠĠĠĠĠĠĠĠĠĠĠĠĠĠĠĠĠĠĠĠĠĠĠ ĠĠĠ
ĠKey Error
me s
ĠT EST
ens ure
v g
Ġre move
Ġx p
} {
Medi cal
b n
m er
ut ation
Ġcoun ts
W or
{ '
[:, :,
Ġcl asses
Ġ æ
Co ord
Ġf mt
lo okup
ati ble
ri c
ve cs
cs r
ele m
Ġcal c
g ui
Ġin p
vel ength
ĠCo mp
in verse
Ġen coder
Par ameter
v id
di stribution
Ġre present
Ġse p
diff e
Ġattr s
cy cle
Ġinter val
as is
mo ved
ĠL ine
({ "
Ġnormal ize
Mod ule
B u
ext ension
ren der
table s
Ġstri des
cho ice
n itude
re es
g ger
as ic
Ġextra ct
ĠStr ing
Ġcal culate
MP LE
G R
Ġs n
Ġres ource
pre cated
25 6
ot or
pro gram
ĠI D
Ġuti l
c loud
ri ch
5 6
d p
ma ster
A M
k elihood
ra ise
Ġline ar
7 9
C I
v stack
Ġfi elds
Time stamp
AN D
Ġre cord
ul ator
In stance
Ġseg ment
ient ation
C or
data frame
ha se
plot s
wor ker
sol ver
S ession
Ġa st
Ġme asure
Ġ location
Ġe psilon
add Widget
Ġcl f
Ġd ropout
par k
Ġv s
N E
U RE
end ing
ER S
Ġlin k
r l
Ġl w
Ġde scription
Ġsup port
ul ate
lic ation
bas ic
= _
in str
par allel
IN PUT
mple te
ey e
Sp ace
A ction
P H
R ow
s peed
load s
Ġindex er
Ġt ick
)) ))
Ġdi ms
base name
SE LECT
Ġdiffe rent
Ġalg orithm
ĠOr deredDict
) ")
M IN
ma il
C ache
Ġh andle
mat mul
Ġpre cision
Ġset Up
' %
^ {
)* (
plant cv
fe at
D ef
D et
p c
Ġ select
Ġp ack
Ġde sc
Ġcom mon
A tom
me thods
os s
7 6
c n
Ġp lace
code s
en ch
ct ypes
Ġen coding
Ġshape s
au dio
de l
Ġf s
up dates
bu ilder
Ġ es
Ġf ollow
Ġb ar
Ġchann els
O ff
p k
Ġm ark
ri ces
Pro perty
b ed
clu ded
Arg ument
a ctor
li sh
Ġbe fore
Ġbin ary
, (
S O
t w
Ġm ol
sign ature
Op en
MO DE
ĠĠĠĠĠĠĠĠ ĠĠĠĠ
Ġl r
for med
fa ces
S im
Ġn a
w ay
me t
Ġco v
St at
Ġac c
" %
4 6
S ign
quest ion
sub set
ĠIn put
s lot
it eri
Ġex it
ighb or
x p
m al
ac ing
St ep
inter nal
Ġsub ject
war ds
Ġc types
sh uffle
5 9
M on
po le
am l
bo ok
iter ation
multi ply
e in
as freq
Ġw rap
tail s
Ġbot tom
c ar
l g
l and
Ġ estimator
Ġm apping
ĠS e
Ġcheck point
V iew
Ġin v
Ġ1 8
ĠA S
do cs
Ġinst ead
agg reg
y y
mask s
offset s
fra ction
Ġsq rt
en coding
Ġi o
Ġd ense
der iv
Ġpy plot
gen e
Reg ion
Ġcall back
T F
os ity
T his
h stack
Ġp ower
ge s
el if
sc hema
Ġ ri
ti ght
Ġc ir
cent ers
Ġdo main
i ke
in u
lo ur
Ġ' )
Ġ1 7
centi le
m ix
Ġf ast
ab i
Ġpre diction
gre en
h elper
la m
C R
C V
t p
Ġ ut
ilar ity
' \
l its
Ġst ates
(" -
Ġexp r
TI ME
% %
L oc
c nt
ne ighbors
Fe atures
S M
Ġop ts
ĠC ol
sig moid
be fore
classifi cation
D ense
T otal
c ustom
al ty
ch an
Ġde sired
Ġle arn
ER R
Re ad
4 00
g ies
de rer
fi er
initial ize
go od
or ed
Ġt ab
Ġs mooth
ol ve
Ġcon stra
chunk s
DEF AULT
Ġspec ify
d uct
ĠĠĠĠĠĠĠĠ ĠĠĠ
Ġp atch
ad just
Ġcon f
Type s
SI ON
child ren
Ġf o
as on
Ġex pect
Ġ> >
mo ck
Po sition
ĊĠĠĠĠĠĠĠĠĠĠĠĠĠĠĠĠĠĠĠĠĠĠĠĠĠĠĠĠĠĠĠĠĠĠĠĠĠĠĠĠĠĠĠĠĠĠĠĠ ĠĠĠĠĠĠĠ
pl us
neg ative
al low
ig ure
Ġac curacy
Ke ys
H andler
l w
Ġd eri
)/ (
ĠMulti Index
S ta
b us
r r
it ing
Ġb ad
os ome
Ġsm all
classifi er
y m
re name
Ġen gine
Ġdataset s
radi o
sol ve
W idth
ur al
np y
Me an
gra ds
[ ...,
b ind
Ġ ))
Ġ entry
float X
Ġsub process
KE Y
ro u
Ġs ite
gre es
Result s
ileup s
k y
x c
Ġfor m
ĠIn ter
fici ent
Ġn dim
Ġd one
Ġpy thon
quen tial
stor age
Ġi tems
Ġth resh
le ast
abs olute
7 2
g lob
} /
Ġb ranch
ab c
iz es
Ġf requency
Pro cess
estim ates
Ġstat us
L en
s ched
Ġd en
Ġas sign
H eight
M et
S ource
U E
st derr
Ġ2 8
Ġbo olean
Ġlo op
Ġwr iter
ww w
D ep
Ġw ave
gra ms
tensor s
Ġoper ation
Ġpri or
se conds
Ġd d
pol icy
F O
q t
s cipy
res ource
Ġe p
Ġpro perty
roll ing
H ER
s l
Ġf l
un len
Ġb order
bo ard
aco bi
1 0000
T A
} }
min imum
embed dings
i elds
Gra d
Ġav ailable
adr ature
H I
ce il
atist ics
click ed
Ġg ot
sp a
g ent
Ġp s
ser tion
ph ot
ĠD E
5 7
P L
t ur
me di
Ġc g
con ti
ĠI N
ĊĠĠĠĠĠĠĠĠĠĠĠĠĠĠĠĠĠĠĠĠĠĠĠĠĠĠĠĠĠĠĠĠĠĠĠĠĠĠĠĠĠĠĠĠĠĠĠĠ ĠĠĠĠ
stra ct
viron ment
interpol ate
P RE
con stants
ap prox
com ment
Ġread er
ebq e
Bin ary
D oc
v l
cal ib
app a
index es
inf er
S ample
args ort
** (
{} '.
sli ces
f alse
Ġ" {
Ġde termin
B uffer
out dir
Ġr atio
sup port
depend encies
Ġb a
Ġd c
Ġal so
over lap
Ġpix el
Ġground truth
__ .
ga in
D efault
w l
con ver
. ',
Ġy s
Ġv min
Ġtest ing
fill na
Ġqu anti
Ġback end
A ng
G e
Ġn u
res sed
vi sible
AG E
Ġreg ulari
requen cies
p kl
v a
ĠR es
sy mbols
b egin
s leep
Ġk w
"] :
Ġargs Dict
Dim ension
. ",
Ġc amera
is son
c ategories
p lay
Ġ est
Ġr hs
assertRaises Regex
kw ds
I C
x axis
is o
'] =
ef orth
Ch unk
Con text
region s
sw ap
d nn
at tribute
Ġi ts
Ġre pr
ch r
]) [
ne arest
lu gin
L S
Ġ' <
Ġout file
Ġat tribute
o uld
Ġc c
Ġv i
tr un
Ġbu ilder
st ation
ed u
(" --
mut ation
D el
Ġw a
201 1
201 6
Ġda ys
Ġl b
comp o
rel ative
T S
Ġp eforth
map s
Ch anged
Ġoper ator
Ġs li
out file
lit ude
Net work
T ri
h elp
he m
ĠF ROM
pack age
su ffix
A nd
T ag
a ut
al k
Ġf low
Ġre c
assifi cation
deg ree
* .
t uples
ro id
sum m
200 7
ik i
Ġinterpol ation
4 3
Ġat tributes
Ġgradi ent
z oom
di strib
con structor
Ġdi rection
experiment al
Ġ ray
Ġ layout
Ġg t
Ġpo sitive
p tions
s pectral
ar is
Ġpro ject
back ward
( \
F A
s z
Ġlevel s
P a
di rect
Ġpro to
Ġ12 8
mk dir
sp here
Er r
ĠA s
read line
Ġval idate
scal ing
Ġcoun ter
Ġdef ined
eager ly
Ax is
p ub
pro ps
ti f
(" /
eri cal
AL L
band s
rou ped
O UT
ti l
Fa ctor
ĠNum ber
re ward
en ded
Ġt gt
an ager
Ġs qu
op tional
[' _
201 5
ome ga
Ġsur face
G aussian
st ype
ri es
lin ewidth
n y
z z
Ġin ner
Ġ2 4
Ġ5 00
T arget
Ġc lip
Ġsav ed
] ')
b roadcast
i as
ct ools
ver tices
ir ror
ay es
i er
Ġ0 0
default s
ga ussian
B O
n i
Ġre pe
Ġb oth
im er
Ġl n
S cale
S parse
i lt
Ġ{} ,
201 2
fi d
]) ]
ĠĠĠĠĠĠĠĠĠĠĠĠĠĠĠĠ ĠĠĠĠĠĠĠĠĠĠĠĠĠĠĠĠ
Ġcont ent
est yle
sp ath
D own
p n
un pack
])) ,
stri ct
Ġper form
fin ite
ĠPy thon
Ġleg end
I dx
de vices
ĠC h
ĠN ame
bucket s
Ġredu ce
v min
Â ł
Ġmean s
enti ty
Ġ selected
ĠS et
ĠC al
m g
dat atype
Ġcal lable
filt ered
- \
y axis
as numpy
Ġv tk
ci p
N G
ge st
di tions
00 5
end swith
if f
cur r
Ġmulti ple
" %(
G A
re gex
ul er
Ġcon tains
ĠL o
+' _
Ġrot ation
S ol
Ġo m
') ]
squ ared
M M
se mble
ar s
Ġin formation
arg min
stri des
fil led
x ticks
Fi elds
Bound ary
m or
di vide
is file
ĊĠĠĠĠĠĠĠĠĠĠĠĠĠĠĠĠĠĠĠĠĠĠĠĠĠĠĠĠĠĠĠĠĠĠĠĠĠĠĠĠĠĠĠĠĠĠĠĠ ĠĠ
str y
ag ne
divid ual
p are
pro blem
tri al
fix ture
wrap per
spect ra
L im
ar row
Ġcomp uted
Ġcur r
tick labels
auth or
D S
D ER
set ter
8 6
Ġ lab
as cii
Ġs pectrum
In te
Ġtime delta
Ġgener ator
I R
ĠĠĠĠĠĠĠĠ ĠĠĠĠĠ
Ġf h
an aly
li ed
__ .__
ke t
ver s
OR M
au ss
Py thon
ein sum
R ight
o v
p age
Ġf luid
Ġcl assifier
j pg
Log ger
Na T
au x
Ġgroup s
ge om
Ġs ide
Ġd ot
Ġde g
ĠR a
Ġbe en
Ġlog file
Co un
ish ed
B ar
p m
Ġd uration
ap er
m ic
it ers
ex ist
ex ception
Ġele m
Me thod
Ġfa iled
! ")
t l
Ġc rop
di date
li kelihood
Ġde limiter
temp erature
8 2
p latform
} '
re a
ti ty
Ġd pi
seg ments
g ap
Ġ mpl
ent ries
im ize
Ġde coder
sc ene
ĠB ase
Ġf its
sa mp
Ġiter ations
( ('
rem ote
F low
L at
T r
g ment
Ġ rand
Ġf c
fl ush
r dd
Ġv max
pre process
mod ules
proj ection
Q U
b f
l arge
Ġp attern
St ream
work ers
Op tions
B e
R ect
b m
f time
s heet
Ġi denti
le x
() .__
F lux
n z
al o
me try
fo und
head s
pl an
man ual
Se quence
A X
J ob
ĠC l
Ex p
Ġsim ulation
a z
i mple
Ġn est
con s
ul ated
min or
]] ),
File Name
make dirs
o i
load er
H E
Ġpar tial
5 4
it al
Ġd m
Ġg r
0000 0000
Ġdec imal
acobi an
Ġ{ :
ac tiv
pi peline
ense mble
Ġgradi ents
C F
C re
V I
Ġre lay
Ġa mp
ri ck
cor ding
ĠI O
Ġcorrespon ding
> =
P ix
ĠD e
Ġle ast
Ġexp ort
ug h
. \
C reate
E valu
Ġs can
di stances
cor ing
mat plotlib
pl ane
Ġ-- >
Le ft
replic a
R ef
] })
c x
c la
s at
w ater
Ġa ut
Ġa ggreg
res olution
ir d
ĠF un
Re ader
i ma
se par
di a
ati ves
og le
" \
)) [
Ġdi sc
weight ed
Di stance
Pro to
6 2
G RA
in ch
in nov
di sc
Ġ" )
config uration
Ġinter p
ĠP re
HER E
9 3
] }
m ar
Ġt p
le ar
Ġcon ver
d ummy
cat ter
r ates
an ts
ĠF ile
Ġch ange
201 7
alg orithm
ĠTime stamp
Random State
f d
le ction
Ġc annot
ter ms
Reg ression
task s
+ (
e mb
Ġt d
Ġm s
pos ure
Op timizer
Ġatom s
ench mark
R GB
dat ed
Ġy our
Ġop tion
wa ys
6 00
p v
x min
th ing
et te
sp atial
Ġco mplex
sen sor
vert ex
cont roller
Ġwor ld
Ġcre ated
7 4
M B
S ig
h ow
ve lo
Ġdi ag
os ite
Ġlog its
ĠG ra
c ing
Ġ1 80
con j
con dition
ON E
Ġframe s
Ġf alse
Ġ[ ('
Ġse ns
ST M
bi ases
Ġrel ative
Ġpair s
"] ),
pop ulation
Ġchunk s
speci es
+ '.
Ġf ft
par ticles
ĊĠĠĠĠĠĠĠĠĠĠĠĠĠĠĠĠĠĠĠĠĠĠĠĠĠĠĠĠĠĠĠĠĠĠĠĠĠĠĠĠĠĠĠĠĠĠĠĠ ĠĠĠĠĠĠ
Ġdo uble
ron g
s ites
Ġp r
un stack
po sitive
Ġto kens
{} _
De vice
5 8
F E
ã Ģ
re v
sa ved
tim er
Ġhas h
yn omial
b etween
ex act
il er
Ġres olution
ear ch
S D
l c
Ġw ant
Ġg pu
str ings
tra st
Ġdoc ument
L L
Ġ ).
Ġd st
arg uments
Ġmin imum
Ġfun ctions
Ġgra ds
sen tence
Ġsh util
9 2
P P
re sent
Ġ[ ])
An alysis
P i
â Ģ
al ity
Ġre sidual
fi c
ĠM at
comp atible
lic it
Widget s
Ġs ome
Ġpd b
b lob
n ested
im ation
sur f
g ate
i ces
(' _
log file
ject or
Ġchain er
, :,
Ġ ~
re sidual
Oper ator
7 3
} _
se quences
Ġp hase
Ġs olution
Ġ1 0000
fi den
ren d
pp ing
unk nown
r ink
Ġin fer
Ġd ummy
Ġpo sitions
at t
me mb
() ])
00 01
Ġst ore
Ġx max
lat es
Ġan alysis
tan h
' )))
p ca
ĠR E
stribu tions
acc um
scre te
5 2
C M
æ ľ
ise d
In it
ĠB o
Ġsol ver
Sign al
L U
T op
pre ds
=[ [
return s
Ġbox es
Mes sage
: "
i ris
len s
ab spath
ĠU se
M ass
P ick
re verse
Ġre q
key point
Ġal ready
Ġ25 6
S o
li ms
Ġ2 2
ĠI t
gre ater
ï¼ Į
Ġc lient
]) /
name d
tri p
ĠC ategorical
dic ator
sertion Error
+ +
E stim
Z ero
q r
Ġo mega
config ure
Ġfun ctools
tiv es
< =
L oss
=' ',
Ġex c
Ġpro gram
Ġiter ation
predict or
T ER
or es
train able
gu ous
Ġgo od
a vi
k g
l n
Ġr gb
Ġac tive
Ġvar s
Tra ck
BU G
Argument Parser
T ION
] ',
c ate
j ac
w ind
de tection
Ġt ake
per centile
Ġro spy
gen ce
Form at
e ded
t le
Ġ ser
to wer
Ċĉ ĠĠĠ
bo olean
color bar
Tensor Array
Ġren der
i mag
r x
Ġ serial
Ġ' [
In itial
optim ize
Pol y
Wor k
Stat us
d one
Ġf id
str ftime
fa ke
Ġcoord inate
Lab els
long itude
(' .
ver tical
ener gies
assertEqual s
iteri on
S er
b reak
g ather
m ult
it ter
AT CH
Ġiter ator
F n
G en
M ix
or dered
he at
lib rary
h alf
Ġs s
time step
ĠD ate
Ġfix ed
1 99
O S
de epcopy
ur ing
Na N
P Y
st e
Ġp v
Ġre verse
Ġb g
con struct
sc f
inter cept
AR N
lic ate
Ġ9 0
Ġpos sible
C all
m se
Ġ' "
Ġco eff
ang u
+' /
Ġhy per
), (
Ġh our
Ġ{ :.
pli er
1 50
Ġre ward
Ġex clude
_ '
c ros
Ġ2 3
wr it
Ġdefault dict
Ġad ded
- ',
: ].
I f
(" ""
Ġcon st
sk y
Ġfa il
ĠNot e
M AG
Ġdi stances
ĠR andom
Ġcomp onents
freq s
scal ed
prob a
ide o
F lag
I ST
b et
l as
m r
list dir
form er
Ġwith in
ĠW hether
ome tri
Ġmatch es
Ġfilt ers
G E
Ġn s
Ġh du
Ġl hs
Ġtrain able
Ġlo s
sup er
al e
Ġp lo
Ġd ump
ter nal
Ġ\ \
Ġro i
Ġblock s
Ver sion
s pe
Ġc ells
get attr
con tainer
Ġ2 1
Ġex amples
Ġdi rect
ĠL og
Ġun der
mon itor
Ġfig size
CT ION
cut off
coef ficients
) ",
/ "
] (
Ġl l
ĠO n
ĠQt Core
Ġparti tion
[ ['
c les
l an
s pecifi
Ġn ow
co gn
per m
Ġpar allel
mo di
lst m
B ack
g h
Ġt ak
Ġi p
lat ed
Set tings
Ġsha red
Mes h
) ==
R NN
Ġre set
Ġse conds
W in
d ynamic
lo aded
con tact
ac y
eri or
stack ed
ĠCon v
assertRaisesRegex p
Ġf older
Ġle ss
by te
Ġtag s
observ ation
. ])
z en
ä º
Ġc ustom
Pro b
cont ents
Reg ressor
cum sum
z one
Ġp ow
Ġthe se
Ġ4 2
ĠN a
Ġpre vious
ten ces
Ġcur sor
{} .
gu ess
) \
H z
l hs
u cli
ue ue
li ers
con sist
qual ifi
ces ses
read lines
AR Y
we ek
Ġsi mple
d river
x m
Ġre place
ing er
Ġlo aded
sv d
Ġbi ases
thread s
b ility
ex c
Ġstr ategy
Par am
sn r
ĠTime delta
ĠIndex Error
Ax es
ãĢ Ĥ
` `.
u el
ma y
str s
Ġcur ve
Ġdep end
Ġso ft
D U
ĠĠĠĠĠĠĠĠ ĠĠĠĠĠĠĠ
Ġp otential
ser ve
ĠM ask
cu dnn
Ġcy cle
tur b
g d
i val
l m
se titem
ro ugh
Ġm id
be am
cre te
~~~~ ~~~~
d set
Ġg ame
Ġcon tour
Ġpath s
Ġbu f
peak s
Dist ri
User s
e ach
Ġ ann
Ġre port
data base
we ep
inf os
colle ct
ini tion
speci al
Ġneg ative
ĠString IO
Ġast ropy
> '
L A
f lip
} "
al ette
con nection
pect ra
ac cept
ind x
Ġse e
graph y
To ol
bound ary
Ġsu ffix
dump s
[: :
Ġl st
load txt
inter face
normal ized
multi ple
Ġsy mbol
Ġback ground
Ġembed dings
fiden ce
A rea
b urst
f ine
Ġm d
cal cul
tra jectory
idx s
sy nc
C D
W OR
] ].
ma v
np z
LE FT
act er
so le
comb in
W rap
or tion
re store
re present
Ġi x
th ree
Ġex periment
Ġver tical
prob ability
pen alty
) ][
am ily
pro du
sh ot
row th
ĠN o
Ġal ong
Ċĉĉĉĉĉĉ ĉĉ
Rep resent
F ixed
P ER
an cy
Ġin f
down load
Scal ar
R el
S Y
Ġ selection
Reg ister
ox el
atist ic
constra int
Ġfollow ing
X X
w t
Ġc p
get Logger
Ġh alf
coeff s
Ed it
A b
f ac
y r
Ġc li
ot o
Ġx x
Ġe ff
Ġbe gin
lat itude
em it
angu age
P ower
V ec
s lope
inter vals
Ġtemp file
PO INT
Wr iter
Pri ce
c ases
f g
i e
'] ):
pri me
match es
Ġt l
Ġf ree
an chor
(' {
ĠT h
ĠT rans
Ġnum bers
Ġobserv ation
Ġvari ance
C lient
b oth
on ian
Ġin valid
equal s
bu tion
ĠN e
av ailable
RE F
Ġderi v
n or
ct an
ed it
mo lecule
ĠM e
code d
Ġcomp at
ĊĠĠĠĠĠĠĠĠĠĠĠĠĠĠĠĠĠĠĠĠĠĠĠĠĠĠĠĠĠĠĠĠĠĠĠĠĠĠĠĠĠĠĠĠĠĠĠĠ ĠĠĠĠĠ
su ccess
patch es
d st
Ġ sel
er m
en abled
Ġbe am
run ning
ĠQ u
non linear
Ġbu cket
Del ta
r v
v ity
al tern
he x
qu ad
am o
ĠS E
num bers
En try
ĠFun ction
Ġt max
ĠA ND
Ġse par
Ġcor r
Ġoffset s
Cont rol
aris on
S li
h ic
re sid
=[ ],
Ġconfig uration
integ r
depend ent
E V
M ag
M anager
] },
c ard
e ig
k it
t ax
se ek
Ġb uffer
ta ch
Ġtemp late
assertIs Instance
] ")
m argin
ĠĠĠĠĠĠĠĠ ĠĠĠĠĠĠ
ot ype
Ġr x
ext ent
mo tion
... ')
bl k
Ġinitial ize
Ġgen e
Ġnormal ized
= ('
g ca
Ġc amb
ph as
ĠL e
gen ome
h it
qu ant
pro cessed
cor pus
AT T
Lo ader
vide o
inch es
G re
b ond
Ġf t
pe s
time Index
12 5
Ġkey word
Form atter
Ġcut off
C G
S ER
m gr
p itch
Ġ like
de precated
set Text
ph y
RE AD
Ġsub set
Ġmo di
ĠAr ray
Ġdec ay
instr ument
M is
[ _
s ke
Ġ eta
Ġb it
ĠT o
Ġdata frame
cri ption
conti guous
C DF
G S
S ave
on ic
Ġas array
ĠA d
Ġme t
scri be
ca use
C ategorical
re ce
el y
Ġthe re
ly ph
loc ations
annot ations
M atch
v oid
} :\
} -\
ri me
Ġr nn
ph j
mo ving
da ily
Ġfe at
OR T
Ġba seline
O B
S earch
m enu
as set
Ġ' ',
ac cess
ick ness
UR L
scre en
' %(
R IGHT
i ti
s np
se e
te in
Ġpro perties
Ġtensor s
fa ctory
ner gy
comb ined
Wr ite
unlen cl
Ang le
C AL
Ġn om
Ġc ategories
ad apter
12 3
Ġfra ction
Ġ" '
Ġa ff
up y
sp lits
ng ine
dist s
parameter ized
vid er
% .
e eg
r hs
Ġw ho
train ed
drop na
e igen
h ift
Ġb ond
Ġcon dition
Re ference
root s
Gener ator
S ur
b order
re call
Ġs ources
Ġy max
cat alog
aggreg ate
Pick le
O ne
T T
u v
Ġc b
Ġ' ')
Ġre d
Ġ2 000
Ġ: ],
min i
][ -
item size
DAT E
Ġsc ri
ful ly
constra ints
ERR OR
compo sition
D ec
O ri
f h
h old
ed Array
la ces
rc Params
A uto
q l
Ġde tection
format ter
Con stant
ST AR
ĠEx amples
Cl uster
S R
n ative
in file
': [
Ġex tension
Ġpro duct
Ġ8 0
predict ed
Wh ile
, **
D raw
b tn
me g
Ġf r
Ġin cre
Ġb s
File s
Ġbase d
Ġar ti
Up date
TRA IN
âĢ ķ
8 1
: (
R AN
] **
Ġc ategorical
Ġex ists
Ġtable s
LO G
Ġuni code
abi lities
: ")
N p
k appa
ä »
Ġ html
') ])
Ġdi g
Ġ3 00
Ġde lay
St ats
Input Data
Lo cal
pick s
diffe rence
ARN ING
. """
Ġ ;
ar ctan
Ġc t
ast ic
12 0
head ers
top o
vis ual
Ġevalu ate
, [
A verage
C opy
f x
Ġ arange
Ġo c
able s
Ġto ol
ĠP lot
ĠR eg
Ġ10 24
trans late
Ġgener ated
Ġproj ection
Sy stem
) >
c ub
si cal
et s
Ġr c
vi ation
ren derer
Ġsh ort
diction ary
sw itch
Com mand
b w
c ity
p ct
Ġf d
Ġweight ed
Ex pected
Ġcom m
be low
Ġtemp erature
ĠAr g
parti tions
Ġsu ccess
Ġpix els
Or der
press ure
ĠIO Error
' })
Ġt bl
un ion
ab el
sp ort
sp ots
pre c
sample d
den tical
ME NT
Ġlin estyle
fc cs
Qu adrature
âĢķ âĢķ
H O
L ong
p id
q dm
Ġn t
Ġf il
as c
Ġpar s
lat tice
12 2
ele v
Res ource
Train ing
Ġsamp ling
e very
s low
en um
Ġn elec
ad ded
bo ot
Ġexp and
mag nitude
MA P
diag onal
amb da
Off set
inu ous
G D
Ġ queue
Ġ( {
Ġx m
ĠM ax
ST R
ne ed
CO D
6 1
r ule
w cs
Ġc a
ty p
Ġcomp are
pon se
S k
Ġin di
ri de
ap sed
Ġse quences
Ġtime stamp
Ġper m
Ġobserv ed
Ġau x
X T
g file
Ġ ()
Ġset attr
Ġprob ability
He ader
O D
] ]))
u da
ma ch
(' .')
con tains
bo ve
sh ould
Un known
Ġ---- -
stru ction
F ont
h du
or al
Ġc ategory
Ġb ig
sim ulation
Str uct
Ġge o
S ele
en able
Ġf oo
Ġh ost
us ing
Ġpro gress
ĠE n
ĠG ener
cur sor
5 3
T L
p f
di dates
Ġm c
Ġw hether
Ġv ol
Ġh orizontal
Ġse ction
so ci
LO B
ĠNot es
Th read
N on
b osity
i or
i ver
Ġs izes
Ġa ctions
per f
ĠA c
Val idation
ĠD ense
sign als
sampl er
Ġinterpol ate
Post code
Meta data
5 12
Y ear
Ġt run
Ġc um
co mplete
mat erial
change d
3 60
V AR
h orizontal
x data
test Binary
Ġk l
Ġme dian
base d
Par ameters
scal es
radi ans
4 1
Q L
S ty
d um
r ms
Ġp ts
ele d
Ġcl assification
Ġcom ment
war p
P T
b on
r g
Ġst ar
fo ot
cul ar
Ġinst all
Cur rent
T ran
e j
Ġs pe
Ġ1 50
iv ed
tol erance
Ġover lap
UL L
parti cle
det ector
Ġrequi res
Ġtol erance
' {
C U
T e
k es
Ġh df
eff ect
Ġxy z
. ))
A SE
B and
m omentum
Ġ ensure
Ġt min
Ġi mplemented
Ġp f
Ġp ort
Ġre moved
Ġa a
10 24
fun cs
']) .
view s
Ġapp end
poly gon
O M
P op
f olds
h el
k m
ar ds
de grees
si fy
ha vi
qual ity
seq s
UN T
vocab ulary
Ġhist ory
ĠDi ct
Can vas
Det ection
irror ed
' $
w n
ra g
def ined
Ġa ctor
Ġa bove
is m
ve ction
sub class
Ġan aly
Ġper cent
ba seline
S elect
d v
Ġp en
Ġre use
con version
Ġl arge
process or
Ġmeta var
> \
y min
Ġm aster
Ġdata base
tit ude
dt uple
bl ank
Ġn y
Ġc lean
ch a
Ġy y
Ġe very
Ġor dered
mark ers
Ġlength s
vari ant
On ly
Ġt vm
list s
ari o
vi e
ĠPeriod Index
hour s
summ aries
amo unt
T uple
h dr
t ures
x max
Ġ server
in ity
Ġx ml
Ġsp in
connect ed
Ġap prox
Ġvis ual
m oment
ce ptions
co me
(' <
ta ge
ren gth
av es
201 30
TE D
Ġover write
ground truth
ĠPo int
P rint
S F
f end
i a
t rees
Ġ ur
Ġc ases
el lip
range s
ress ure
ret ch
A gg
O ver
T itle
b p
b q
se ct
Ġc ast
Ġse c
12 34
reg ression
Ġon es
poch s
Re al
Ġpredict ed
n om
p ush
ĠN et
ĠO R
search sorted
Ġsa ver
Ġgre ater
Ġsens or
Wrap per
C ap
S c
V olume
] ;
h um
u uid
st age
int ensity
Ġv olume
cor ner
": "
lon s
UT C
Ġspeci es
h es
v max
Ġf etch
ort ho
') ],
Ġde v
... ]
Ġpick s
ĠCon fig
Ġpol icy
L AB
S K
en tion
() ).
Ġm any
Ġthe m
Ġen vironment
annot ation
Qt Gui
EX P
spa ces
C amera
L STM
S eg
Ġdi c
Ġtest s
ep isode
ne ighbor
ĠO b
ĠO p
DE BUG
char ge
Ġcolle ction
ĠDefault s
D one
Ġor d
Ġse nt
Ġdefault s
SI G
quanti le
8 3
T COD
f w
w i
en ame
Ġp si
pro g
ren ts
Ġat m
Con d
run s
Ġvector s
observ ed
CL AS
Atom s
Lim it
D type
Ġ è
Ġre gex
ĠC reate
lu g
... ")
EN D
u func
Ġ ç
Ġi mplement
la x
Ġw arn
(' [
') (
Ġx i
im ate
Ġor ientation
-------- ----
ne ar
Ġge ometry
Ġla m
Ġsen tence
hyper params
G lobal
P R
h ard
or ary
Ġt t
Ġm ne
om ents
Ġr v
py lab
min s
Ġwith out
ĠA BC
split ext
not e
mi lt
W E
b ra
b id
j s
p ulse
u la
Ġx min
add le
transform er
uni code
cri pt
Ġhead ers
I mport
re main
ro zen
Ġ" ",
par a
Ġde tails
Con n
ear th
../ ../
Mix in
! ')
R ot
Ġ dates
or ientation
re lease
sp acing
ind ptr
sh p
ĠF e
AT URE
Ġsc hema
dup licates
S a
in cre
en c
de cor
le ct
=' %
lin der
Data Cache
factor s
user s
ĠQt Widgets
ifi c
. %
E P
p ileups
z s
om in
Ġe igen
ĠA ll
ud y
Ġapp lied
Image s
G RO
L INE
d le
([ ('
ass o
Ġstr ings
av a
{} ".
ĠRe turn
33 33
Ġdeg ree
m fccs
æ ĺ
si c
Ġw in
te am
Ġtime step
Ġter ms
milt onian
S u
a o
h d
st ock
Ġm an
sp rime
ĠS im
fit ness
: ')
A C
G ET
M D
å Ī
Ġf old
Ġs peed
]) ):
ul ations
out s
Ġde epcopy
Ġme m
Ġ` [
Di alog
sign ed
ID s
Ġinte g
sli der
Ġcombin ed
XY Z
ĠNa N
H M
h om
v an
Ġn m
as pect
ut c
], '
Ġv el
trans lation
Ver tex
Ġpop ulation
[ ~
d pi
i stry
Ġa ds
Ġ5 12
mis c
Ġsur f
Ġflat ten
requi res
may be
R atio
\ "
p layer
di lation
Ġm omentum
is ation
Ġg d
ĠS T
IT Y
Ġev oked
String IO
Ġspeci al
InputData Fields
E nergy
P ort
u sage
Ġt ot
Ġre st
im uth
ĠM on
Ġfile path
Ġcom b
Se q
Ġter min
Ġty p
ĠLine ar
) })
. '.
1 10
i ed
Ġp c
ab o
ĠC om
sub tract
ĠO ut
tran sition
f m
Ġre ce
tri als
Ġpro file
ho ok
sv m
Ġmulti processing
pars ity
-------------------------------- --------------------------------
Ġau dio
ĠAs sertionError
['_ '.
L ow
P lace
Ġp q
ro ut
Ġ' (
Ġ" (
fi df
log s
Ġme thods
loc ator
gen es
Lo ad
Ġdown load
Inte gr
F D
W a
w are
get ter
po isson
ver sed
Ġr val
min imize
mo use
read s
script or
mn ist
L ight
ut or
is s
da g
bu ilt
Ġpro du
ĠB y
ne ur
Co eff
filename s
Ġang les
mut ations
F LO
O pt
c atch
d ark
j acobian
s al
Ġs lim
Ġ" <
add ress
(( -
ĠF loat
Ġen tity
Ġtime out
exp onent
mbed ding
man y
Ġdet ected
Q ueue
c wd
s olution
Ġc lear
Ġdi strib
Ġun known
ĊĠĠĠĠĠĠĠĠĠĠĠĠĠĠĠĠĠĠĠĠĠĠĠĠĠĠĠĠĠĠĠĠĠĠĠĠĠĠĠĠĠĠĠĠĠĠĠĠĠĠĠĠĠĠĠĠ ĠĠ
Ġsha re
Sta ck
. ]
= ',
S ON
f ol
n rows
p ic
Ġ um
ar se
Ġc am
ro y
sp h
ĠR O
ĠN ode
IN FO
Col lection
Ġ'_ '
Ġconvert ed
Ġt x
Ġp g
Ġs d
Ġs lope
Ġ3 5
cor ners
tri m
ls o
=[ ('
Ġac cept
Me asure
sent ropy
Var Name
. ".
B V
H F
b c
s lic
Ġre sid
la w
Ġh params
ĠP ath
SE T
multi plier
exec uting
wave form
Ġbound ary
Ġneed s
8 00
E CT
P eriod
a max
h id
k i
Ġt w
it ation
Ġm n
Ġ( `
Ġa uth
Ġb r
Ġd p
sp line
Ġ3 1
ne ctions
tensor flow
sen ts
amp litude
Par ti
ĠIn t
go al
Ġsu ch
B asic
D ay
V ari
h en
Ġp layer
ch art
Ġas su
ve y
Ġmat rices
ĠG et
25 0
cap ture
Ġkeep dims
D iff
] ==
r d
s park
Ġc d
ad j
Ġw idget
and ar
to dense
tri gger
Ġpre sent
ĠW HERE
Ġfreq s
dic ate
Ġstd out
exist ing
G PU
P eak
Ġ ve
)) +
Ġb asis
ad s
end ar
Ġh and
ĠA x
24 0
200 1
Res ponse
Pool ing
Ġt qdm
Ġm f
res p
Ġe f
Ġar c
cap acity
$ ',
M ol
S core
y max
Ġ 99
Ġn orb
Ġs np
la zy
ĠT emp
im gs
mo ves
Ġpy game
top ic
serv o
Ch ann
Un it
Ġmon itor
altern ate
Sty le
w ra
se ctions
at least
Ġs f
Ġw d
Ġg zip
ĠF igure
Ġen semble
Ġal t
Co uld
arch y
doc ument
contour s
subject s
H as
O K
] "
f v
m as
u do
Ġ joint
st o
de ep
ex clude
(' ')
exp ression
Ġfilt ered
U se
b ul
Ġg u
Ġcal led
char s
App lication
Ġthread ing
5 1
_ "
si cs
ch ip
Ġy min
ta int
ase d
for est
Un i
Ġscal ing
merge d
fr ont
Estim ator
Ġscri pt
LOB AL
B E
R o
or age
Ġd on
ĠP ol
RA ME
Ġexec ution
$ ')
F req
S amp
c lock
å ı
Ġt b
ro ls
Ġs ns
if ts
comp ress
math rm
stra p
sim ilarity
CH E
EL S
ĠAn y
Ġlos ses
g pus
r vs
w alk
w iki
Ġp df
pe ar
loc ate
St op
qui val
annot ate
cos mo
Ġad just
ba z
sched ule
andar di
F IG
f requencies
h ed
Ġ ed
un e
ith ub
In dices
bo ost
lit er
ĠG L
wa velength
oper ation
hi er
Ġext ent
Ġrequest s
Ġvocab ulary
) [:,
h h
j d
y ticks
Ġ http
Ġt xt
Ġn ull
po sed
") [
sa ver
ĠS y
Co st
graph s
Ġfilename s
vari ate
Multi Index
Ġans wer
Ġconstra ints
, %
9 1
N U
T C
c mp
c art
f orth
en ario
de tails
ĠT ra
Ġy label
key points
pre processing
IT S
Sp lit
Cal cul
Ġfin ally
inger print
F ound
b al
d n
Ġc Pickle
di stributions
Ġo k
Ġg c
Ġg ui
Ġ{} )
Ġac cum
Ġtop o
interpol ation
Ġclose d
O ption
a res
g i
in formation
re ams
de lt
ro bot
ter ior
ĠA PI
Ġby tes
Ġscal ed
Check ed
SC F
taint y
E ngine
F requency
m ies
u ch
v en
at ten
er t
it ed
Ġa gg
ch astic
time steps
Ġto ols
Ġver tices
For est
ential s
P A
v x
Ġin spect
Ġm m
Ġb urst
ri ft
ap s
Co ef
we b
tick er
comb ine
Ġchrom osome
F igure
S can
] ][
_ '+
h r
n ii
t len
se cs
de cision
Ġ' {}
Ġs l
() -
") ]
red entials
obj s
Ġrun ning
match ed
Inter val
arti st
ĠMat rix
B B
J o
b rid
d g
e ck
l ane
Ġ velocity
er sion
ar ter
Ġin verse
is finite
Ġy ields
cl one
ext re
Ġout er
Ġbe cause
sub sample
redu ction
Ac cess
Ad am
M enu
S av
e mail
v t
Ġp age
is q
Ġ4 5
St ation
20 10
RO I
Tensor Shape
={ "
:` ~
A V
F in
O F
k n
r ules
re cv
un der
Ġv t
map per
12 7
graph ic
exec ution
hy p
Ġinte gr
Ġallow ed
Oper ation
Ġnom ask
Ġre main
ct rl
() }
)) ),
Ġst atic
bo ur
ci ties
ĠD is
Ġsy n
Ġads r
+ ',
c nn
x f
ar mon
un s
Ġu ses
Ġ`` `
evalu ator
bound aries
Ġexist ing
` )
de sign
Ġm l
un ch
Ġch r
ker n
Di rectory
Ġsp atial
em ory
SI S
che m
GB M
expect ations
f lu
re ject
ce bq
cal ly
tr l
ĠG aussian
IG H
Ġlib rary
represent ation
" }
K er
O FF
R edu
b re
Ġi r
Ġp e
Ġp anel
') [-
Ġme as
ĠI ter
old en
av ig
Ġstate ment
Al pha
aff ine
Evalu ate
I ds
h f
mp y
() ;
ma c
co verage
ts v
ach ine
Ġinter vals
Ġlo ok
TYPE S
distrib ute
S erial
c lo
g iven
er ce
Ġs lic
Ġcon struct
Ġl d
mo unt
Ġpro cessed
sen tences
Ġsp here
iv ari
Ġmo lecule
rich let
Met ric
ĠRa ises
E E
b all
h er
y aml
se mb
se udo
Ġ' '.
Ġs pectra
', \
ex og
Ġg rouped
Ġto o
In d
Ġde precated
Ġnum eric
Ġbe low
lat s
Re turns
Ele ments
sn ap
Sele ction
= ="
B IN
C ross
C PU
D ropout
P art
T P
n l
w as
{ :
ar p
en o
Ġre size
Ġb n
00 2
Ġe ig
assert Not
Ġsum m
cer tainty
Normal ization
environ ment
Ġcalcul ated
Ġep isode
L ambda
R L
b uted
re si
Ġre call
ad ow
is dir
key words
cs c
fe m
ĠM in
Ġcl usters
Pro gram
Ġph ot
observ ations
Ġte am
g p
l or
t min
y e
mp i
co mple
end og
ĠP lease
ĠC O
(( (
Ġ< <
Ġexp ression
Ex ample
Ġtrans pose
Dep th
Ġregulari zer
" {
I dentical
N h
` `,
e ce
s r
s un
Ġ Error
ra c
Ġp print
Ġb lob
co ver
ile s
fo c
start s
igh bour
sup ported
Ġpl ane
Ġurl lib
Ġoptim ization
circ le
C ent
M ake
j it
r up
{ \
le ton
Ġc nt
)) *
li es
par ts
ap t
cent ral
yn c
'} }
Ġmerge d
Loc ator
ĠGra ph
\ '
Ġs v
Ġa z
ver ify
ĠF I
order s
Ex ec
={ },
Ġtri al
Ġ'/ '
Ġge om
BA SE
cros sentropy
p at
Ġ ary
re ctions
Ġin dependent
es ian
ex posure
Ġex act
assert Dataset
Ġen c
Cl ust
Ġsign ature
' )),
T MP
m os
p ay
Ġas soci
ck pt
Ġde s
ĠI M
Ġpo se
wh m
link s
identi cal
serial ize
******** ********
mor ph
Sur face
S imple
U I
W ARNING
a id
Ġre action
Ġw p
ĠA lso
mat rices
Con tainer
Ar gs
requi red
Ġmark ers
ucli de
havi or
? ?
H y
W S
g lyph
u ses
Ġ !
ar ith
__ ))
set default
Ġg p
Ġex ception
Ġy aml
Ġu json
vi z
tri g
"] ))
stra int
transform s
face color
fast a
VAL ID
slot s
F P
c as
t ty
Ġc x
Ġs pectral
si ties
(" _
Ġl da
Ġle af
Ġmin i
ib ration
desc r
Len Feature
ivari ate
f re
l da
v ot
Ġin dividual
from txt
Con nection
fn s
alg o
cre en
Ġcoef ficients
uclide an
7 1
A ggreg
t b
Ġ" {}
Ġ( _
Ġa gent
Ġy et
min ute
cor relation
Ġun iform
DE C
top ology
Ġwr it
VER SION
ific ant
æĺ ¯
tlen eck
> "
> `
G ate
j ection
ti fy
'] ],
ul ative
Ġj ac
ST AT
ps f
Ġby te
Ġfo ot
3 14
Ġ light
or bit
Ġs catter
Ġd uring
__ __
Ġg ray
Ġr ing
ext ended
Ġth ree
cur sive
ec ast
Ġmask s
Ġplot s
ĊĠĠĠĠĠĠĠĠĠĠĠĠĠĠĠĠĠĠĠĠĠĠĠĠĠĠĠĠĠĠĠĠĠĠĠĠĠĠĠĠĠĠĠĠĠĠĠĠĠĠĠĠĠĠĠĠ ĠĠĠ
gr p
Ġad ditional
Ac tive
Ġign ored
Ġrepresent ing
2 34
D T
k pt
mp s
el low
map ped
text s
with in
save txt
Test s
ĠV ector
place ment
Ra w
äº Ĩ
abo ve
F ull
N R
r strip
Ġp ub
Ġin s
Ġ[ ("
int p
res net
Ġst ype
=' --
min us
Ġor ient
lat ent
ĊĠĠĠĠĠĠĠĠĠĠĠĠĠĠĠĠĠĠĠĠĠĠĠĠĠĠĠĠĠĠĠĠĠĠĠĠĠĠĠĠĠĠĠĠĠĠĠĠĠĠĠĠĠĠĠĠ ĠĠĠĠ
PO S
At tr
SA ME
Temp erature
Ġparti cle
Ġsin ce
Ġwrap per
C loud
L ike
U ti
f min
w f
Ġf out
si x
si tives
ce ed
__ ),
Ġnot e
ĠS p
Ġl as
Ġtf r
ĠD es
Ġen abled
ER G
norm s
Frame s
Ar r
RE S
view er
Ġmo ve
UN D
Pre dict
combin ations
( ",
C P
H our
ti a
Ġin str
li er
Ġh o
vel y
rep licates
Re turn
Ġinter cept
sha re
: ]:
U w
c lim
} _{
Ġ https
ar ded
Ġre shape
li sion
Ġg al
index ed
Ġout dir
ts frame
sh ell
ĠD ummy
cent ration
200 5
ĠPar ameter
pow ers
Weight s
NG TH
consist ency
" >
R aster
g m
g auss
an ded
mp li
Ġc uda
Ġin line
]) +
Ġas set
ĠT ext
to array
pi pe
err s
Bo ost
Lo ading
Ġwor ker
year s
Do main
= ",
L Y
P ack
ra ction
Ġn or
ab stract
assert In
Ġbe ing
Ġj obs
with out
ON T
obj ective
tmp dir
Qt Core
Ġestim ate
" )),
R untimeError
T AG
_ \
v c
Ġa ge
Ġb roadcast
qu bits
ation al
Ġcon trast
Ġme mb
ĠD ep
sv g
det ect
Ġwe re
Ġdat atype
Sub Element
Ġmay be
. '''
Ġ lag
Ġp m
fi cation
ex e
pre vious
iz ing
ell ar
Ġsh ell
Ġoptim ize
20130 101
7 84
b d
e vals
g ithub
Ġindex es
ev oked
EX T
( ("
A v
A vg
d lg
p w
z ard
pe forth
Ġin sert
ĠT uple
inter section
Ġsp an
uture Warning
tain ed
MP L
:` \
measure ment
, :],
M C
d ur
Ġm b
Ġst ation
Ġg ain
Ġde vices
ĠS V
num s
comp iler
var name
Ġset ting
ne tic
CO UNT
atter ns
200 9
Sp in
Ġestim ated
Sk ip
N eg
P air
R ender
S up
p per
or ient
ra ster
)) /
ve red
Ġg s
time out
per mutation
bin ned
scri pts
CO MP
Ġseg ments
war m
Ġpri ce
Fa iled
Ġsa fe
STAR T
hel lo
E v
F ORM
M I
P lease
b ayes
e ve
m ig
p alette
t as
un ded
Ġ2 7
run ner
AN CE
leg acy
En coder
evalu ation
Ġcode s
Qu anti
Ġcr iterion
percent age
quival ent
( .
Y ou
f ts
u ro
ç Ķ
re action
on ce
Ġm ix
Ġa g
Ġas pect
Ġthe y
Ġthe ir
(" [
cal led
il s
fo ur
Ġal go
ĠG rid
Ġtrain er
fa iled
em is
Ġbatch es
Ġcor ner
rot ate
Or deredDict
ĠUn ion
callback s
FE ATURE
Ġplo titem
wra ps
9 65
A PI
C ir
ro de
Ġs pi
Ġd up
Ġx label
col l
Ġl p
Ġpro c
Ġj np
AR CH
scri min
ĊĠĠĠĠĠĠĠĠĠĠĠĠĠĠĠĠĠĠĠĠĠĠĠĠĠĠĠĠĠĠĠĠĠĠĠĠĠĠĠĠĠĠĠĠĠĠĠĠĠĠĠĠĠĠĠĠ Ġ
Ch ar
su ite
mesh grid
66 66
ä¸ į
Ġface color
ometri c
> ',
C ube
E val
F act
I denti
P hot
Ġn r
Ġn ested
as ing
Ġm sprime
ver bosity
ĠS A
plot ting
=" ",
ac tivity
Ġ< /
sub s
St ar
Ġcomp utation
Ġcor rection
go ogle
comb ination
Ġbranch wise
medi ate
. :
B ranch
P en
P anel
U SE
ä ¹
Ġ ?
Ġ ens
Ġ entries
in stances
Ġf requencies
di screte
ex ceptions
id a
set Value
Ġh s
Ġr g
Ġ4 00
text ure
Ġan chor
Ġwh at
SI M
my g
Fa ctory
INT ER
Ġtask s
Ġconn ected
Ġmag nitude
Ġsqu are
mic ro
A u
B ind
n at
t or
y data
di al
() ],
Ġd z
Ġw rong
is y
sh ip
eg round
ang ular
ĠIn te
dis able
Qu ery
ox els
prior ity
_ :
g an
Ġ er
Ġ' *
ap tive
ĠC an
LE NGTH
Ġwh ite
IT ER
ee k
Float Output
Ġsw ap
Ġcho ices
Mon th
calib ration
Ġwa velength
Ġfil led
D D
R S
S izer
T ab
l f
re moved
Ġi mpl
Ġp ut
Ġin ds
ch dir
), '
Ġy i
lat est
cont inue
bad s
Pol icy
æľ ī
ĠDate timeIndex
Ġwho se
dum mies
ERG Y
. *(
B ody
E mpty
I mg
L P
x ticklabels
re cation
ro ke
he ar
Ġa pi
ĠT rain
cl ust
Ġh it
comp ressed
comp osite
iz able
Ġsample d
seed s
At tribute
requi re
! "
I P
I tems
m otor
q q
r ite
s lim
t max
ra se
me th
res ources
ari ze
cor rel
Ġch arge
St d
gen eric
Ġrun time
Ġmo st
Ġne ighbors
parser s
Comp onent
timestamp s
thresh olds
So ft
' "
F RAME
G P
H igh
I B
s b
s ome
Ã ©
Ġc z
Ġd v
') ):
if ar
time series
Ġpre ds
Ġcor relation
Ġdiff usion
bound ing
che my
Dis play
Resource Variable
F older
M u
] '
b ut
Ġ here
Ġg bm
Ġe ar
Ġcon stants
Ġ3 4
Ġname d
ĠM AX
sum s
Ġal tern
Ġlocal s
Âł Âł
A gent
S UM
r aries
Ġc nn
tra ces
Ġde lete
Ġde grees
Ġk nown
Ġpre pare
ĠW hen
Ġac cess
optim al
Ġdiffe rence
S ingle
é Ģ
Ġn cols
he me
ex ternal
Ġd r
Ġfor mu
]) **
qu ation
Ġ2 50
form ula
dict s
point er
ic ro
Ġch i
ĠO ther
iv sd
pl ate
Ġne ighbor
wh ich
find all
ou gh
Key Error
MODE L
Mon itor
assertDataset Identical
recation Warning
Ġformu la
2 24
: ]))
c mb
f en
p or
Ġn z
Ġin c
ct s
Ġco mplete
"" ")
ĠN orm
Ġac tiv
15 7
Fun ctions
Ġredu ction
M erge
c andle
p ur
t up
y i
st rand
al led
Ġs z
li ps
]) *
pre pare
Ġ< -
Val id
Ġ7 00
RA W
Ġnormal izer
ans wer
Sol ver
H ead
c annot
sp ike
format s
Val s
"] ],
ĠO K
Re quest
initial ized
... '
IG N
Fi lename
PAR A
Ġwrit ten
H is
T ask
re w
Ġb asic
ad o
=" %
.. ..
Ġlist s
Ġpre processing
ĠL ay
=( -
disp atch
mi tive
encode d
mission s
ĠSe quence
Ge o
Ġpow ers
mach ine
Ġlas agne
( %
P C
f path
g ot
p lugin
r in
å ħ
Ġ eri
Ġt imer
)) ])
end s
Ġv ideo
Ġj ust
net cdf
Ġevalu ation
Doc uments
Sli ces
Ġhorizontal alignment
' $\
d ash
n dimage
ar ound
Ġp ys
Ġin cluded
(' ../
Ġ: ])
ci r
=[ ])
top ics
mag ic
Ġcan didate
gre y
oper ations
Mis sing
E nt
M ain
O CC
b x
g c
Ġ ent
ti cs
Ġm tf
Ġv a
Ġth rough
ir t
Ġstart ing
... "
Ġmo tion
Iter ation
oto pes
G G
g rouped
q s
s coring
in vert
Ġn args
'] ])
Ġy lim
pro be
ĠS parse
ĠA b
Co mplex
Index ed
quanti ty
Ġc ar
li gn
im f
ĠM O
ĠM y
ys cale
Ġstd dev
Ġsol ve
Ċĉĉĉĉĉĉ ĉ
Cur ve
B ATCH
F N
] [:,
u me
on line
st atistics
st rength
pe g
Ġs heet
is null
qu at
qu are
Ġ3 60
Ġco uld
ĠO S
sen s
au c
linear ity
fra g
=% .
Conv olution
optim ization
) +'
D ele
J ECT
S lice
ol ved
Ġm t
Ġm ar
un used
ot onic
(' ''
ĠA l
Ġra d
Ġ4 3
eri als
load mat
coun try
PE CT
widget s
dis count
chrom osome
Ġdoes n
Ġobserv ations
pli ed
ĠOn ly
n obs
p otential
Ġc pu
Ġb c
Ġw s
is in
Ġmin or
St atic
Ġcomp ression
temp lates
ĠH e
Ġma jor
>> >
Ġmatch ing
clu sive
Ġregion s
Ġtr uth
Ġty ping
aff e
Ġcalcul ation
hier archy
A UT
N x
b rick
q c
on ical
Ġo cc
(" .
per son
sh rink
Ġup dated
FF T
Iter ator
burst s
Seg ment
. ]])
H ub
L ast
Y P
a ic
n ion
Ġ lt
al phas
ro ids
di es
Ġre cords
ur i
Ġ[ _
Ġw eb
ĠS ub
ĠS NP
ĠE ach
Ġne eded
dimension al
ĠSt ate
Th reshold
Sh ow
Sum mary
rich ment
memb ers
TMP DIR
F S
F ig
L D
L ib
S to
u ally
st able
Ġin file
Ġs at
es is
Ġb w
Ġst ored
ver ts
out h
sp ileups
Ġra ster
Ġname dtuple
ĠP er
ann er
ĠB in
orith ms
Sum s
================ ================
Ġsamp ler
Ġcir q
GRA Y
F ill
¡ Į
as y
Ġs r
Ġs x
Ġb b
om atic
Ġh elper
te ch
ren ces
)] :
([[ [
Ġother wise
pri mary
ev ed
ste ms
Ġfoot print
C y
G o
N C
h p
n am
t re
at tn
er tia
)) ):
la in
Ġa ir
ri er
(' $
to gg
Ġr y
max s
ĠM et
pi vot
ann ing
Ġpy fits
Ġmin ute
cv t
Ġvar Map
ui lt
Ġlat tice
Ġback ward
sym metry
SA MPLE
^{ -
OUT PUT
blob s
Call back
spe cs
ĠArg uments
- (
B ER
N ET
^ \
l bl
w v
x ff
in ference
Ġt start
di sk
li fe
ha m
Ġw ell
(' {}
up p
Ġst atistics
ver gence
index ing
Ġde sign
mo sphere
ĠC heck
ref s
Ġplot ting
OR Y
Ex tra
dig its
Ġchild ren
Ġtran sition
Register Gradient
Ġeff ect
C li
L ess
T ick
f uel
Ġt i
Ġp lease
Ġs coring
and a
Ġe eg
Ġcon nection
form ance
ic ense
ĠE pochs
Op tim
gener al
Ġlin alg
stru ctions
Ġrequi re
Ġthresh olds
Ġrepe at
ĠNet work
fol io
N d
S w
m w
n side
Ġ ub
in y
re cogn
de le
de scribe
ad a
Ġas c
ĠD o
ĠD ist
iter able
LE S
AR D
select or
integ rate
comb o
Ġhist ogram
identi fier
termin al
star s
Ġtrace back
Sig ma
Represent ed
cvt Color
) `
) ()
5 000
E mbedding
H DU
K s
M ock
R AL
R MS
S QL
e a
u df
¦ ģ
Ġ ^
Ġ1 20
Ġ[ {
ch ron
ad am
Ġw ay
ray s
train er
Ġz order
Ġun pack
Ġset s
reg ular
Di ctionary
Ġ7 0
coord inate
Ġreg ression
Ġcent ers
Se quential
FI EL
Des cription
AP ER
Ġpack age
) },
- '
2 35
g am
m ust
n os
ä ½
Ġ entropy
Ġt uples
Ġi b
Ġp late
ct xt
Ġm argin
he el
file Name
Ġde ep
Ġde scri
Dat ab
bi o
EN CE
mark s
Ġspecify ing
qualifi er
EV T
, :])
f all
k k
le xi
Ġp ast
Ġp addle
Ġ' ':
Ġg aussian
Ġimport ed
Ġr ates
ĠM o
cent roid
ME AN
dec imal
Ġnormal ization
ĊĠĠĠĠĠĠĠĠĠĠĠĠĠĠĠĠĠĠĠĠĠĠĠĠĠĠĠĠĠĠĠĠĠĠĠĠĠĠĠĠĠĠĠĠĠĠĠĠĠĠĠĠĠĠĠĠĠĠĠĠĠĠĠĠĠĠĠĠĠĠĠĠ ĠĠĠĠĠĠĠĠĠĠĠĠĠĠĠĠ
Ġap pro
replic as
Coun ts
E num
S pectrum
f wd
w all
re ctor
Ġ2 6
Ġr ule
ĠR ange
ĠE X
pol ation
DE N
ĠU ser
Set ting
TE XT
CH AN
Ġrepresent ation
conver ter
hum an
foc us
P rop
] `.
b ank
h uffle
t bl
re wards
dat as
Ġm i
si bility
'] *
([ ]),
** (-
Ġz s
Pro file
Ġend point
Ġno se
sup title
dig it
Ġgd al
A RE
J SON
P h
T ile
U V
d h
f luid
y les
Ġf lip
Ġs cf
con sole
Ġcon version
Ġh ard
Ġdi d
load ing
estim ate
hist o
Time s
mag netic
Ġha miltonian
Ġtri gger
Ġind ent
PI PE
cho ose
Ġpi peline
Ġconcat enate
Ġsubject s
ĠInter val
Ori g
Datab ase
7 00
E PS
j j
j ump
n est
p lo
al ways
Ġd river
th r
'] [:,
ĠP IL
Ġle v
close d
Ġver tex
pack ages
Ġcontain er
integr ity
C NN
b rain
d on
se x
li s
Ġd dof
am in
Ġy m
Ġsh rink
==== ==
wrap ped
Ġconn ect
Ġexpect ation
trun cated
------------ ---
, .
F ROM
I V
M emory
P adding
] [:
t c
re use
si tivity
un ic
def s
id ent
Ġd ti
'] ].
Ġdi screte
str ation
ĠE vent
=[ -
ten ded
base s
pp f
Ġcolor bar
qui sition
serv ed
Ġsim ilarity
fin der
Ed ge
L R
L eg
h ip
k pts
m oments
v line
Ġ question
st it
de termin
de scriptor
Ġc loud
ro ute
Ġs lot
dat um
Ġst ock
cal ar
lab eled
Ġdi v
Ġr r
ĠP anel
Ġpro vide
]] ],
201 8
normal ization
stra ints
meas ures
CA MB
ĠCo un
DO W
mit ted
Ġthread s
Ġsli ces
B ot
D R
I con
S ite
d z
p an
st atistic
al man
Ġin side
im als
Ġl ats
cy thon
cu it
serv ation
lap se
RI BU
clu ding
Sh ift
ĠSE LECT
Ġassoci ated
l h
s x
v or
y ield
fi f
om s
pro f
Ġco lour
Ġpro bs
sub process
Ġtra j
ĠX Y
pos al
Ġtrans formed
Ġcan vas
Ġlo okup
Ġqu ad
AB C
ater nion
85 7
ĊĠĠĠĠĠĠĠĠĠĠĠĠĠĠĠĠĠĠĠĠĠĠĠĠĠĠĠĠĠĠĠĠĠĠĠĠĠĠĠĠĠĠĠĠĠĠĠĠĠĠĠĠĠĠĠĠĠĠĠĠĠĠĠĠĠĠĠĠĠĠĠĠ ĠĠĠĠ
Ġplace ment
ĠCol umn
Distri buted
T wo
b len
l ations
m dot
å Ĳ
Ġn i
si der
per t
ĠS imple
ĠM E
ĠN UM
oc us
)] ),
graph ics
work space
du es
pad ded
andardi ze
RIBU TE
C UR
p run
en tions
ro le
Ġre comm
Ġre ason
fi re
Ġw l
ati s
ati os
get a
Ġco variance
tri es
ĠC F
comp uted
ĠD AT
Ġuse ful
Ġinter nal
can didate
ca pe
idat or
Ġ`` '
regulari zation
pub lish
hes sian
ĠPol y
fem Space
1 101
C SV
W rong
b ro
æ ķ
at trib
at mosphere
al i
Ġi mag
Ġf uture
as sets
Ġs il
co variance
]) ])
Ġy err
") ;
Ġcon tact
ĠS o
Ġ4 8
ell ite
Ġkey points
by tree
Index Error
comm it
Ġexec ute
expect ation
FLO AT
cosmo logy
, _
N B
R R
] `
g ons
k p
ut able
con struction
"] ]
trans formed
nn ot
Ġmo ving
ca de
Ġobj ective
dup licate
Ġbl ue
!! !!
VAR I
ellip se
4 32
B GR
E poch
F OR
G T
O ptional
T ON
V e
i con
Ġin dx
di vision
() (
qu it
con fidence
and s
end point
cal ls
Ġh ic
Ġpar ticles
ĠN ew
Ġmax val
ĠG en
own er
gen fromtxt
Ġinter face
ID TH
ĊĠĠĠĠĠĠĠĠĠĠĠĠĠĠĠĠĠĠĠĠĠĠĠĠĠĠĠĠĠĠĠĠĠĠĠĠĠĠĠĠĠĠĠĠĠĠĠĠĠĠĠĠĠĠĠĠ ĠĠĠĠĠĠĠĠĠ
Ra dius
vari ants
elect ron
Ġvi sible
byte order
C ENT
T imer
d out
f amily
g as
Ġp tr
Ġw arning
tra de
ĠC ur
Ġj ax
ĠE T
Con tact
dt ree
au gment
Ġne arest
Mat erial
En abled
pool ing
ĠUn i
Ġdir name
Ġproto col
ĠMask edArray
ATT RIBUTE
Gre ater
Ġoc cur
Ġresid ue
avig ation
F l
F lat
P ass
[ ...]
} },
Ġd ynamic
get cwd
(" {
add ings
ĠC ont
Co lour
nn et
Ġ7 5
can didates
Ġabs l
mi cs
En v
LI B
Gener ate
Ġpeak s
ĠRes ult
distrib uted
Ġkl ass
ĠOut put
) ]))
B it
L T
L ON
T ABLE
d ask
f fic
j i
Ġ limits
Ġb et
Ġb enchmark
ver ter
ul li
per turb
te ctions
Ġpre process
arch ive
Ġsig moid
ero sion
PH A
analy ze
Coef ficients
D if
S amples
h or
l ue
} ")
Ã Ń
å ¾
al es
ti p
la ps
ĠT H
Ġde viation
ĠS ample
Ġth er
DE X
100 000
window s
vari ances
sin k
COL UM
token izer
ring er
Cont ent
BA SIS
aco b
D M
c en
h alo
u li
in dicator
or n
Ġt up
Ġf f
Ġre ject
(' ./
Ġel apsed
Ġr j
ĠC A
comp arison
Ġen able
ĠW e
Tensor Spec
Un able
)+ "
Graph Keys
Ġfra c
Ġalign ment
Ġconstra int
specifi c
ske w
S UB
d ro
h rf
Ġ çļĦ
Ġb p
co o
__ ',
00 4
Ġis subclass
Ġr m
ĠM od
Ġindex ing
ĠL O
RE G
ins ulated
so cket
Ch ild
Ġfa ke
cre ation
delay ed
Ġmeasure ment
unlen sed
Uti ls
. )),
V i
V ol
g id
k f
o graphy
p q
p ot
re ferences
pe t
Ġb uilt
Ġg ate
Ġax s
=" \
Ġtra jectory
DE P
conv olve
qui lib
Ġbin ned
su me
over write
CA LE
segment ation
CON FIG
Mask ed
sched uler
Ġamp litude
Ġtak es
Ġcontour s
scrimin ator
C Y
C ols
H OR
N umpy
R ec
b enchmark
d ens
} ')
de sired
ri cs
set ting
Ġcon sist
Ġde code
Ġch art
Ġro ut
RO OT
_{ \
Ġ"_ "
trun cate
Ġvertical alignment
F old
S ha
b am
o h
r p
t vm
u ra
y ields
Ġ enter
si l
fi ers
Ġw ould
mb h
ĠO pen
Ġsp lits
03 3
Ġcent ral
UR CE
IM AGE
ä¸ Ģ
}. \
Coeff s
' ``
) [:
+ ".
> <
C Z
b urn
s ci
x ls
Ġp n
Ġs g
Ġm nu
Ġo mk
Ġo mbh
Ġw av
is ual
Ġ- (
=[ (
ĠG pu
Ġac tivity
conv olution
Ġad vection
:, :]
PI X
structure d
Per cent
9999 9999
Do uble
Ġom ch
Init Power
Ġgu ess
CAMB params
L M
_ ))
t gt
or i
or ing
lo y
co lour
'] }
pro cesses
Ġdi sk
Ġth ird
ĠB atch
LE V
Ġcomp atible
coef s
Comp ute
fin ished
Ġrequest ed
simple filter
lev ant
ĠSe quential
swap axes
Chann el
Ġasc ending
) ._
B est
R F
W D
f fill
g un
le ak
Ġc art
Ġas cii
len cl
=' \
Ġe m
Ġu sage
Data Type
sc a
Ġz oom
ĠE le
Ġun lencl
den om
std dev
]]) .
Ġmode s
DI ST
perim ents
align ed
Ġpl an
Ġedge color
PS F
Ġut t
Ġdetermin e
Ġsli der
+'_ '+
Tr u
Be am
SIG N
neur ons
çĶ ¨
N I
h sv
Ġp ressure
ro c
Ġ' :
co vered
Ġst age
arg er
Ġg ap
Ġr nd
Ġpar a
inter sect
Ġro ll
ĊĠĠĠĠĠĠĠĠĠĠĠĠĠĠĠĠĠĠĠĠĠĠĠĠĠĠĠĠĠĠĠĠĠĠĠĠĠĠĠĠĠĠĠĠĠĠĠĠĠĠĠĠĠĠĠĠ ĠĠĠĠĠĠĠĠĠĠĠĠ
Ġar row
Ġstri p
down cast
bit rary
lap sed
post erior
Min imum
Mo ve
Ġchar acter
occ up
Ġcomb ine
liter als
P ush
W IN
s freq
Ġ Value
in side
in dividual
Ġc affe
Ġex e
Ġv x
Ġr l
Ġpar sed
fe ats
ĠM es
Co ords
Ġspecifi c
Ġdet ect
Ġband s
Ġstack ed
Ġhe at
Ġta il
ĠCal culate
Rel u
Ġmet al
) [-
D ev
L ink
S m
f ps
k t
p ul
r dm
s it
æ Ī
æ ĸ
al loc
Ġn one
Ġp itch
Ġp lugin
def ine
ch ors
Ġd ue
Ġd set
is close
sp ines
Ġde mo
ci vec
ind ent
ĠC y
Ġse en
ĠN u
Ġ5 6
Con f
ĠW D
ear ly
local s
---------------- --------
siz ed
, *
. `
b j
e qu
at ol
at ings
al ias
me tic
Ġs ites
ct ype
Ġm td
con nections
Ġr ms
ĠA pp
10 3
mo vie
Con tour
]] ]
ins pect
Bo ol
DI M
Ġev en
kw s
Ġab out
Ġcap acity
Ġcs r
Ġbl k
Ġpart s
Ġcho sen
Process ing
GA ME
Coun ter
Work space
Ġsoft max
ĠOS Error
DEP TH
E l
h ub
l ers
q n
v oxel
Ġp latform
Ġ' $
ser vice
ch isq
ĠN OT
ho le
Ġele ct
cre ated
LO CK
any array
org an
Run ning
heat map
cir q
C OR
K ind
L GBM
P hi
U C
W IDTH
c tivity
f max
x ds
} ]
an i
Ġc op
10 4
lat ex
ĠL icense
off s
ref resh
iv ot
ĠEx tension
qui red
Str ategy
Ġph y
gener ated
over ride
cr nr
Ġso cket
rgb a
App end
Ġcm ds
abstract method
( ?
B ad
N ORM
e ctions
k v
v b
de tail
Ġn at
ro d
Ġs creen
Ġ" ")
ce pts
Ġ( ['
Ġcon fidence
per c
ĠS P
ĠS ort
Ġse nd
ĠR un
sc r
Ġal ways
ĠE N
ĠL abel
Ġpy scf
ĠG PU
function al
pa rents
OR S
Ex t
ok en
au g
IG C
Ġpol ynomial
App ender
ĠCol or
}/ {
Ser vice
irt ual
. +
F R
k d
() *
Ġm achine
urn al
ve ct
ĠT O
ds hift
Ġ5 000
ĠD ropout
Ġen coded
lib s
ang ent
Ġq t
ach ing
olu tional
ĠRe ad
ĠEx ample
Ġsy mpy
Me ans
RA Y
Ġconv olution
Ġprocess ing
Ġcap ture
Ġsmooth ing
omin ator
Indexed Slices
0 65
L ik
R NA
W ord
W HM
h its
i re
i Tru
j k
t rend
ä ¾
è ¦ģ
al ive
Ġm or
)) ],
Ġ" [
Ġ[ {'
Ġd u
get value
Ġst rand
Ġe mb
Ġr f
Ċĉĉ ĠĠĠ
comp utation
uti lities
work ing
peci es
Time delta
Ġcor ners
Ġ12 3
EN ABLE
Ġ| =
integ ers
Max imum
cho ices
final ize
ï¼ ļ
diffe rent
~~~~~~~~ ~~~~~~~~
Ġderiv ative
* ',
M otor
N ONE
S ection
d get
p res
z p
å Ģ
Ġ ke
an a
Ġp x
Ġp laces
Ġc atch
Ġs ure
Ġre lease
() [-
__ [
col sample
Ġtest While
sion s
Test ing
ĠH DF
Ġmatch ed
extra ctor
Pre cision
Ġloc ations
aster n
Cont roller
istic Regression
avi er
ĠFe ature
D Tree
R est
g ps
k b
v v
v cf
at tach
de pre
ti d
() ['
Ġm ak
ex cel
log it
pre p
ĠO ne
cre ator
Ġcolle ct
cm c
Comp onents
ET A
Ġet c
Ġperform ance
tax on
âĢķâĢķ âĢķâĢķ
Sa ver
BIN ARY
lexi ble
. )*(
B i
S W
c rs
h l
p laces
de vs
Ġc mp
Ġc ached
data file
int o
Ġb lack
Ġd h
Ġu int
10 5
ĠC ON
Ġch anged
ps d
ĠG e
ther mo
Pro perties
ĠY ou
na ive
enti ties
Ġtransform ation
peak er
Transform er
residual s
ĠOb ject
Ġimplement ation
extre mes
6 75
A lign
^ ^
h int
l ut
m ing
st retch
as i
Ġ' |
Ġre si
um b
Ġd j
con sol
Ġg am
Ġg iv
Ġl and
ac ro
ĠP i
ĠM ock
ĠN umpy
Ġsk image
Ġ12 7
Al g
det ected
Ac tivation
ĠPro cess
arti cle
HE AD
ĠBo olean
Ġtermin al
5 67
A cc
C enter
J obs
U sing
Y Y
_ ['
f ct
m v
å Ĭ
er ing
it Hub
', ),
ma ker
con tract
con former
Ġx lim
(" ")
assert Less
Ġout side
fig s
iter N
inter active
ref lect
Ġim gs
vector izer
Ġac ross
match ing
CE SS
Le arn
Base d
Ġnon linearity
For ward
quanti ze
VAL UE
az imuth
Pix el
boot strap
armon ic
( ([
/ *
A ctor
O mega
h g
h al
k its
m arg
u json
se ason
de limiter
Ġt c
Ġi ma
Ġp w
Ġc andle
Ġin stances
ort ran
Ġa ug
Ġd g
th ickness
Ġ2 40
'] [-
Ġv oxel
Ġh old
ĠR NN
ĠN O
Re cord
SE S
act ers
qui re
Gra in
depth wise
Ġad j
Ġmap ped
Ġlat est
Number Of
arti fact
Ġrep lic
STR ING
('.') [
PARA MS
0 25
A ct
B eta
D NN
F UN
I Z
T ex
W ave
_ "+
f lo
ĥ ½
in ct
Ġs ci
ha zard
Ġ2 9
np ts
Ġ3 3
Ġ3 6
ĠP ri
Ġ5 5
Ġpro d
Ġal le
rid ge
cent re
Ch ange
Ġtoken izer
Scal er
big query
Ġsn ak
ĠID s
ĠDE F
Ġdiag onal
jac ency
EXP AND
PECT RAL
+ ')
: >
R ank
h z
ti lt
Ġre m
Ġ1 01
um ath
con trast
Ġst im
Ġx f
ĠA dd
ĠC or
Equal s
state ment
Pro vider
ĠK er
Ġtrans late
ĊĠĠĠĠĠĠĠĠĠĠĠĠĠĠĠĠĠĠĠĠĠĠĠĠĠĠĠĠĠĠĠĠĠĠĠĠĠĠĠĠĠĠĠĠĠĠĠĠĠĠĠĠĠĠĠĠ ĠĠĠĠĠĠĠĠĠĠ
not s
redu ced
Ġcurrent ly
Sy mbol
Ġcombin ations
Ġcallback s
Ġderi ved
Ġtak en
Struct ure
Ker nel
mac ro
A CE
R d
d in
é ĩ
ra m
Ġl ons
ĠD T
DE L
sg d
Ġcor pus
Ġreg ister
Ġsy mbols
prop ag
Ġ.. .,
Map s
At tention
('/ ')[-
ĠUn it
Ġet ree
, :
: <
A W
D C
M ust
M IT
S L
h line
p ops
t ar
u ids
re tri
st n
Ġc lo
ol ver
Ġm lab
Ġd sk
up ported
py x
Ġprint t
Data Set
Ġdf tmp
Ġpro cesses
for ecast
ang o
vector ize
SI MPLE
19 2
Le arning
kl ass
LI ENT
ynam ics
iteri a
Chunk s
manual Opt
LA Y
ĠCoun ter
E astern
I mp
V ect
h ide
n orth
r u
in x
Ġn col
ro unds
ct est
he t
co erce
Ġw f
Ġst ds
if e
ub it
cor rection
df t
bu y
ĠF rame
no ulli
width s
ĠRe ferences
Ġread ing
gener ation
ud nn
ĠStr uct
elem wise
ĠAx es
Ev ents
B egin
C ategory
G O
] *(
f light
i python
å ĩ
or ange
Ġn rows
Ġp ers
el f
Ġm otor
Ġnp t
ha ble
res amp
end points
ĠT here
comp s
ĠD ec
Ġmodel List
sim ilar
Un its
Ġsign ificant
UN K
Ġtransform s
Ġ15 00
met al
strict ed
mar ket
Distri bution
catalog ue
Ġdistrib uted
Quanti ty
- ')
U ns
m X
s st
w al
re ci
lt ag
[' :
Ġg y
ĠM ap
RE D
dims huffle
No ise
Ġuser s
39 2
Bound aries
Ġcoef ficient
met as
Ġaff ine
correl ate
) <
R N
a gram
l range
n ob
se mi
in h
or row
ro is
Ġa f
ul ly
out side
Ġh p
Ġpro ps
wr ong
Con vert
Ex port
Bo unds
Ġbin size
PO ST
Ac curacy
LI ST
Weight ed
inst all
Ġwa it
WOR K
Samp ler
Ġsil ent
C ATION
G PS
H ost
b one
f whm
i red
l ant
n elec
u ds
} ;
Ġs ing
Ġre ferences
ur ations
], \
Ġb rick
co dings
': -
Ġh andler
Ġu i
Ġcol l
ir al
start ing
Ġle t
Con ditions
AL PHA
alle st
PO SI
cluster ing
Ġ'- '
Mo stra
Ġcy cles
direction al
Ġtick s
Inte ger
Ġaggreg ate
Sav ing
$ '
B IT
G pu
H W
O bs
R ed
g le
s parsity
u z
u it
x b
} ',
} ))
in ex
al chemy
Ġp id
op le
om ati
Ġr p
index ers
Ġl c
equal ity
ag ents
Ġj j
Con st
ST A
temp oral
doc uments
ca ff
CT OR
ense mb
En tity
FI X
Ġinst alled
Ġmis match
free ze
dest roy
%% %%
Ġsmall er
built in
--------------- +
s weep
se as
in o
re ach
on ential
st ds
el ist
)) ;
Ġ[ %
int e
id y
ati ent
Ġas s
po sitives
am ber
Ġh ue
il li
Ġk size
sh ifts
ĠR ep
for eground
cept or
com ments
AR GET
rect angle
AN G
bl dg
Input s
Hist ogram
ĠPy Qt
HT ML
Ġmp i
Ġsw itch
adr atic
COLOR S
Ġshift ed
Sparse Tensor
qualifi ers
POINT S
ske leton
morph ology
2 11
G amma
R G
S CALE
T a
i stration
o ct
q a
y ellow
on set
Ġt ar
ti les
Ġp ulse
') ;
Ġx r
df s
Ġen code
IN S
error bar
Ġsub plot
lic ense
LO W
PO CH
cr iterion
month ly
Temp orary
BC ast
Ġregulari zation
las agne
quilib ri
C ho
I VE
R ATE
S B
i pro
i qr
ar ity
Ġf re
qu eries
Ġel lip
Ġdi stributions
ta ck
max len
ĠS um
Ġco co
ir th
comp iled
Ġkey words
Di rect
16 0
Ġcolor map
the me
{} /
hist or
we ather
bl as
Ġiter able
AS S
FF ER
band width
ĠSt andard
Check point
Ġwork ing
Ġab c
Normal ize
ERS PECTRAL
separ ation
accum ulator
Validation Error
Ġinteg ers
terior Element
YP ERSPECTRAL
N ext
W e
d dof
n levels
p mf
v of
v oxels
y es
y ticklabels
Ġt re
ti s
Ġc e
Ġc he
ge red
el apsed
Ġw v
set Up
name space
qu es
tra ction
cor er
Ġth ose
Ġpro g
lace ment
group er
(- (
Ġread s
Ġload er
Ġ'. '
quanti zed
Ġredu ced
Ġbound ing
Ġdis count
Ġden om
Ġcrop ped
delt as
kern els
ĠNorm al
= ',')
F C
N ow
R C
] +'
o ints
p time
p ast
t un
â Ķ
å ®
Ķ ¹
ti tions
ati bility
Ġu s
gra vity
10 2
ĠP O
ĠP AR
ag s
Ġ[] :
pos sible
RE L
Ġsup plied
Ex periment
Pro duct
cont inuous
ĠIn stance
pair wise
Lo op
draw ing
alle le
ĠSt art
correct ed
Ġda ily
optimizer s
Multi ple
stor ed
Batch Norm
SO URCE
Ġvi a
Boundary Quadrature
FORM AT
ipro ws
" '
I AL
N ested
P M
P andas
U ES
Y PE
c pp
r ust
r ating
s an
de mo
Ġi v
Ġ' ,'
ut er
Ġin nov
di fy
Ġre versed
Ġm gr
ed er
'] })
Ġe c
log g
Ġcon ditions
Ġout liers
ĠM ust
Ġpre c
rep lay
Ġstart s
Ġcom ments
sk learn
De coder
Ġtransform er
message s
Ġgo al
Ġannot ation
Ge ometry
activ ations
Fixed LenFeature
FIEL D
COLUM N
3 75
C ut
C he
D eg
S catter
l ang
m ore
s as
v ary
y size
at an
er red
Ġm ut
si mpli
Ġ( :
th an
log in
Ġco mple
ren cy
Ġ4 4
'' ')
IN DEX
ĠO N
round trip
')) .
Sp atial
Ġrot ate
tt p
Ġindi cates
ĠDist ri
Ġib is
C hain
F ast
G EN
M apping
S PE
b ow
g zip
s fr
Ġ ol
Ġ quality
Ġre cogn
li g
qu arter
(" '
pro xy
pro tein
col ls
Ġ{ !
Ġde lt
Ġk appa
ĠP andas
Ġpro tein
ĠB Y
11 11
Ġac cording
Par se
Ġarg v
math bf
Ġ100 000
Ġdist s
Ġtop ic
Ġmap s
squ ares
Sh ort
Ġvari ant
Batch Normalization
chi eved
ayes ian
Cre ated
ä» ¥
ĠDes cription
Ġinstr ument
' m
F irst
O ther
P ow
W W
j et
r h
en g
lo pen
ce an
ri ve
Ġw arm
ig u
con c
Ġ: -
ĠF oo
()) [
Ġ6 00
ĠO ption
Ġsp acing
0000 000
Ġ8 00
ĊĠĠĠĠĠĠĠĠĠĠĠĠĠĠĠĠĠĠĠĠĠĠĠĠĠĠĠĠĠĠĠĠĠĠĠĠĠĠĠĠĠĠĠĠĠĠĠĠĠĠĠĠĠĠĠĠ ĠĠĠĠĠ
ĠIn itial
Ġ[[ [
Ġload ing
mt ree
IT H
expand ing
Ġyear s
writer ow
Ġjob lib
backend s
clean ed
II I
Ġwrap ped
lan es
Ċĉĉĉĉĉĉĉĉ ĉĉ
Redu ce
lips oid
3 000
P t
S NP
] ",
c tive
s am
u x
ra ce
len et
Ġis na
cal s
Ġex pec
ax vline
log dir
ci al
ber t
Ġfile Name
ĠG LOBAL
Ġcomp ress
close st
av y
AR RAY
OR DER
AL IGN
Cl asses
Ġ'. /
Lo aded
Ġstri ct
-------------------------------- ---------------+
Ġ"/ "
ĠPo ol
ĠRandom Forest
Ġdig its
Ġmn ist
Ent ropy
VARI ABLE
B oth
E BV
T V
V ideo
f ly
l vl
r n
se gs
ro gram
di alog
ur ity
Ġm ult
un certainty
Ġdef inition
00 3
Ġ- .
ss o
ĠP a
read only
ĠI Python
reg istry
pp age
201 9
of fi
Po sitive
13 7
ev en
hand les
Ġgen ome
gu ar
NAME S
Ġversion added
Inter pol
Ġli kelihood
Ġcre ation
Ġannot ations
Det ector
aut os
produ ces
nor med
incre ment
ĠRO OT
ĠLay er
C UB
M UL
R H
g ender
i mplement
Ġ $\
Ġf our
lo ut
Ġ( ('
set attr
con crete
Ġst orage
'] [:
Ġg ym
(" <
ĠT F
Ġex cluded
ĠĠĠĠĠĠĠĠĠĠĠĠĠĠĠĠ ĠĠĠĠĠĠĠĠ
vi rt
Ġnum erical
bu st
** *
ys ql
Ġan other
Ġuse cols
normal izer
En able
SC P
dest ination
ĠTensor Flow
tool bar
Bu y
helper s
Met rics
modi fied
orbit als
- +
. **(
B S
S tim
b ol
c redentials
f info
k o
m irrored
u c
se en
le ave
Ġf x
Ġc df
om o
from string
Ġv box
per s
assert Greater
il ds
float ing
read out
ĠD el
cur ves
ĠW indow
mon otonic
ĠU RL
lic ity
Ġ& =
shift ed
sn ow
ug ate
Ġprob abilities
Bu ild
deriv ative
ĠGener al
Tran sition
Lik elihood
C lear
E Y
H IGH
T er
g ri
h n
x e
å ¤
Ġ lamb
Ġ ortho
at ts
st ress
al lt
Ġc n
Ġc la
Ġc val
it ect
qu bit
ĠT ri
Ġe ye
ĠS ign
us r
sh ots
Ġint ensity
cat ing
ST D
pa use
oth esis
radi i
Un iform
Sp line
fc n
Node s
Ġwork space
Vector izer
LAB EL
ĠIter able
Identi ty
F RE
F utureWarning
N Y
S pecifi
W FN
n es
v y
Ġp at
Ġc law
Ġc udnn
Ġs leep
di ameter
Ġb ed
Ġdef ine
ze ta
([ [-
Ġh f
il ing
In ds
tra ding
ĠS elect
fig ures
cess ary
Ġver ts
check s
rt ol
mon key
Ġfa ces
Ġgen es
En vironment
Ġlat itude
oper ators
SA VE
US ER
mid dle
Ġren derer
Region s
consist ent
cha ins
Ġburst s
guar dian
2 20
B W
B r
M y
M SE
W HERE
p les
Ġ )),
at ely
st ash
con ditions
Ġg olden
float s
Ġraise s
Ġpro ba
ĠL at
Con tain
)] ['
ĠG RO
ref ine
Ġcv x
not es
Un less
Ġlin space
Ġfit ness
Ġar ound
Ġoper ations
+" /
Block s
tool kits
chan ism
Ġpatch es
Ġresidual s
RNN Cell
hic le
WE IGHT
Ġear ly
offi cer
" },
" })
H D
H o
I F
I X
T D
r st
t fidf
Ġf amily
es cape
Ġa o
get env
Ġst derr
'] [:]
ul us
lin estyle
str ptime
stan ti
ph erical
Data Array
mo on
pre tty
__( **
ĠI S
ĠF O
Ġ\ "
11 8
Ġcomp arison
fit ted
Re ading
Pro ject
14 0
fill er
pri v
atom ic
cost s
Box Layout
track s
Ġmarker size
Target s
phy sical
Ġpen alty
Ġremain ing
Ġsumm aries
togg le
! '
1 000000
C RE
] \
g onal
k de
n orb
p ages
t v
t st
x size
se m
en ces
Ġt ear
Ġp ip
sp ud
test TensorArray
Ġout f
Ġco inc
Ġlog s
Ġen ti
iter rows
sub element
Con straint
box plot
the guardian
man if
fra gment
TH RE
Map per
Ġcall s
Ġuni verse
Ġhigh er
TO P
Config uration
bon ds
Ġassu med
CHE CK
Cli ck
inte rest
A p
M F
S N
_ ):
f am
g w
g rowth
h an
w est
Ġc j
Ġin tr
Ġs it
Ġre pre
si ms
=' ')
Ġh dr
min utes
sh ader
sub graph
Ġal phas
Di ag
Re move
ĠU N
arch itect
Ġrun s
prob abilities
Variable s
CH W
ib bs
LO T
ĠNot A
)** (
conf usion
Ġ"" ",
constra ined
OL D
chain er
NS OR
Ġsupport s
Row s
innov ations
Ġbucket s
Serial ize
/ ',
1 30
> </
O ps
p ace
t pu
v in
° ±
st eri
sel l
Ġt di
Ġc ri
id ence
arg where
to day
lot s
Ġcon structor
Ġr t
Ġl arger
color map
do es
ĠThe se
local ize
doc string
unit cell
hand lers
Ġsim ilar
Ġmy file
Ġmis c
speci e
Ne ighbors
Cannot Contain
Sim ulation
WOR D
cub ic
perf ect
bul k
Ġindependent Data
omati cally
9 00
G UI
c j
r ations
t we
è ¡Į
Ġf lo
an om
Ġin correct
Ġ[ ['
Ġg b
Ġex posure
if ti
if ace
os m
tra it
ĠS ize
Ġk d
Ġresult ing
ĠN on
comp ose
AR G
qui et
Ġtext ure
Ġformat ter
alle li
FF FF
Ġroot s
Cal c
By tes
fail ure
Ġinfer red
iti ze
Dec ay
ĠSy stem
ivsd in
ĠGLOBAL utils
/ ')
4 04
B UT
D ensity
E POCH
N CHW
P l
Q Application
T RI
` :
o ot
v o
} (
al ong
Ġf rozen
Ġin Coeffs
Ġ" *
he st
la ced
ad min
Ġh i
Error s
min max
ob i
ĠC ell
pi e
Ġtra its
Ġun used
Ġcl one
ne ighbour
dt d
so und
Ġav oid
Ġret val
eps Fact
For ce
Ġrel ation
An aly
Ġfactor s
Ġener gies
Ġclose st
Ġgre y
Ġidenti ty
LU X
Ġserial ized
ĠTimedelta Index
cub es
ĠMon itor
por osity
ĠDAT A
Ġtear Down
P open
Q Label
T em
[ ["
] ._
m ot
p color
in ess
de composition
Ġm ixed
Ġ" `
ex tern
Ġa mount
ri cal
is scalar
con centration
Ġx c
Ġv y
row n
32 0
ĠF i
Ġat temp
Ġ{} \
reg ress
reg ressor
vector ization
olu tions
scal er
19 70
36 00
Date timeIndex
Com bo
actor s
Tag s
hed ral
ĠDep recationWarning
( ~
) ['
A bs
B Y
F ree
L ines
S izes
U Int
b old
h c
k u
p lug
è ®
re versed
Ġt an
Ġf j
Ġd ask
est r
is inf
il ho
ĠS F
Ġco verage
Ġrange s
cy linder
sen se
clas sify
Ġsk y
Tra jectory
AS H
pass word
[:,:, :,
GR U
Ġconf usion
Ser ver
resid ue
ava il
E W
M ar
W A
W K
d R
l just
n ight
v ised
in set
in ertia
re o
st udy
ra ft
Ġf g
pe dia
lo ci
lo ok
Ġs freq
Ġre current
Ġm enu
un c
li ve
li cated
Ġw arp
set Level
Ġ2 24
ul der
Ġy p
") ]),
Ġv c
app lication
ĠS I
te ff
Ġor b
tri bution
mat erials
run time
Ġpy hrf
cy cles
}) ".
gen otype
Ġtrans lation
=- .
cos mics
extra ction
side red
Ġmap per
Tra ce
Ġwork ers
Ġgo ogle
ä¸ Ĭ
Ġpost erior
extension s
spa rent
wrapper s
plan es
Ġmodi fied
DataCache Dictionary
784 314
uro pe
Ġrepre sents
3 65
B L
V el
c ax
h ue
j itter
k ur
w c
é ģ
se quential
en f
en umerate
Ġs id
si b
Ġb its
Ġb utton
Ġb rain
up dated
Ġx ds
ĠT otal
cal lable
ul ators
out liers
pro t
In f
Ġu id
dir ty
ag ing
Ġmat erial
are as
right ness
Ġsup press
iv y
pri ces
doc vecs
To ols
Ġne ur
Ġqu ant
bit wise
Window s
OP T
Ġtz info
infer red
Ġkw ds
Ġdirect ly
Adam Optimizer
âĶ Ģ
chieved Exception
ĠNotA chievedException
ilho it
G C
S cope
T k
f ar
r mtree
ľ ĭ
in di
re dshift
er ation
Ġt rend
Ġn ib
as anyarray
Ġp ca
Ġc ub
ut t
di richlet
Ġo t
)) **
Ġcon s
Ġcon sidered
Ġk p
ĠP ub
"" ",
bin ning
St eps
ĠW eight
pec tive
ĠH ist
Ġinter section
Ġ20 10
Ġglobal s
ä¸ ĭ
Ġimp act
Doc ument
SY S
Ġcli ck
ĠInte ger
Ġappro pri
1 999
G LOBAL
c q
d w
j m
j an
m jd
w nd
å Ľ
re cursive
Ġt ex
Ġn v
Ġf m
Ġs da
)) (
(' :
(' @
qu ot
ig hest
Ġg rowth
Ġex og
Ġv W
Ġcon ti
Ġh ess
Ġde le
Ġl anguage
10 8
sh ards
Ġbe havior
ST EP
St andard
les ky
head ing
Ġcomp uting
do ck
Ġker n
transform ation
ev t
:` [
=% (
assign ment
Ġsen tences
Ġsym metry
Cor r
Dele te
æĪ Ĳ
ĠDEF AULT
CUB E
( ',
A nnot
D TYPE
F ace
T ARGET
] [:-
a ma
f out
m j
n h
Ġn w
Ġp ivot
ab cd
log o
Ġde cision
Ġu uid
Ġname space
=" ""
Ġth ickness
Con cat
new s
ak er
Ġro bot
cont rols
Ġby ref
Op Error
over lay
limit ed
Ġext re
]= ='
elect rode
crop ped
UB LE
Wor ld
phot o
mor an
Ġaggreg ation
ometri es
Ċĉĉĉĉĉĉĉĉ ĉ
Soft max
VARIABLE S
- {
= (),
B ias
S peed
_ =
d ll
e uclidean
f li
n v
or k
st rom
Ġs low
id f
Ġd ag
__ '):
Ġst atistic
sp matrix
col names
ari ties
Ġu func
Ġl y
ĠC LIENT
und le
64 7
parse d
bin count
St reams
ne ctivity
}) '.
Ġexp licit
ĠH ttp
14 2
Ġper f
Model Index
Ġcan didates
session s
real path
ĠZ ero
At tributeError
Ġseed s
Ġla zy
Ver tices
Ġcorrespon ds
Proto Equals
bal ance
B M
C ustom
D ic
E p
F inal
L a
L ower
R T
R UN
U DE
W T
b z
d ual
f ri
h cc
k ill
n op
in correct
in cluded
re ps
Ġt ax
ti ff
Ġc bar
di p
fi ber
ha ve
ap ers
Ġr d
Ġres pect
cat s
ne e
ng l
Ġtrain ed
pp m
rect s
ml p
AN T
pop ulations
initializer s
Up per
fici ency
Ġfin ished
Cur sor
hyper spectral
Ġcho ice
deriv ed
Ġgr p
,:, :]
TION S
mini batch
Import s
))+ ((
Ġmini batch
Neg ative
Ġdj ango
Vect ors
virt ual
hcc he
2 17
C ells
F raction
H elper
P DB
Ġ (),
le aves
Ġp lay
Ġp run
Ġ' ../
ch k
co mes
Ġg a
Ġe ager
Ġh box
ff ine
ĠS ource
Ġk pts
ĠA B
Ġtime steps
sig s
Ġpre load
Ġch an
Ġmin val
ĠG roup
RE ST
Name d
Ġplot ted
alpha bet
Ġrun ner
rel ations
CH AR
Ġsign als
Ġpl us
ATION S
circ uit
Back ground
rece iver
Ġpercent age
ĠFigure Canvas
ĠOther wise
B ig
L in
M T
M s
M ul
M ON
N ull
P RI
S heet
d om
h params
p seudo
r just
Ġn f
Ġs ink
ct ure
Ġm icro
un squeeze
id le
Ġst o
from file
log space
Ġdi lation
mo le
sub j
nd cg
Ġ6 5
]] ])
pol ynomial
Po sitions
ĠV er
AG ENT
Ġcent roid
Ġscal es
Output s
Ġoptim al
BU FFER
Ġstack level
Ġsav ing
Ġcir cle
Loc ation
Message Box
Ġshare x
; \
C a
C ar
N IST
e di
f array
i var
n cols
u zz
Ġn lt
Ġp ic
Ġin ference
Ġin dicator
Ġs ke
dat ion
Ġm er
__ :
is sparse
sp ot
Ġ3 7
add Item
ĠD ef
Ġat tn
Ġan alog
Ġsub sample
Ex it
Ex amples
Ġcal ibration
AN Y
Cl assification
RA M
Ch art
Text ure
Ġpri mary
Ġdat um
Ġcre ates
As sertionError
Ġlst m
ĠTrans form
RAN GE
CU DA
architect ure
6 67
G ene
_ ',
c and
e os
f ortran
j peg
in el
er noulli
Ġt urn
Ġf min
Ġc ai
it o
Ġm k
qu ake
up sample
im write
pro vider
Ġdi p
Ġdi rs
In side
ĠS up
ms gs
vi r
Ġl bl
Ġen um
ĠG R
ĠO ver
Re LU
Pro gress
Set up
CO M
Ġobj s
Ġbase string
keep dims
cap ital
trace back
Ad apter
Ġpool ing
wait Key
fail Unless
Ġtk inter
Ġcat alog
allow ed
Ġquanti ty
Pa rent
Integr al
slic ed
Parti cle
Fin ished
Bot tom
ĠEN ERGY
2 12
3 50
= \
g ates
g au
p aper
w ide
} ",
å ¸
å į
æ İ
at ypes
st one
ar man
Ġi ms
ro b
ro ps
la ci
__ ",
th in
is Checked
Ġst ellar
lab s
ĠĠĠĠĠĠĠĠĠĠĠĠĠĠĠĠ ĠĠĠ
Ġr ss
Ġ: ].
der s
Ġde coded
ĠS top
Ġra di
pre cip
pre trained
sum o
ĠD im
Ġmax len
Ġindex ed
Ġcl as
tim ing
temp dir
RO P
Ġmo use
Ġblock ing
coef ficient
hy dro
rec array
TI C
command s
Ġwork s
Ġlong itude
NUM BER
Cor rect
Ġfl ush
medi um
activ ate
atten tions
rup t
Au dio
ĠMes h
C B
F LUX
R et
f abs
h m
m eri
v h
y z
æ Ĺ
Ġ= ",
Ġf ine
Ġf ocus
Ġs vm
), )
ri st
op acity
ig ra
Ġst ress
label size
ĠS pecifi
ob ar
ĠC PU
01 5
ĠR ender
ĠN D
lat ency
Ġun stacked
Ġfloat s
16 5
ĠU p
Ġinter pre
ĠRe al
version s
Ġinitial ized
Ġgen eric
extra s
87 4
Plot s
Ġinte rest
Ġpi pe
ik es
Ġsur vey
untime Warning
Ġtrack s
smooth ing
gui de
ĠComp ute
Tri al
FA IL
direct ed
Ġidenti fier
Ġaut omatically
Ġmid dle
Ab stract
rece ived
sto chastic
resi dues
Ġspi ke
Nd array
depre cation
) $
- _
A CT
_ ()
a h
f names
g ens
t ell
x scale
} :
re straints
re ceptor
al titude
Ġt od
Ġ' ..
li d
qu ote
sp l
Ġv m
log istic
ac le
32 7
sc roll
Ġlog g
fn o
pri mitive
Ġorder s
Ġgroup by
MA SK
amer as
Log Uw
skip if
Ġpl ant
cer tain
NO T
Ġpair wise
As sign
Mask edArray
Sy m
lw c
ĠPre diction
jector ies
+'/ '+
ĠLe ft
Ro ot
2 25
F ind
F IN
H DF
T erm
e N
l ator
n steps
x pos
z a
ar cs
Ġn h
Ġp alette
ur ls
() )))
Ġw ater
00 000
Ġx t
Ġg g
") ],
Ġe i
if ft
assert ProtoEquals
sc heme
Ġ5 1
ĠL ib
rop ic
local host
Ġper formed
Ġper mutations
gr u
bot tleneck
FI L
ini tions
Ġmessage s
dy graph
ĠFor est
tool Button
Bu ilder
Ġassign ed
HE IGHT
Poly gon
writ ten
specifi ed
trig gered
( `
: ]]
F OL
H A
I t
P CA
` ):
c ence
d ti
p ileup
Ġc type
Ġs am
li ft
co arse
(' >
th ers
ter o
") (
Ġe quivalent
to uch
per sist
Ġto wer
tri angle
[" _
comp any
ĠD B
ĠD et
ĠF orm
nn z
Ġsk iprows
Ġidx s
Ġper sist
Ġtext s
Ġformat s
user name
Ġfilter ing
Lo ck
integ ration
FI FF
Max Pool
cho sen
App ly
Ġfra gment
nom inal
LAB ELS
LSTM Cell
Hy per
TEXT URE
Orig inal
ĠSort Imports
? ',
A ST
] >
d k
f graph
n k
n lp
r w
u f
y err
y aw
at m
re z
st and
Ġt tk
Ġb ra
cal endar
ĠĠĠĠĠĠĠĠĠĠĠĠĠĠĠĠ ĠĠ
import ances
pro cal
key word
ĠS ingle
ĠN E
ĠN x
Ġz m
lat in
ĠE stim
])) .
filter warnings
normal s
open ml
Ġlin ks
sha res
warn s
ĠAn alysis
CON T
PRO TO
ĠCl ass
199 0
ucli d
ĠMe thod
blen d
ĠSo ft
igu ous
) [::-
B F
P r
d B
e uler
f rozen
f ingerprint
k x
l v
o y
o od
Ġre name
() +
ab und
Ġg m
ĠT R
Ġcon sole
od d
Ġde cor
te red
ci ation
Ġl ang
tri ple
01 7
ĠM an
read ing
ip s
Ġmax iter
Ġun til
nan s
fix tures
OR D
SE D
Ġcom bo
Ġcal endar
Ġper mutation
can cel
uni verse
leg al
idat ed
stop ping
Ġfit ting
buff ers
Ġtri als
Ġchunk size
Column Name
Inter face
vis it
month s
hdf s
perio dic
Ġte ch
Ġmeasure ments
Ġsqu ared
ĠLo ad
dv b
consol idate
âĶĢ âĶĢ
> ",
b irth
c ifar
e ast
r atios
ã ģ
ar ing
de m
Ġn dims
Ġp ng
lo cale
Ġm lp
si o
Ġ0 9
ran ce
et o
Ġe quation
sa ving
tra p
[:, :
ann ual
tf r
inter n
ne eded
Ġcont roller
13 5
Ġreg ular
cell ation
wh it
Ġqu bit
Ġgener al
alle les
Line Edit
Ġnb t
post process
Ġdest ination
serial ized
sql ite
sli de
Start ing
Ġ'{ :
Ġhy p
Ġfast path
upy ter
Font Size
Ġmeas ures
Spin Box
Push Button
ä¾ Ĩ
ensemb les
obi lenet
C one
P age
T oken
l np
r ss
in ge
in omial
me l
Ġc ard
Ġc upy
Ġin i
Ġs ched
get Property
'] -
Ġg ive
sp am
ff set
ari zer
10 6
mo v
ĠP CA
Ġpre trained
ĠL ab
ER ARCH
Ġpo le
',' --
RE NT
Ġplot axes
Ġsh p
Ġsub ok
err state
ĠV ar
Pro jection
ĊĠĠĠĠĠĠĠĠĠĠĠĠĠĠĠĠĠĠĠĠĠĠĠĠĠĠĠĠĠĠĠĠĠĠĠĠĠĠĠĠĠĠĠĠĠĠĠĠĠĠĠĠĠĠĠĠ ĠĠĠĠĠĠ
33 3
Ġqu bits
Ġtop ology
sur vey
air flow
fin ish
Ġpredict or
Ġpad ded
Ġcluster ing
Ġ201 6
vol tage
Ġhe x
Ġtrack ing
mal e
Ġprior ity
HI ERARCH
pn l
Pi peline
accum ulate
visual ize
need s
Ġauth or
pear son
Ġintegr ation
ĠCF G
CENT ER
= ("
B asis
C s
M ark
P attern
b boxes
p atterns
z i
st ft
er n
an im
Ġp mt
Ġs queeze
di ab
Ġre wards
Ġb py
par ty
ap se
am ing
Ġg as
=' +
Ġ3 000
red raw
ts hift
Ġ4 1
eri ors
comp ression
Ġtime it
ĠB lock
ĠO per
do g
Re ce
Ġsh adow
mon oms
ĠV AL
ĠV ersion
top k
uff led
MP I
Ġbase name
Ġtri angle
high light
neg atives
fer red
Ġcho ose
ĠArg ument
Ġtrun cated
arith metic
Phot o
retri eve
' ")
2 30
D ock
L C
S ent
X ML
b ys
f ancy
h oriz
m cmc
s rs
z h
Ġ ValidationError
in ing
re ason
Ġc sc
ro ve
la pping
Ġb m
id ual
Ġfor est
ati ence
len ce
ab ly
'] +
(" :")
ĠT I
ver ses
Ġe b
per mutations
Ġ3 9
min ate
Ġth r
ĠR MS
Ġpro per
frame buffer
__( *
ĠF a
IN IT
batch norm
ER O
Ġ""" \
exp m
rep res
Ġon ce
sy stems
Ġcomp iled
Pro j
Ġcal ib
04 8
"]) .
Ġbin bounds
vs one
Ġfit ted
Ġsave fig
Ġsc ene
Ele ct
Ġstats models
contour f
Mo use
Ed ges
Des cript
Coord inate
Ġcg utils
Network Code
memb er
Register Shape
ĠMax imum
Sc ene
CLAS S
EE G
assertNot Equal
éĢ Ļ
ĠGen eric
Contour s
Temporary File
MUL TI
sib ly
certain ties
D P
D ot
L i
S hould
U np
] <
_ {}'.
c one
n grams
p ore
t g
u ation
w atch
Ġ jo
st al
er os
en richment
Ġf act
Ġc lim
Ġin vert
Ġs nr
ct r
Ġm dc
Ġ" ".
Ġd ash
]) ;
th ar
Ġcon sider
Ġr dd
ĠD I
ĠF ield
LE D
RE C
grid s
Bo ard
Ġrandom ly
bl ur
sim ulate
Ġlo geta
Ġtmp dir
27 6
Ġ'% .
track ing
cum ulative
tran sitions
Run ner
measure d
Ġta pe
Ġannot ate
Ġfail ure
ĠLog isticRegression
calcul ation
van ced
recogn ized
scr atch
ĠDec imal
PROTO COL
+ \
S yn
b em
l anguage
n bytes
p val
p inv
} ),
æ ī
se a
re start
ti de
() /
Ġb us
th at
name dtuple
Ġst udy
Ġx gb
Ġe types
Ġh op
Ġdi scriminator
per formance
Ġcol ls
Ġ) [
ĠR ob
class name
ĠM ark
()) ]
iter al
sub mission
Ġtra ces
Ġpo isson
Ġmin im
ĠG radient
no st
by e
ME G
List Equal
bi jector
au ght
Ġend s
stra in
multi array
200 6
Ġne ural
element Boundary
Ġsim ulate
integ ral
Ġlib raries
Ġcode cs
LI P
let ters
Ġbound aries
Gener ation
Ġchar acters
assertIs Not
Ġsn ap
Def inition
Ġri sk
Ġaut os
Ġdepend ency
remain ing
Ġrece ived
mos aic
Uns upported
" $
C p
D G
G itHub
P atch
P ress
V isual
[ %
a ys
f pt
f lex
g old
n w
t test
on oi
Ġc ha
ct ag
def inition
Ġd k
set p
ds s
ect s
Ġ3 8
Ġor bit
ĠA tom
fo obar
ĠM ode
"] =
ĠF it
pha ses
ĠB asic
{} \
bi b
Ġdo cs
total s
can onical
multi index
+' \
80 7
kw arg
ĠSt ation
Fa il
vis or
sli ppage
BA CK
assertIs None
ĠName Error
Ġdocument ation
++ ++
Ġcoeff s
Sli der
EV ENT
effect s
remain der
Rot ation
servo ir
æķ °
caff e
/ ")
2 94
C N
D id
G ame
P s
S ensor
[ \
d V
d l
d ry
f ci
g cf
q id
x avier
Ġf ully
Ġo thers
Ġ1 000000
um an
ad ditional
ati fied
00 8
Ġst e
Ġy t
col i
In verse
ĠS hape
Ġk f
ĠC SV
Ġen semb
Ġat t
inter action
0000 1
Col ors
multi processing
true div
Ġinitial ization
17 0
over all
assertRaises OpError
Se ed
ĠCon stant
placeholder s
Ġwe ak
RI TE
chrom s
constra in
Cal culate
Wr iting
ym gal
VI CE
THRE SH
. ]],
A fter
C ases
H a
H andle
M AT
P si
W eek
` ).
f used
j a
l ite
m ann
x z
Ġ= \
ar a
Ġp b
Ġ' >
)) ).
ot strap
ve lope
Ġg w
=' /
sp rop
add r
fo cal
us al
ph en
fe e
ĠM ass
"] ):
iz ations
Ġ[' ',
com ing
Ex tension
Ġdist utils
Fe ed
down sample
Ġso up
tran sport
tab lename
Ġ201 5
Rate Map
Ġalign ed
Ġextract ed
Ġquanti zed
Stream er
Cre ating
velo cities
Cap ture
Ġflatten ed
Uni code
Ġnor med
Ġmemb ers
FIL TER
. -
/ {
5 97
5 88
A IN
K P
M a
S Q
g it
g gest
i ties
m irror
n f
p in
w ell
å ľ
Ġ lock
re cording
Ġt params
Ġn ear
Ġm oment
Ġnp ts
ran ded
res cale
arg partition
par ity
Ġr n
ĠA p
10 7
Ġ4 9
64 0
ĠB ox
ĠB ATCH
St ore
Ġcl assifi
Ġlabel size
em ale
pop t
port folio
rs lt
Ġqu it
Ġ', '.
Ġlat ent
Ġnd min
flux es
Trans pose
xx x
comm unic
aw ay
atist ical
aff inity
Dep end
Rect angle
Ġchange s
ĠBo ol
asc ending
Ġtrun cate
Measure ment
Ġsv d
sume xp
, )),
A U
E ager
F WHM
P ub
P ressure
S pi
V IS
] [:]
h op
h hs
o ob
p print
w ins
y tables
{ "
st m
le y
an imation
lo th
int rin
up ling
Ġst amp
(" .")
ĠT C
Ġ% %
ump rod
tr u
ci o
mat s
32 4
ĠN ULL
point wise
sub mit
Ġpre p
ĠL a
Ġmin utes
LE N
:] ):
Ġinter action
SE ED
ĠEx p
Ġha ving
nt ax
embed s
Ġgraph s
mm ing
DO F
Qu ad
Config Proto
cri tic
script ors
depend ency
ĊĠĠĠĠĠĠĠĠĠĠĠĠĠĠĠĠĠĠĠĠĠĠĠĠĠĠĠĠĠĠĠĠĠĠĠĠĠĠĠĠĠĠĠĠĠĠĠĠĠĠĠĠĠĠĠĠĠĠĠĠĠĠĠĠĠĠĠĠĠĠĠĠ ĠĠĠĠĠĠĠ
Ġfin ish
Ġbot tleneck
AX IS
ĠCl assifier
Work ing
Represent ation
Ġindi cating
Metadata Column
decor ators
Wa velength
Ġactiv ations
division s
plug ins
' d
. ]),
1 75
? \
M AR
j r
l um
st roke
de e
Ġn side
Ġf all
Ġf ac
lo ops
ut ls
Ġs park
Ġre v
Ġd er
ran sport
Ġw all
Ġw ind
set err
from array
=' _
Ġdi vide
max es
ĠA u
Ġl gb
for ces
ord inal
ĠD oc
pol ar
ĠH ow
ns rc
ĊĠĠĠĠĠĠĠĠĠĠĠĠĠĠĠĠĠĠĠĠĠĠĠĠĠĠĠĠĠĠĠĠĠĠĠĠĠĠĠĠĠĠĠĠĠĠĠĠĠĠĠĠĠĠĠĠ ĠĠĠĠĠĠĠ
serv ing
All Atoms
Num eric
cc d
Ġgener ation
The ta
Ġtri g
ek f
Ġallow s
fetch all
Ġestim ation
monitor ing
Ġmodi fy
Ġincre ment
ĠFI FF
LEV EL
Learn er
seas ons
Descript or
4 000
B ins
F emale
G ER
H i
O IN
R AT
U sed
b gr
d os
h kl
p nt
t vec
v view
Ð °
è ¿
re try
re construct
st ime
an sion
it c
Ġin ts
Ġm se
un ct
Ġ" ":
th ird
Ġx array
ath s
Ġex ternal
im s
log pdf
Ġr ules
ure d
Ġlen s
Ġk m
ob el
vi des
=" ")
pre load
Ġraise d
comp act
ĠD ensity
ĠD RAW
start date
print options
bin omial
)] ])
Ġmin imize
lob j
Ġcont rols
au d
we ak
Ġper centile
13 4
Ġformat ted
Get Output
Ġar m
Shape s
DO UBLE
proto col
Ġmag ic
Ġalg os
Ġcre ating
smooth ed
Ġgre en
Wh en
conver ged
accept ed
mav link
Ġarti cle
Ġdelay ed
Ġtool box
=', ',
Ġhand les
cebq e
Cir cle
Leg end
ĠGRO UP
ĠLib rary
3 01
C hem
H elp
Q wt
d na
l k
m ysql
o dic
p rom
p value
t iny
u ge
v p
z fill
re current
st ab
Ġn l
ro me
Ġm utation
ma gs
Ġb x
co ol
ad v
Ġ+ \
Ġ+ ------------------------
]) -
'] /
Ġh ome
Ġde tail
red ge
10 9
pre fetch
ag b
ic ity
Ġ{} .'.
ST ATE
Ġgra vity
Ġver y
pa red
Ġexp onent
Par allel
bi ased
so ma
14 7
TE N
Ġup load
ong o
Ġover ride
Box Sizer
Ġtri m
ini ties
Mo di
Ġdet ector
Train er
Ġconver gence
writ eto
OB JECT
Ġarti fact
---------------------------------------------------------------- -----------------------------------------------+
Wa iting
Ġindividual s
Sto ck
Ġass oc
-+ ---------------------------------------------------------------------------------------------------------------+
Ġ+------------------------ -+---------------------------------------------------------------------------------------------------------------+
$ ",
) `.
/ ",
B IG
C lean
K Fold
R ob
S ky
U til
d bl
} %
¥ ½
æ Ģ
ti vely
Ġf used
Ġre lu
si zer
Ġ[ .
Ġ* ,
ap l
ĠT op
([ .
to string
log log
Ġ3 600
ĠS calar
Ġl m
Ġl v
Ġen ough
weight ing
AT TR
ĠB e
no tify
Ġcomp ile
Index er
Ġq c
Ġac count
the tic
Pro blem
AD D
LI C
Ad ditional
los ure
As sert
Ġtile s
Pri or
Pri mary
ĠDi ctionary
preprocess or
Flux s
Evalu ator
Ġhour s
Integr ation
====== =
392 157
loth Node
* '
N y
N ULL
R ound
S GD
T here
c list
d tr
p layers
w mt
ç ľĭ
st dev
ar th
en queue
de cals
Ġt n
Ġc and
di vergence
ol l
Ġd ual
set Window
is otopes
Ġg file
Ġy data
to sis
file list
Ġto ks
ep i
cs d
comp os
Ġat tach
ĠL ength
ĠL STM
Ġob tain
eta h
Ġinter actions
ĠK s
ns m
03 9
wh en
Ġmulti array
exec utable
Ġnetwork x
Object s
decode d
ifi ed
ï¼ ģ
PRO P
AA A
ores cence
Conn ected
Ġprodu ce
RES ULT
stit ution
ĠTO DO
POSI TION
Ġcai ro
" $\
G round
P V
S ys
T K
T ry
V A
f ficient
x a
re load
de viation
de tections
Ġt im
Ġi python
Ġf di
Ġp ure
ed itor
data dir
li ct
Ġw fn
set Checked
th rough
qu adrature
res olve
ax y
ax hline
sp i
---- --
Ġr sp
ist ered
mb er
ĠA uto
ĠP h
Ġse ctions
fe h
ject s
mat ology
., -
Ġget mask
trans fer
lu on
Ġimage io
',' -
ateg ies
check ed
DE SC
dot s
AL T
sk el
13 9
ai ve
Ġdoc string
chunk size
Ġ201 4
measure ments
TR AN
Ġdis abled
Ġcombin er
basic Config
Ġdetermin istic
ĠCal cul
ĠCal lable
Track er
Ġdepend encies
integr ator
Search CV
(", ")
ĠCur rent
HOR IZ
ĠSign al
1 32
2 15
B lue
C os
M n
P hase
[ ]
g mail
u k
x or
Ġ ä¹
re comm
ti ps
Ġp ur
Ġc ax
Ġc kpt
() ._
la re
Ġ[ [-
int en
Ġb f
co d
co sh
ha miltonian
get data
im in
pro cs
"" ""
Ġdf s
ĠM PI
ĠE d
ĠL anguage
11 4
back wards
Ġpass word
RO W
pri ors
multi variate
diff s
DI S
cos ine
TH OD
Se cond
Ġ... ]
Ġ'- ',
clu sion
gl ue
Result Fields
fetch es
abi li
ĠDE BUG
til de
Ġasarray X
Ġarti st
foot print
Detection ResultFields
Chann els
Sav ed
Ġappropri ate
FOL DER
B OT
D Y
G n
L B
M R
R out
e ch
q y
w m
ç İ
Ľ ´
st ick
ar bitrary
ti dx
ti zation
Ġp k
Ġp kl
Ġp server
Ġc ity
Ġre levant
dat ing
Ġ" &
ex ons
li k
Ġd nn
Ġw ar
ap or
Ġg x
Ġ_ )
Ġh ier
Ġk k
Ġu v
num erical
add Element
row d
Ġnum er
ĠM apping
"] ])
ST OP
ele ms
11 5
]] :
nan max
og ene
DE PRE
Ġq s
ble ms
ĠU sed
Ġfunction List
Ġiter s
pri m
uni q
22 22
En ter
parameter ize
Ġembed ded
IS O
Gener al
Ġ201 3
Ġcorrect ly
TRA CE
Right Type
MAG ERR
calcul ator
ĠMe an
Ġrc Params
wi re
CLAS SI
Ġinteg rate
dial ect
ĠSNP s
LON G
eder ated
ĠLeft RightType
) %
6 25
B R
M ixed
P ulse
P ORT
S ell
S AS
b t
c aching
i lo
x r
x range
on y
sel ines
Ġself test
Ġf ps
as ync
Ġre combination
Ġm av
li ance
ri se
get attribute
Ġst and
Ġst ars
ax s
sp ikes
pro files
args pec
min val
mb da
ci on
Ġ4 7
ĠR GB
bu dget
** -
rans form
ĠF lat
sub dtype
batch size
ĠL oss
Ġan om
St retch
ĠG lobal
no isy
by ref
Ġsp l
sing ular
50 8
Ġsh ader
gen et
cu les
Time Series
18 7
Ġnet cdf
Ġne cessary
eff ective
depth s
Ġqu ot
lip sis
rot tle
Ġatom ic
De ep
Ġvector izer
Max Pooling
settings Dict
serial izable
token ize
project s
Ġdis able
second ary
Ġpack ed
aggreg ation
trun c
Cre ates
conj ugate
Postcode VarName
Ġcum ulative
Pop ulation
ĠCreate Operator
DataCache Functions
Su ite
åı ¯
mig r
åĢ ĭ
BUT TON
3 99
A K
B tn
E pochs
O E
Q ubit
T angent
b h
c id
e V
f lexible
g res
v n
y p
at ment
ti tion
Ġp ha
es sian
ed y
Ġb z
Ġd df
Ġd uns
(' "
get her
up load
Ġg ps
ime ca
ĠP Y
sh ock
ĠL E
cent ered
work flow
Ex ist
ĠH z
ĠQ ueue
Ġtrans fer
EN ERGY
Model s
scalar s
TH ER
CA P
poly gons
network x
SV C
FILE NAME
Ġlearn er
conver gence
velo p
Ġfree ze
Ġwho le
Ġlarge st
ĠSim ulation
Ġslic ing
____ ____
Ġocc up
åĩ º
quilibri um
Combo Box
1 12
E ff
E urope
M argin
P layer
S quare
T ax
W ords
b la
l mp
l ng
m le
p addings
r BC
t ls
st ops
Ġt un
Ġp seudo
pe p
Ġs al
Ġm anager
co co
co very
co locate
Ġnp oints
Ġw w
res den
ĠT ABLE
=' .
ax arr
ext r
mo tif
Ġse quen
pre view
64 8
lat er
Ġ{} .
do se
Ar ch
sen ti
Ġcont ents
Ġsub class
30 8
15 2
Ġ[[ (
Un der
Ġover all
cision Tree
Ġwindow s
Ġpri ces
Ġwe ather
Not Implemented
CON ST
ij k
Des cent
SH O
conti g
GRA PH
Ġann o
elev ation
Ġregularizer s
Skip ping
CUR RENT
Ġreplic a
Ġclaw data
Ġnlt k
laci an
Unp ack
Ġensemb les
> ')
B AD
E C
K DTree
R ing
T ol
b ri
b ic
c ash
e ver
e cho
f usion
i em
p assed
å ¼
at us
en z
ti ble
Ġc ep
Ġm dot
si f
ot ypes
ad ers
ab orn
': ['
Ġg ather
Ġg auss
Ġr h
py fits
assert ListEqual
ep sg
Ġk pt
ph rase
01 9
sh adow
sc en
Ġat least
IN K
Con stants
)] ]
25 4
Ġvariable Names
Ra dio
Ġ-- -
Cl as
(* [
over flow
respon ses
97 0
sur faces
resample d
flatten ed
Not Found
let ter
cb c
ĠPro perty
Pol ynomial
Ġden ominator
ĠRE AL
Ġsepar ate
ĠAc curacy
Ġ'{} '
Ġaltern ative
ĠXY Z
Flat ten
Vi sible
) ']
+ ",
- '+
A mp
H ash
I ZE
L on
M ale
R p
S n
g is
i sel
i tion
n dtype
x corr
en ated
de mand
Ġf loor
Ġc trl
Ġre lated
ct ransport
Ġm oments
Ġb t
Ġd ct
ati l
Ġst c
ĠT wo
from function
value Changed
Ġde scriptor
ĠS h
Ġk s
cs s
dir path
Ġlog it
Ġj it
ip so
Ġz i
99 5
ec tives
Re call
check er
Ġ8 6
AR T
15 5
Pro xy
ĠU sing
ca o
19 1
Res olution
nb r
ĠAr ti
Ġsc enario
37 8
Box es
align ments
sym metric
DO C
Ġdat as
ose Version
aa aa
Group er
button s
}$ ')
imp act
Ġtran script
Ġmeasure d
way point
Ġcir cuit
vers ity
Lat tice
activ ated
Dec imal
åĪ °
Ġslic ed
Ġmar ket
ĠRandomForest Classifier
ctransport Coefficients
. {
/ "+
3 84
A Y
A da
A ME
F ONT
G iven
M an
P ers
V ocab
a ces
d j
j p
m un
q so
r nd
z ing
} `
} })
£ ¡
³ ķ
in line
on ds
an chors
Ġp val
Ġin structions
Ġin DataCacheDictionary
ge ometric
un ary
co var
Ġd W
res o
par sing
ĠĠĠĠĠĠĠĠĠĠĠĠĠĠĠĠ Ġ
test file
Ġres net
ĠS ci
line arities
ph on
ac er
tri angles
01 2
exp lor
ĠO F
be at
Ġmo le
Ġiter items
55 55
Ġnet CDF
DI CT
port s
RA IN
Ġadd ress
Ġuti lities
char acter
Ġdimension al
CA d
nu c
dis connect
Ac quisition
Ġparameter ized
Column s
Check Box
serial ization
average s
An y
Ġdraw n
As set
Mode s
TR UE
Default s
ĠCh ann
cla mp
rag ged
neighbor hood
liter al
comple ted
='-- ')
emis sion
Sw itch
Ġrem ote
9 50
A I
A sso
C am
D y
F L
F oo
I m
K nob
M ic
S pectra
_ ('
a es
a ids
d ynamics
f ault
h box
m en
m ir
n j
p th
p ure
v d
in form
re po
Ġt pick
Ġs as
Ġre tri
Ġm r
Ġm ight
Ġo e
ch l
id ity
Ġw heel
__ ')
qu ent
con sum
Ġ2 0000
Ġst andardize
om y
Ġassert Raises
size of
Ġh ps
Ġr b
ta pe
tri l
ĠP ost
sh ut
ag n
ĠR tx
map p
Ġj acob
oc ent
ĠE l
Ġpre serve
ĠL D
ĠL INE
AT OM
exp onential
sy ms
nan mean
RE EN
default dict
Ġexp anded
Par s
Ġma de
call er
13 3
13 94
19 5
struct ures
Ġph rase
Un expected
cre t
LO CAL
Ġ-------- -
Ġsc heme
poly val
Graph ics
skip If
ĠCo unt
Ġoper ators
rm sprop
expand user
Ġopt stash
Ad just
IM G
hash es
Ed itor
Rep ort
pk g
land marks
compo ser
Ġhyper params
Ġhdu list
spe arman
Ġrx n
ĠAc tivation
Samp ling
ĠPub lic
: ]),
D est
K B
K EN
M U
M ARY
S che
S cript
_ ]
_ ),
d T
f Name
h gt
i hi
p as
Ã ³
æ ²
Ġ ].
Ġ ]:
Ġ Database
at he
re order
Ġf ingerprint
lo d
lo p
Ġs pect
di rector
Ġre sampling
Ġre sized
Ġa es
]) ],
is near
cal ing
") ):
Ġe qu
to o
to file
Ġv k
Ġh kl
assert Len
Ġout s
vi a
Ġl f
Ġl range
Ġme g
ĠC I
pre ading
Ġ` ~
pi ece
ann o
Ġch ip
bin size
St ates
Ġbo otstrap
copy right
cent gal
Ġro c
check Box
ĠV iew
cli de
Ġdo ctest
Ġvar name
Ġend points
24 5
Ġtemp oral
create Variable
Ġfunction al
19 0
Ġele v
Un ion
Ġfa ctory
disp ersion
Ġqu at
Ġqu arter
TH ON
Ġdec im
Ġdec imals
Ġtri ple
ĠJ OIN
+" \
Ġseq s
tot ype
dig ital
Ġsql ite
Regex p
circ ular
}{ \
mer ger
ĠIN PUT
hem ati
Pix els
genome Type
Calcul ates
='-- ',
Cloud y
Ġpys park
Alg orithm
Ho ok
ĠFi lter
F IT
M sg
m ids
r max
y vals
å ¥½
Ġ é
st yles
Ġi de
Ġn ele
Ġf ar
pe x
lo dy
Ġ' `
Ġ' {}_
Ġin cluding
li con
Ġb kg
') ['
=' '):
ĠĠĠĠĠĠĠĠĠĠĠĠĠĠĠĠ ĠĠĠĠ
log ue
log ic
Ġh om
ĠA verage
ac count
ĠC re
01 6
Ġnum ba
sc ans
Ġlog ical
ĠE v
Di vision
Ġsp line
Ġver t
Ġstart up
Ġcheck s
bar s
ID S
dist orted
CH R
gb m
Ġdist ortion
Ġ[- ]
)+ '.
97 8
Ġcall er
Or th
arc cos
Ġparti cular
clean up
xi li
Ġsql alchemy
Ġphj Postcode
PRE FIX
Exp ression
iti zed
Tran sitions
Measure d
Diff usion
Part s
Ġdup licate
prun e
Ġrout ine
Ġke pt
HIGH EST
CAd apter
. ]]),
0 10
> %
B s
N u
R TL
g ly
n ir
p name
t lt
Ð ¾
Ġ ran
Ġ ())
re lated
Ġt ck
Ġf olds
di am
es sel
Ġre store
Ġo w
ex periments
co or
Ġw cs
par cellation
Ġy d
Ġy r
Ġr u
Ġtest data
num ba
Ġcol lision
"] /
ĠD IST
ĠF utureWarning
Ġat las
Ġal titude
ĠE num
Ġun certainty
ĠX y
St atistics
11 6
11 7
cent roids
cent rations
edge color
RE CT
ME M
Ex tract
tit les
Ġ[[ ]
19 8
Ġ| |
non linearities
Ġph en
34 5
22 2
Ġwidth s
Ġconv entions
Ġmod ules
Ġ... ")
Ġsm allest
ĠData Types
Temp lates
Ġalg orithms
compare Both
dup s
}$ '
Ġpoly gon
Ġtran sparent
Ġfl ask
pub lic
Ġlab eled
decor ator
Ġdistrib ute
Ġsto chastic
HORIZ ONT
athe red
. ).
C AN
C trl
D ONE
G r
P N
P lugin
b eg
h ess
o sition
s df
se is
de ps
Ġf la
Ġf ew
mp lot
Ġp ush
Ġre li
Ġm v
Ġo ur
ma ble
co pt
ad c
ab b
=' -',
out lier
Ġv ary
log prob
max iter
ĠS to
plot dir
mb urst
ph o
01 4
Ġz one
Ġ\ '
Ġpre processor
uti ful
ER ENCE
Con verter
AT ED
nd vi
ĠG iven
20 20
Po se
Ex teriorElement
Ġinter n
conv ention
ess board
context s
ron co
(* (
Ġup root
pack ed
mt l
LO C
Ġqu eries
Reg istry
36 3
Ġtri p
SA PT
Ġ25 00
CON V
9999 99
Ġskip na
Ġestim ates
Ġauto Generate
inu um
ĠLo oseVersion
modi fy
Ġextension s
FD RE
Parti tion
snap shot
Ġexact ly
determin istic
bro ker
electron s
ĠEle ment
SIGN AL
Ġcop ied
B I
B a
E M
E VAL
I ES
O G
V s
a q
c z
c upy
t aper
v len
x tick
è ©
re lax
st andardize
Ġn mr
Ġf names
Ġf whm
Ġp ct
Ġc rs
Ġc ifar
Ġ' &
Ġs lc
li fter
(' =
Ġis otopes
Ġst roke
': "
Ġg les
(" {}
sp d
Ġh ref
Ġr z
il ation
In dicator
ĠS ig
Ġco o
Ġpar sing
01 8
sc enario
Ġpy mp
ĠB ot
Ġcomp osite
Re quired
em y
Ġq r
Ex ists
ĠU Int
... ',
ĠEx periment
Ġmean ing
Ġapp lies
'][' _
De bug
cho lesky
ĠSt ep
INT S
Per Region
Var s
Vector ization
Scal ing
Ġ"- "
divid u
Ġdetermin ed
alk ers
So up
writ able
utc now
Vertex Array
Cir cuit
AUT O
Ve locity
NotImplemented Error
atil ity
utiful Soup
" ;
" )))
B lack
O ld
P D
Q uest
V O
d ust
e quivalent
k in
n row
r atings
t all
} ).
å ī
è ĥ½
in ception
in div
at temp
re stricted
an te
Ġs an
Ġo x
Ġo grad
un insulated
Ġ( \
(' ',
th res
and box
ab la
array like
Ġst rength
Ġx data
ĠT YPE
Ġh alo
ep h
In car
cor ded
ob server
vi sibility
ĠA R
ĠM ake
Ġ5 8
arn m
ĠI F
Ġj rec
Ġtime series
lib raries
tf record
AT OR
Ġmin s
sy mb
sen sitivity
Ġsp aces
30 7
the tas
Ġthis LogUw
18 8
ca i
19 4
pack et
alg orithms
33 7
Ġadd ing
Ġmulti ply
Plot ting
pen ame
Com mon
Ġjoin ed
regularizer s
Ġdown cast
ĠComp iler
Ġsmooth ed
Ġrepe ats
CTION S
Ġspe cs
Ġactor s
CLAS SES
hook s
Ġdon or
Jo int
ĠDis crete
flu orescence
Ġbuilt ins
WIN DOW
sit l
éĩ ĳ
ĠStop Iteration
HORIZONT AL
Incar cer
1 64
> ,
H orizontal
I MP
O V
U sage
V SA
i info
i cies
u lo
z ones
Ġ ._
on to
al one
as cade
an tial
Ġs df
Ġm arg
Ġ" :
la ve
00 6
ig ar
'] ==
Ġx size
(" ../
Ġe mit
Ġh base
Ġr vs
ta iled
ĠS hould
ĠS hot
Ġk de
Ġl g
Ġme mo
pre pared
sh allow
32 6
Ġpro posed
ĠD raw
ĠI tem
ĠF in
Ġz z
IN F
Con dition
Ġon to
ĠO range
Co mple
act s
13 6
13 8
To String
Ġlo cs
Tra de
Graph Def
Ġcall ing
ĠCo mplex
has attr
TI CAL
Color map
Dir ty
NO CC
SP ACE
game s
}$ ',
Ġpp c
Ġcombin ation
lish er
Sign als
mal n
Scale Factor
agne tic
separ ator
Prob ability
GRO UP
stock s
Place holder
Static Text
atis fied
sil ent
Ġcub es
compos ites
* ,
. """)
/ '+
: /
A ns
A PE
D rop
G rowth
M Fn
S ort
S NR
U ID
f os
i als
i ased
k ip
k means
z bin
z bins
Ð µ
re con
re boot
Ġn g
Ġn data
Ġc er
lo ve
Ġin cr
ur izer
si des
Ġo wn
un g
he mi
fi ve
int ain
Ġb el
Ġb uff
ch s
id ge
set Layout
'] )))
Ġx ray
Ġx axis
ĠT T
assert Array
il la
ĠS D
ĠS X
Ġout p
cor der
vi ctor
Ġme d
Ġme di
ĠC OL
Ġ4 6
ĠM IN
Ġ5 0000
unt u
Ġ@ _
sub test
ĠE nd
exp anded
lu ence
Ġfun cs
check points
Ġbatch ed
sq r
pa w
Ġ7 2
cf c
Ġdict s
SI TE
cli c
ĠK EY
Ġmo tif
03 5
03 6
Ġsy nc
Res hape
17 7
Ġgroup er
MP Y
)]) .
Ġad v
Ġad aptive
40 8
vs din
rot ated
27 0
cm ds
auto grad
ĠCo ord
Qt Widgets
Ġrank s
Ġab stract
take off
Ġmp p
Des cr
000000 000
Ġview s
Dimension s
Lat itude
sat ellite
Ġann ual
note book
neur on
Ġum ath
warm up
GAME SS
DEL TA
Mic ros
* [
. ):
2 0000
= :
B LOCK
L ens
M irrored
g olden
j np
k nn
al th
al location
ar ff
ar ticles
mp t
Ġp ot
ro cs
it ory
Ġs izer
Ġs ps
Ġs weep
() [:
ed om
Ġ1 30
fi len
Ġ( ((
ser if
lt est
Ġnp y
Ġd rift
ve hicle
pro fit
Ġv irtual
per form
Ġde composition
ac ces
ly ing
32 5
ĠM ath
Ġ5 7
read ers
join ed
Ġan imation
Ġ10 2
ĠB ea
ST ER
ne igh
base path
Ġcont inuous
pu ra
inal ity
Po inter
dist inct
ĠEx tra
CO MM
context manager
global s
wh at
sol id
fir m
Ġover lay
Ġconv olve
ĠPar allel
CA M
Ġext end
TO T
aw ater
Var LenFeature
oo v
sat uration
ĠMask ed
Tool bar
Ġsepar ation
bre ments
clo sing
clo uds
Ġheat map
Ġsequen cing
Ġcep hes
/ ]
9 75
A uth
B lob
F NOCC
T ip
U int
U DF
b fill
e uclid
h ps
n col
o ise
re lay
ar pe
en ing
Ġt it
Ġn obs
Ġp addings
Ġre cursive
Ġm X
Ġ1 60
un supported
ma cros
Ġd n
-- ')
ri sk
qu ick
Ġx b
([ ["
im u
col name
Ġcon nections
str at
ew m
add Action
Ġra steri
ĠD if
oc cur
iter tools
12 1
12 00
Con version
ĠG NU
Ġ(' %
ON LY
Ġsp ot
em on
50 675
Ġsub mission
ach er
act eri
estim ated
Ġmo vie
not null
UT F
Ġclass name
gpu array
char ges
dian s
45 45
sn ak
Comp are
Key Str
Fa ils
track er
network s
Ġxy text
Sub set
repe ated
Dim s
Ġ201 2
Ġcos mo
access Count
ĠReg ular
Sup port
fen Y
pur pura
denom brements
Based On
Ġradi i
ĠDim ension
bys he
DEPRE CATION
xili ary
ĠBea utifulSoup
. /(
A ge
D s
E K
E FF
N mesh
h ints
p ressed
s hear
t series
w g
in flow
Ġ= ',
Ġn ight
Ġf civec
Ġc ats
Ġs nt
def or
fi sh
fi ler
la ined
Ġb boxes
Ġb rew
co vars
co inc
is quare
Ġst n
par c
ke h
from buffer
to bj
Ġcon ditional
str ument
Ġco ver
ĠA L
Dat um
ho ods
12 4
Ġal ias
ĠE mbedding
IN V
99 4
config s
ded ent
Index es
16 8
15 9
bi om
stack level
Ġpass b
Ġpass ing
unit ary
open ing
DI SE
)/ /
Ġpa rents
ga inst
Al location
Ob servation
bit set
Ġscal er
rec id
Pre v
Pre fix
air case
change s
Inter rupt
eq s
observ ables
tran sa
Ġmonth s
product s
Dep recationWarning
cla de
Ġaggreg ator
('_ ')[
CM D
Ġhyper spy
magnitude s
ĠConfig uration
Conn ect
rout ine
ĠTrain ing
Ġrecomm ended
Ġbet ter
extern als
Ġclas sify
intrin sics
ĠShot gun
" '.
$ ")
) &
9 87
: \\
A sy
F LAG
H ot
H alf
O VER
P ASS
S i
S ome
_ [:,
d pr
f ather
g if
h ull
m AP
n ul
q x
w k
or an
al ready
ra s
Ġt or
Ġf y
an alog
Ġp dict
Ġc te
it r
di str
Ġre strict
dat er
ur is
Ġ1 11
Ġ" ('
def n
00 7
put mask
len ses
ig i
con tribution
lab ility
") ])
Ġto ok
tr g
ci de
num zbin
Ġse aborn
ĠN N
ĠI s
ĠF ake
Ġ{} ),
Ġun ion
uti ve
']) ]
no ck
Ġbo ok
fit ting
ref l
check box
em i
16 6
Ġweight ing
mon go
Ġnumber Of
Ġ9 6
Ġper c
Ġzip line
To Tensor
Res idual
ud ent
poly fit
Ġpol lant
Ġev t
Pre diction
String Var
job Status
ĠData Array
An imation
Com m
Group Box
Ġab und
Dim Coord
Ġ201 1
SV M
volume s
rest ype
Level s
AND AS
mix tures
Ġidenti fy
Ġplo idy
calcul ated
Band s
Access Count
ĠGrid SearchCV
pur ple
Ġhelper s
ĠPi peline
Ġaug ment
HW C
lig and
Ġdelt as
Measured BasedOn
Incarcer ated
0 50
2 98
G auss
M id
M ath
P late
S ide
T IT
W ater
Z oom
l asso
n points
n unique
p atient
s os
z on
{ :.
Ġ qual
ra cle
Ġn dtype
Ġn bin
Ġf ather
Ġc lock
ro g
Ġs vg
() `
si a
co pi
Ġd ki
Ġfor ecast
ri des
op tical
is co
qu id
log info
Ġop Cache
line Edit
=" |
ac ross
ĠP RE
ĠC U
ĠM LP
Ġ5 4
Ġget Value
lit tle
Ġpre tty
lamb dify
ĉĉ ĉĉ
exp lo
pos als
av oid
do ku
arr s
Ar ti
Re set
Ġver bosity
DE S
DE VICE
ear son
initial ization
14 8
pl x
util ity
ĠEx ec
number Of
Cl usters
Ġgroup ing
MA V
Ġcontext lib
Lo okup
Se par
ai lability
sw ers
Ġmu ch
ane ous
TO M
arc sec
this Temp
host s
User Warning
ĠDi stance
DB ord
ĠRE AD
ĠOp tim
Ġassu me
Jo in
FEATURE S
require ments
ivsd out
anda ID
ĠPoly gon
ĠResult s
propag ate
gri pper
FRE Q
Ġenti re
éģ İ
byshe v
DISE ASE
( (),
) ':
2 96
B LE
I np
L IT
M V
M any
P v
R ew
S pectral
V II
W ard
Y X
d cm
f ederated
g x
k a
n data
n ms
p addle
r type
r ings
v ac
v box
w ilhoit
x path
x fail
Ã £
re cur
Ġi j
le vs
Ġp ay
Ġs if
ur ther
ur lopen
Ġm app
Ġ+ '
Ġw t
res olved
up lot
Ġg v
Ġg was
=' '
Ġe a
py torch
ta ched
Ġop Provider
ac quire
ĠC ho
ĠC hem
ĠR ect
ir fs
ĠM erge
Ġpro posal
Ġlog Uw
ĠI denti
Ġkey point
fa z
Ġro ute
0000 01
use cols
16 7
AL LE
ome ter
30 5
15 6
freq str
abs orb
scri ptions
ĠK TH
Set Input
pl as
Ġno isy
current Index
Me thods
Al le
Get Value
85 6
85 9
pick led
CA SE
flux s
TO KEN
Temp late
che by
Ġlon ger
Ġvari ants
Ġsen ts
Ne ed
imp ulse
Wh ite
Ġ19 50675
Ġfollow ed
Sim ilarity
mix ture
ĠInter nal
FA ST
FA CTOR
Ġexperiment al
Cluster ing
Copy right
asso ci
sph inx
ĠMin imum
frag ments
SAMPLE S
DOW N
Ġcart esian
CRE ATE
Pl us
inform ative
8 90
C md
F lags
H YPERSPECTRAL
K L
P red
T rees
W N
a it
c dr
d rag
f on
m h
m asses
n S
t ally
w ing
x l
z order
¦ Ĥ
re gs
ar ms
Ġi dentical
Ġn ers
): ]
Ġs mu
Ġs rf
di cs
si ds
Ġ1 10
ex terior
ort ar
Ġa gainst
co al
ad aptive
Ġas k
set Data
par alleli
col lapsed
Ġcon ns
ub y
ub ric
Ġde d
Ġde scribe
Ġde tections
Ġk now
art esian
row Clust
und o
Ġ5 2
ĠD O
Ġj itter
wr iting
Ġun signed
St and
trans f
ten v
no iter
nan o
sign ificant
ref count
rc a
work sheet
AL S
Po isson
30 4
pl er
18 18
Ġtrans f
ĊĠĠĠĠĠĠĠĠĠĠĠĠĠĠĠĠĠĠĠĠĠĠĠĠĠĠĠĠĠĠĠĠĠĠĠĠĠĠĠĠĠĠĠĠĠĠĠĠĠĠĠĠĠĠĠĠ ĠĠĠĠĠĠĠĠĠĠĠĠĠĠĠ
opy thon
gener ators
Ġbin ning
67 4
Out Of
IG NO
sol ar
prop ortion
Ġcent roids
fici al
AD C
Ġuser name
ĠJ o
Ġcoun try
Trans formation
Ġli g
DA C
partition ed
dup licated
Gradient Descent
Ġcorrect ed
Ġplace holder
SM ALL
Ġwave form
Ġkw ik
ĠSet ting
vers al
ĠCategorical Dtype
combin er
MENT S
Su ccess
ĠInte gr
Asso ciation
Ġners c
* \
, ):
, )))
2 10
3 55
A ut
K S
K a
R en
S q
W RITE
Z ERO
_ {}_
b at
b lit
b link
d yn
e ma
i q
l cf
p lain
Ġ qualifiers
en codings
de scriptors
Ġn row
Ġp kg
Ġc list
Ġre order
Ġm map
Ġb q
Ġb al
ch y
ch amber
Ġd um
Ġd dd
get Value
is digit
ab ort
ke redge
ul k
file type
sp ring
Ġcon tract
os ort
Ġk v
Ġor gan
Ġl ater
ĠP df
Ġse awater
ĠM eta
for d
64 5
iter values
Ġpo sitives
reg istration
exp licit
trans Axes
lob ber
Ġbo ard
',' ')
Ġbatch size
14 4
14 5
be havior
Ġ9 5
Ġper turb
19 6
rank s
To o
ron s
learn er
connect or
65 7
ld nn
90 7
ĠCon text
dic ators
('% .
Ġspecifi es
SC I
Date time
Date Time
ish er
Ġhead s
Ġcy linder
ND Array
Ġparti tions
Ġ19 2
Ġæ ľ
Ġdesc r
phot on
ket ch
,:, :,:]
Ġdepend s
Ġvisual ize
Station Code
HEAD ER
ĠKer as
Ġattemp t
ĠStation Code
Primary HDU
Ã£ o
" ')
D ark
E ach
F p
G ather
H EN
J son
M ore
R D
S elf
T orch
U TE
W M
Y S
a e
d as
f prop
k c
k ine
m sp
n ll
t ank
Ġ ht
re ts
ar ma
de ath
Ġt rees
Ġi id
Ġi ll
Ġf val
Ġf path
Ġp sd
Ġc tr
Ġs ound
Ġs peaker
Ġre cur
Ġm dp
un safe
Ġ" ',
ort ex
id er
-- ',
Ġw n
th es
qu x
ĠĠĠĠĠĠĠĠĠĠĠĠĠĠĠĠ ĠĠĠĠĠ
Ġy aw
([ ]))
Ġ_ :
Ġv sd
Ġdata file
time zone
ta ges
rand range
ren ti
ĠC H
ĠD IS
start time
Ġfile list
Ġmin length
inter leave
ĠO UT
}, {
ĠW ith
ĠW ord
cent ric
DE T
reshape d
Pro ps
return ed
TE M
ĠIn valid
05 5
60 8
200 8
Gra b
67 0
sol n
Ġ", ".
proj s
Up dated
Ġbi jector
sym metri
Pre dictions
Ġpri v
ced ure
ites pace
Com bin
Float Tensor
Ġmag Data
VER TICAL
Tree Node
Arg uments
Ġå ı
Ġtick store
bus iness
Ġdetermin es
Ġchainer x
Poly Data
erm ion
blk nos
ĠTo ol
armon ics
bx tx
pul ses
ĠDet ection
atified KFold
åľ ¨
* ')
- ",
/ -
> (
C ER
F our
S ched
S weep
V BoxLayout
a de
b ag
d temp
d uns
u ary
x gb
z d
Ġ servo
in version
or o
or r
re aded
st reams
al len
Ġi c
an c
Ġp opt
Ġp mf
Ġp ileup
Ġp aper
it able
Ġin files
ed Colormap
un link
Ġa m
set tle
is na
qu aternion
ath y
Ġg old
sp read
Ġv v
Ġcon j
Ġh its
ĠS ER
ĠS GD
Ġout File
Ġax arr
Ġtf ds
ĠC ross
ĠC amera
sh ard
eri v
comp atibility
oc ube
Ġ{} :
age d
000 2
write able
Ġob tained
split lines
den sities
do y
Ar c
50 5
ang ing
oth ing
OR CA
18 9
TE NSOR
ĊĠĠĠĠĠĠĠĠĠĠĠĠĠĠĠĠĠĠĠĠĠĠĠĠĠĠĠĠĠĠĠĠĠĠĠĠĠĠĠĠĠĠĠĠĠĠĠĠĠĠĠĠĠĠĠĠ ĠĠĠĠĠĠĠĠ
debug ging
PE C
Res o
04 5
dec im
Un ary
ou ght
evalu ations
27 3
Ġtri angles
gl m
clip ped
aw n
quanti les
BC R
extract ed
Ġdrop ped
Ġcr iteria
Ġæ ī
MPLE X
Ġkw arg
analy zer
Coun try
ĠUse ful
Gen eric
eig vals
Select ed
Ġrece iver
Vari ant
ĠTra ck
Ġgui de
pay load
Ġsat ellite
CHAN N
individual s
âĢķâĢķâĢķâĢķ âĢķâĢķâĢķâĢķ
asi ble
intern als
cod ons
8 000
A ug
A meri
C at
G ot
L and
M acro
O cc
U i
Y es
] _
_ ")
c is
c umprod
d ct
f z
j ax
n av
s ad
y o
y tes
å ģ
Ġ Valid
Ġ archive
re actions
st c
en vs
le igh
Ġf wd
Ġf cn
mp v
Ġs b
di cates
el lo
la mp
Ġ[ /]
int v
Ġb old
Ġd tr
ad apt
ran e
Ġdef ining
get Num
') ",
qu adratic
and l
", '
Ġex ceed
im save
Ġv oid
Ġh uman
Ġ: :-
py eq
assert Items
ĠS ur
Ġu df
ĠA v
gra de
ph ore
ac q
ĠC G
comp uting
Ġlog dir
Ġz max
batch ed
Ġtra verse
old ing
99 8
nd index
ĠG r
ak es
LE T
do ctag
Test With
File Dialog
Ex pr
ĠH as
tit an
Ġarg parser
SI TY
bi linear
cli ents
top osort
18 5
Ġtemp lates
Bo olean
Ġcor rections
Tensor Flow
To Fit
redu cer
Size Policy
Ġne ighbour
dec lare
Ġbu y
Out er
Ġqu ote
Fe at
ai re
97 9
sec utive
mk tz
gl Tex
39 1
lb code
repe titions
Ġinclude s
Ġap pear
Ġsi mp
Ġli ms
tran script
Gener ating
Ġmonth ly
Ġalign ments
New PostcodeVarName
Ġæ Ķ¹
aut omatic
roid b
BO X
perm ute
ĠEn vironment
Ġanaly ze
Ġaz imuth
ĠAb stract
leak y
NORM AL
uz zy
) |
) '],
* --
0 20
2 14
4 75
A F
D Matrix
D ummy
F M
P ad
P AN
P DF
Q Widget
S G
T s
U D
V OL
_ ')
b orrow
c bar
j ava
j acob
l la
l ore
n iter
n partitions
p mt
s outh
u ed
de conv
ti ties
Ġf ir
as semb
an at
Ġp bar
ro pping
Ġs age
si mplex
Ġa pl
ck e
Ġst ick
am ilt
ĠT ree
Ġv z
Ġr dm
Ġr mse
test case
Ġres cale
ari zed
ĠS O
ĠS c
ob serve
ĠP RO
ĠC ir
Ġ4 000
ir f
Ġpro f
ĠF S
ĠF FT
Ġindex ers
Ġtra de
ĠL ambda
Ġpy qt
ĠG ot
stri ded
flow s
temp o
Ġsub j
Ġsub tract
Ġ8 000
Ġq a
ĠH E
Ġinter mediate
io u
multi cam
19 3
diff usion
To Type
Me dian
Ġgroup names
34 7
disp lacement
Ele m
Ġnb r
Comp osite
control led
Ac cording
fft n
Ġhist o
Ġrot ated
cri tical
Min us
ĠAt tr
Item A
Run s
br ush
Ġsym metric
imp licit
Ġsegment ation
Ġselect or
board Interrupt
ĠCh unk
ĠLo ok
ĠCl uster
Ġeff ective
Categorical Column
push Button
wiki pedia
ven ance
Program ming
Ġnote book
Av ailable
IB R
ĠMod ule
Percent age
forecast s
vary ing
Br ush
Click ed
EPOCH S
Ġfrozen set
assertIsNot None
ĠLa zy
setWindow Title
Arch ive
ĠChann el
hemati cal
']['_ '.
uby te
According ToType
) ``
6 02
B BCR
E log
H G
H idden
O racle
Q C
Q UE
R ST
S ync
b row
h si
x d
y tick
{ {
ç »
Ġ Values
at las
re levant
de ts
me ter
le m
Ġp ly
Ġp ress
Ġp sf
Ġc lev
di d
ct ave
Ġm om
Ġm os
Ġ" ../
Ġ( <
Ġa id
Ġdef ines
res ume
Ġis o
am i
(" >
om ic
to csr
Ġh al
Ġtest case
test BCast
ub ic
max val
tra its
Ġra g
ĠP ass
ĠC all
ĠC OR
ctor s
pt p
ator y
ĠM ag
[:, -
ĠF requency
ho les
ĠL oc
ĠL IM
lock ed
St g
ps ser
ĠG ui
ual ity
save z
og onal
Ġsh own
of s
order ing
File Path
100 1
15 8
cli matology
Ġtemp orary
stra ight
CO RE
leg ate
mt p
cos ity
Ġfunc name
Ġqu adrature
Ġgrid spec
convert ed
95 7
27 7
UL AR
build ing
Inter nal
ĠData Set
mk dtemp
cp us
Ġcy thon
Ġscalar s
Ġevalu ated
Ġcommand s
("/ ")
gap s
Be fore
ĠPre dict
Ġconver ged
Track able
REF ERENCE
Mag ic
OB S
Vari ance
Main Window
hazard lib
ĠStandard Scaler
manif old
Ġdele ted
åį ĸ
/ *.
2 37
B l
B roadcast
D ynamic
F ULL
I SE
L H
R V
R ele
R HF
i map
k nots
m om
s ch
s nd
s jm
t start
t aps
v oc
w ts
Ġ= '
re et
Ġt vec
Ġf max
Ġf ly
Ġf aster
Ġc one
ut ral
Ġs par
Ġs gd
Ġre ps
un signed
la minate
co add
co variances
Ġreturn ing
type codes
'] },
Ġg f
Ġg ender
to ks
sp rite
col lision
time it
Ġh stack
str ategies
ĠS ky
Ġk nots
fo v
Ġtf d
model ing
format ted
ĠN y
Ġen richment
64 01
ho g
lat lon
iter ators
IN SER
ĠB ack
Ġ(' -
Co arse
25 7
Ġcomp utes
ĠW ork
Ġsub graph
ME TA
mod ynamic
return code
serv ative
atom name
mis mo
idat in
Ġdt dv
Al low
vs dout
hy brid
Ġind ptr
Ġsu ite
LI MIT
DO M
By Name
Ġ'{ :.
assertAllClose AccordingToType
basis set
floor div
aris ons
large st
Ġhash lib
SY M
ĠTrans former
SR C
STR U
Ġca use
Ġè £¡
slic ing
boost er
cart esian
hyp othesis
Ġintegr al
spike train
fall back
Ġconsist ency
Ġelect rode
^^ ^^
marg inal
Pow Gate
priv ate
ĠHttp Response
ĠMark ov
Asy Padding
! \
+ ")
, )],
C AR
C LO
F AL
L IGHT
N L
N elec
Q PushButton
R ule
S cores
W x
b df
c itation
d stack
f pr
h ing
i cons
k top
m erate
n mo
| \
ı é
re open
ra at
Ġt range
Ġt pu
Ġn orth
ro om
ge bra
Ġre cons
ur se
ur fd
ol tz
he avy
data points
int ra
Ġe pi
Ġe mail
log x
Ġr w
ext ents
In ts
In ner
vi b
ĠA NY
ĠP os
ls q
ĠR el
ĠR et
ĠM D
ĠF OR
iter keys
IN CT
ry stal
new ick
ĠW fit
Di rection
ont ant
oth ers
ĠH y
Ġby e
csv file
serv os
Ġzip file
multi label
Ġframe work
predict ors
root dir
uto ol
80 9
65 9
su es
sin ce
Ġgrid s
real ign
Text Vectorization
Ġerr s
sym m
cr iteria
Ac cept
gu ard
Ġ200 7
Not e
ero v
Cal ibration
desc ent
Ġbuild ing
SH APE
Ġcalcul ations
Ġphj DF
vg m
Ġfast a
medi a
Ġquanti le
Del ay
Ġdisc ard
ĠGra m
Initial ize
gd al
Rel ative
ĠTh read
ĠQu anti
contiguous array
Ġincre ase
ĠABC Series
ĠCom mon
pay off
Predict or
ĠSV C
INTER VAL
nat ural
ĠHe at
Ġdescri b
432 6
ÃŃ mismo
oh lc
ĠEle ments
Ġclo sing
ANG LE
ĠDistri bution
Specifi c
Ġneur ons
) '),
, :].
= __
B us
D uration
D river
H H
J AN
P ANDAS
Q MessageBox
S ep
b ash
c ann
f b
p vals
p server
p term
u ck
y md
z m
re construction
Ġt em
as contiguousarray
Ġp j
lo geta
Ġin stanti
di ce
() )),
Ġ" >
he a
ex cluded
Ġ( .
Ġ[ ["
], [-
Ġd w
__ ")
th umb
') ")
is subdtype
Ġ2 20
Ġst able
Ġg lyph
(" ./
om er
Ġy size
sp s
pro posal
Ġr vals
test er
test data
plot ted
ĠA ctor
Ġl ut
ĠC ustom
da mp
Val idator
ĠR untimeWarning
ĠF E
sub cat
ĠE mpty
Ġfile type
Ġan chors
Ġpy mc
Ġfloat ing
ĠG O
sy phi
20 48
Ġtry ing
amp ler
ĠH T
Ġcom mit
55 5
Ġload s
PE D
dec imals
Ġbu g
22 7
Ġad apter
En semble
94 7
Ġge ometries
cr it
ank ing
Ġold AccessCount
classifi ers
Ġversion s
aw are
Ġdraw ing
sd c
request ed
OP TIONS
ĠNum eric
gon orr
Do A
Ġconstra ined
Ġrepe ated
Boundary Conditions
tax a
Ġtimestamp s
ĠGener ate
3333 3333
Cent ers
ĠFI LE
ivariate Spline
Ġbyte order
Cy cle
life time
dele ted
pet al
xls x
ĠCy thon
ĠPri or
monkey patch
ĠFO REST
gau ge
arcs in
Working DF
CLASSI FI
ĠassertRaises Regexp
Ġcer tain
ĠCU DA
VII RS
syphi lis
gonorr hea
. ]]
3 13
4 50
6 27
A z
C rop
Q Frame
S mooth
S UP
b undle
c ator
f dd
f ollow
g of
l map
æ ³ķ
Ġi var
me chanism
as a
an ced
Ġp ul
Ġc ash
it z
Ġs hear
)) /(
ot l
ha p
ha ir
con ns
arg parse
po les
po ols
par as
ĠT ry
et es
Ċĉ ĠĠĠĠĠĠĠ
Ġ_ ):
Ġdi rector
Ġr atings
ass oc
str al
Ġ3 50
ff ff
Ġde ad
ĠS pecies
ci a
ms ms
ĠA da
ĠA lg
tri angular
loc us
ĠF ixed
mean Grain
ĠE RR
Ġun expected
Ġle aves
ST O
nan min
Ġro bust
Ġq dtype
Ġq oi
Ex pon
Ġcheck ed
Ġend og
multi class
19 7
coun tered
En tries
Ġgraph ics
TH READ
87 8
exec utor
Ġatom set
bit map
Ġdoc uments
skip na
MO D
rm se
mk ldnn
TO L
CON D
Ġtask Buffer
Com ment
Ġchar s
Spec ify
Ġau c
Ġgl ue
Ġ40 96
VAL UES
Ġevalu ations
={} ".
Ġvis ited
PAR TIC
Ġrep lay
Sta mp
ĠDE C
ĠLo cal
Ġdirect ed
Gre en
Ġft mc
ĠReg ression
Ġapprox imate
Ġcast ing
enc il
Exec ute
Beam data
Ġroll ing
ĠDel ta
Ġclassifi ers
Quest ion
) "),
/ ~
2 99
; "
C PL
D a
F ac
G F
G ain
O ME
O US
S ORT
W ITH
d H
g host
h b
i bs
m grid
n T
n coef
o grad
p cd
s om
t params
t une
Ð ½
æ Ķ¹
se cret
re map
st a
er atures
ra f
Ġt ight
me ters
Ġf w
Ġp atterns
Ġc od
di lations
Ġre sample
ct w
la f
Ġa mb
Ġa gain
Ġd ark
), "
get mask
ab out
(" ",
ĠT HE
Ġe j
lin d
lin ical
file Path
Ġv cf
Ġh ypes
Ġdi ction
Ġdi ameter
il ls
ĠS pec
Ġu x
ĠA ggreg
Ġ[] ;
ĠD M
ĠI C
Ġj ump
start ed
St ress
no data
Ġbo ost
av id
Ġstart ed
ave is
ĠK Means
Set s
ml perf
meta class
14 9
item getter
can als
na il
enti fic
DI SP
Ġha pp
Ġcan v
Ch rom
34 8
Ġbase s
Ġcoord ination
Ġdiff s
strip ped
45 6
Se e
Ġ'_ '.
dr ug
Ġge op
Key points
MO DU
soft plus
Ġprob ably
Ġexec utor
Normal ized
By te
Ġdown sample
Mod ules
pg m
Ġsecond ary
Ġsettings Dict
Ġrect s
centi les
Wor ker
Dense Layer
tur ing
samp s
bet as
Back end
POINT ER
Ġscri pts
HO ST
Te am
episode s
hom o
Wa it
Ġaccept ed
hyp ot
assertNot In
Boost ing
ĠTH EN
Deg ree
Ġortho gonal
GetOutput Port
Dest roy
Division Error
uris diction
nock out
) =
) ^
* ((
A lt
C r
D ex
G ap
G File
J urisdiction
M arker
N n
P u
P ts
S OL
W HI
] /(
c dt
d ts
g all
l un
r dt
r na
v apor
å ķ
Ġ ]))
in a
re view
re fno
ra st
me lt
Ġf v
ut ures
', '.
Ġo d
est yles
ha mming
Ġw ide
qu ared
con ditional
'] )),
am ent
ĠT ask
ĠT imer
ĠT EXT
ver sible
ver aging
=' ./
Ġimport lib
cal ed
Ġex clusive
time max
---- ---
ure n
sa f
ĠS QL
bo dies
Ġme th
ĠC lient
Ġth ing
Ġth rew
Ġ` (
ast ropy
Ġ[] }
pi cal
ĠF D
ĠF s
ĠF ast
12 6
'], '
Ġan ce
St orage
Ġ6 6
20 4
Ġ8 4
15 4
Set Value
ns merger
RO T
doc strings
Ġreg ressor
spec im
60 7
RA DI
17 8
Ġdt ree
Ġdist orted
84 5
Ġid ent
ĠPar am
Sp acer
Ġsc r
dis abled
Ġpi ece
Ġfield names
+" _
SP AR
Ġ"" ")
repe ats
tab ular
tract s
gal data
gray scale
Des ktop
IL ITY
Ġbl ur
Ġcalcul ating
Ġinitializer s
Ġpack et
va FontSize
Ġproject ed
rev en
æľ ¬
Ori ent
Ġfr ont
asc time
every thing
CU DNN
ĠBy tes
NU MPY
chem ical
Aggreg ator
STAT US
Ġpub lish
Ġho ok
Au x
Sto kes
avigation Toolbar
ura ble
mot ors
ĠSoft ware
588 235
communic ate
velop ment
ĠArti fact
Orth ogonal
MeasuredBasedOn Jurisdiction
2 67
B G
E mbed
G u
H MM
L x
N s
P e
P x
T p
V GG
d rift
n ch
r ated
s par
s corer
t el
t pr
v f
w vl
y stem
| |
in ction
st ro
de ad
Ġi zip
Ġp u
Ġp in
Ġp an
Ġc nc
Ġc KDTree
di hedral
Ġre bin
Ġre cent
() ==
Ġm ig
Ġ( ?
Ġb len
Ġel l
Ġnot hing
Ġv oxels
time min
In strument
tra jectories
ist art
Ġse cs
sh o
Ġth in
Ġ5 9
64 00
Ġint en
']) ):
ĠG o
copy to
20 5
20 6
ĠW arning
ĠW ITH
ĠW HEN
Index ing
RE SS
Ġro is
obj val
DE D
Ġsub arr
ĠH igh
ĠH YPERSPECTRAL
ĠU S
SI LON
net s
ID DEN
dist ort
my op
200 2
mis s
mis match
gpu a
22 1
Get Point
mi stry
Ġconv ention
cut s
)+ ".
IO Error
26 8
,:] =
termin ate
\\ \
Net CDF
branch es
Ġ201 7
Ġ201 9
Ġsen sitivity
Ġtoken ize
CL UDE
Ġte ams
Meta Data
Ġfo cal
calib rate
Tri als
Ġrepe titions
Lim its
Tr uth
lex sort
00000000 000000
xm ltag
Ori gin
Ġincre asing
Sele ctor
FLO W
sph erical
Uni que
ĠIM AGE
ĠDummy MetadataColumn
emis sions
Mu sic
members hip
Sha red
%%%% %%%%
Ġfre edom
allt ypes
Ġflo py
Ġtod ay
Ġ'.. ',
Token izer
Ġsched ule
çİ ĩ
ogene ous
Radio Button
Ans wer
ĠRegular Grid
) !=
2 32
5 0000
A O
A ffine
B AR
D n
D t
K ER
M c
N IR
P LOT
Q Color
T uples
X s
c csd
h armonic
i id
n od
r at
s mp
t ro
v gg
w heel
x FF
ã Ĥ
å °±
Ġ edit
Ġ utool
in come
st all
st ations
de lim
ro bust
Ġin version
Ġin dicate
di rec
', )
co ut
Ġd amp
Ġw space
[' %
Ġst ill
Ġst gen
Ġel lipsoid
(" __
=' +',
Ġex pert
ax ial
list ener
Ġv stack
Ġdi alog
Ġr inex
app lied
ub er
ĠS how
ĠS earch
Ġop acity
fe v
Ġdf t
Ġdf lt
ag u
ĠR ate
Ġpro te
Ġj peg
-------- --
iter ate
sub space
12 9
Ġfi len
Ġun certainties
Ġpy tz
']) /
99 7
lter n
pos sibly
group ing
nan sum
ĠW r
sen ce
work s
Ex act
15 00
ical ly
be is
ĠIn formation
mark ov
Ġtable au
17 6
22 3
Ġgen otype
Ġconv olutional
sup press
]+ =
sn cl
Ġ'/ ',
Comp uting
IO U
Ġnon zero
96 9
post gres
Ġang ular
MO T
conf lict
('- ')[
Ġsi mplex
partition er
Ġå ¾
Ġrep laced
Ġsn ip
instr uments
ĠIN TO
Lat ex
SD R
Initial izer
ĠTrans fer
Match es
border s
Ġapprox imation
Volume s
ĠOp TreeNode
Ġef ficiency
chem qt
**************** ****************
Ġsheet name
PIX EL
marg ins
Boundaries Array
Mostra Vel
Ġrecogn ized
Ġplant cv
ĠFlat ten
spearman r
' >
' [
( $
( ','
/ >
3 94
< <
A pi
B its
D TYPES
P AM
P lane
R x
S ame
T W
] {
b ench
c rowd
e al
f type
g row
i ser
i Job
i Mol
m ate
m lab
w ap
z r
£ éĩĳ
å ¿
Ġ randint
Ł ¥
in ations
or ot
Ġt on
Ġt ur
pe cs
di scriminator
Ġre start
Ġre stricted
dat ory
Ġm da
Ġ" $
Ġ" ."
ce eded
def initions
fi co
Ġ[ ]).
Ġd lg
(' ../../
]) /(
') ":
ab ol
up il
Ġx g
ĠT fidf
ver al
shape d
to s
log sumexp
Ġh h
Ġtest BCast
py chemqt
sa c
tra verse
tra cer
ĠS park
Ġu float
Ġco erce
ĠA ng
ĠA bs
Ġl k
ac tic
Ġat trib
Ġpy ro
']) [
ĠB u
20 8
ĠW ood
Ġfe ats
pec tively
50 9
Ġq q
Ġopen quake
lic ations
ĠEx pected
CO DE
Ġiter ate
na o
annot ated
du ction
Res Net
seg m
:` (
factor ies
element Maps
tag ged
Ġar bitrary
84 9
66 8
go v
95 8
85 4
87 9
Ac tivity
Ġpri ors
Fa ke
SC AN
47 0
Ġinterpol ated
Ġsort ing
ĠKey boardInterrupt
Ġhe mi
feed back
Ġpoly gons
IC AL
cip al
Sig moid
CM C
ĠQu ant
fend s
LINE AR
kn ife
Redu ction
Aggreg ation
ĠBin ary
ä½ £éĩĳ
ali ases
Ġresi dues
Ġce il
autos cale
increment al
subgraph VertexArray
Modi fied
NotFound Error
mapp ings
Ġrag ged
' ",
2 19
3 88
D om
E MA
J an
S lot
S rc
S lope
T w
Z Z
_ {}".
b k
b v
d lm
k ing
n bins
n vs
s List
w arg
ç Ľ
Ġt g
Ġt sc
Ġt fidf
me mo
Ġn bins
Ġf b
an swers
Ġp asses
ro ved
Ġin y
Ġs ct
Ġs un
Ġs py
Ġs fr
el ines
Ġre ach
Ġ1 25
Ġ( {}
Ġa data
Ġb orrow
co upling
(' .',
Ġ* (
up s
': {'
Ġg df
=' .',
Ġe os
col lapse
Ġcon crete
Ġh ighest
Ġr ating
ure r
Ġto gether
il le
In ception
ĠS can
min im
Ġk i
Ġl yr
Ġtf t
ph ys
pre processed
ject a
mat lab
Ġ` _
lit ch
image Win
ĠL R
Ġpy g
inter faces
no logy
Ġon set
func name
sen ter
check ing
50 4
ME N
15 3
Ġcheck points
ĠQ U
ĠU I
ĠK alman
Array s
so il
TE MP
Ġnorm als
sk i
xy y
60 4
sent inel
17 9
Ġbu dget
Ġwr iting
embed ded
En tities
Ġdimension ality
draw down
UN IT
pick er
37 7
nu cle
Ġspecifi cation
cap tion
mass bins
Sh uffle
host name
ĠFor ward
}. {
Ġfin der
Des ign
component Info
Ġimp lied
Ġbl ank
ĠNum Py
Ġcoef s
Ġå °±
Ġpp m
HI P
Ġray s
QU AL
TER M
TER N
ĠReg ion
WE B
åĪ Ĩ
Has Props
Calcul ating
PA CK
discount ed
ĠUser Warning
å¾ Į
Ġther modynamic
567 89
Ġellip se
Serialize File
Serialize ToString
RESULT S
Ġmav util
GradientDescent Optimizer
assertItems Equal
Ġstick y
ıé ¡Į
! ='
2 64
E OS
G ids
H ASH
I A
J UN
O A
T M
T X
W eb
W hether
W ARD
] !=
` ),
k ow
n q
n cl
u u
x var
or ies
er g
de comp
de serialize
le av
Ġf urther
an imate
Ġp atience
Ġc redentials
Ġ' ?
Ġ' ').
di scre
dat at
Ġm ul
si p
un til
he art
Ġa ve
Ġb d
co phore
Ġd entry
), -
(' (
__ '
00 9
get Data
Ġ== >
Ġst em
ĠT ick
=' ''
cal ipso
Ġe uclidean
log level
Ġcon centration
Ġtest file
str ong
os a
sa y
tr s
In sert
ĠS cale
ĠS kip
Ġout Data
cor rections
Ġco or
Ġco arse
vi er
vi es
cs Dict
ren sor
Ġcol span
ĠP R
ĠC ar
pre dicate
fe rent
eri e
mat gen
ĠM emory
ĠM oran
ĠN P
jo ints
Ġpro vides
lib spud
Ġnew data
ber ta
Ġpy wrap
rep rise
Ġ6 1
son g
Test Base
Ġstart fend
Ġq so
File List
File Writer
List s
ĠV I
ĠV isual
ĠU SE
ĠK TF
conv s
meta features
rol led
All Windows
Ġha zard
Ġph oto
Lay ers
Al chemy
Ġadd r
Ġapp lication
mi di
84 7
Ġ", "
]+ ='
hy sical
rec ID
Ġsu c
UR ATION
ĠTime Distributed
44 44
Int ensity
Ġsol ar
Dir s
Ad j
request s
mem map
Ġsym metri
UP DATE
^{ \
lam mps
Ġbad s
ĠDe termin
Track ing
three dee
HO ME
ĠOR DER
ĠABC Meta
Exec ution
Ġmagnitude s
Ġactiv ate
æĸ ¹
Grain RNA
FUN C
Ġalle les
Interpol ator
Ġrelation ship
mj ds
defor mable
*-- *--
Coarse GrainRNA
0 75
A MPLE
B ayesian
D Layer
J itter
L W
L ife
M ay
P an
P ay
S U
S olution
] _.
b right
c ue
f und
g df
h st
l strip
m one
m sprime
n A
n bounds
o e
p cs
s lab
t di
w ig
w et
x vals
} `.
æ Ĭ
Ġ ä¸į
in cr
ar ri
Ġi con
Ġf len
Ġf ancy
ro des
it a
Ġre named
un ction
un ay
Ġ" ))
Ġ0 1
Ġ0 2
Ġb la
Ġb ind
Ġw ra
Ġw eek
(' $\
con cn
ab br
om d
Ġimport ant
Ġe mp
Ġv f
Ġh m
Ġr def
tr t
der ive
Ġres ources
Ġres pectively
ĠS yn
[: ],
Ġl np
fo cc
Ġtf p
us db
ĠP rint
sh aders
Ġth row
Ġlog istic
Ġj upyter
Ġmax s
ST EPS
config urations
tensor dot
20 7
Ġall close
cli pping
ĠK DTree
02 7
Ġpath lib
radi ents
19 04
Ġframe on
tmp file
Me mb
md c
17 4
Ġit c
65 8
su ally
over laps
Ġad am
37 4
comb s
legend re
Ġsq r
Fi lt
Ġext ents
Inter active
aw iki
],[ ],[
xt c
('/ ')
VER G
desc end
Ġdisplay ed
Dis crete
Des c
Scal ed
spectrum Plot
wav es
Ġutil ity
Ġelem wise
Ġserial ization
break s
ĠNa T
SER VER
eigen values
Long Tensor
Ġ({ })
dur ations
Sup er
dash ed
NET CDF
ffic ult
Ġnat ural
ĠOption Parser
twe ets
(': ')[
ĠZero DivisionError
Ġelev ation
Ġfla vor
TOT AL
IGNO RE
sho ulder
. )))
6 55
; '
; ")
C ard
C lip
L arge
N ER
N Locator
R ich
S pecies
U ST
U OUS
Y l
b sp
b ids
e i
e igh
h anning
n samples
p asses
p ores
p unct
q oi
r split
å ¯
å Ń
Ġ ]),
Ġ 9999
al ist
al ies
Ġi range
Ġf fi
mp ath
Ġp or
Ġc igar
ut ter
di f
Ġre ci
Ġm en
Ġm ach
un expected
ch isquare
co ast
ha ust
]) })
ig th
con nectivity
Ġex ceptions
Ġex periments
out name
([ _
label led
Ġv sin
Ġr max
ĠS ession
Data Source
=" .
ĠP I
ĠP NT
ĠC D
sh arpe
read able
Ġpre dicate
Ġle ading
Ġch k
Ġcl ust
ne u
ne y
flow ModelIndex
base dir
Ġlabel led
Re action
obj ectives
Ġplot data
Ġplot ter
Ġsh ard
ME TRI
ME THOD
ĠV ari
02 4
02 6
ĠRe ference
AN K
Ġiter field
spec ify
uni verses
Ġlo d
Ġit self
MA PP
Ġgen sim
colle ctive
sol vent
cut out
AS K
Ġback prop
fs l
Ġdate util
Ġ---- --
Check VarName
COL S
Ġnetwork s
Ġkeep dim
ĠData Loader
rb f
Ver tical
lb ls
ĊĠĠĠĠĠĠĠĠĠĠĠĠĠĠĠĠĠĠĠĠĠĠĠĠĠĠĠĠĠĠĠĠĠĠĠĠĠĠĠĠĠĠĠĠĠĠĠĠĠĠĠĠĠĠĠĠĠĠĠĠĠĠĠĠĠĠĠĠĠĠĠĠ ĠĠĠĠĠĠĠĠĠĠĠĠĠĠĠĠĠĠĠĠĠĠĠĠĠĠĠĠĠĠĠĠ
Ġvari ous
Ġcost s
Ġfra g
aff inities
Ġsen se
Pos n
Ġequal ity
delay s
Ġcalcul ates
Sol ar
RGB A
Top ology
ĠAd ditional
hold ing
mach ines
Uni verse
ĠSy mbol
Aggreg ate
ĠSV M
ÂłÂł ÂłÂł
Ġcar bon
Go al
tre atment
Ġdescri bed
DIST ANCE
ĠStruct ure
Che etah
Ġextre me
Pers on
INSER T
nvs mi
Ġvsin i
) [:-
, ...
- "
2 16
= ((
A VE
C W
D on
D eriv
F CI
G CS
I FT
L V
N HWC
P Q
P NG
S at
W H
b are
b kg
c red
c ameras
f lt
k alman
n gram
o mp
q f
y l
y pos
è ¯
é Ŀ
on ed
Ġt iny
le gs
ro ken
Ġin ertia
dat sp
Ġo y
Ġ" @
he mer
def un
Ġ( *.
ad os
Ġas sets
get refcount
par ms
Ġy c
Ġe mission
to f
import s
Ġh ot
Ġto gg
py r
ise ct
atch es
Ġde que
plot ter
Ġax e
ĠC ut
ĠC lothNode
ĠR aw
Ġbe g
ĠM is
for gi
Ġlog p
ho use
Ġz f
Ġnew line
sig mas
state Changed
ĠX X
Ġval idator
Ġmin us
ix o
Ġcomp act
Ġim f
level name
Ġ7 4
Par a
SE M
au chy
act u
atter y
transform ers
Ġalpha bet
rank ing
Ġtext wrap
alg os
17 60
dec re
Op Test
vs many
Ġdist inct
Tra cer
90 90
Sp here
36 36
prefix es
Ġbi directional
Ġstruct uring
sm art
diag s
Ġsu ggest
At temp
Ġloc us
26 1
ular ity
Add Spacer
sampl erate
ĠAt tention
Sh ader
Ġsi mpli
:% .
OP EN
auth ors
marker size
AM MA
NE W
mal i
deriv atives
Ġassign ment
phot ometry
alo gs
separ ated
Ġconver ge
So cket
(""" \
Ġunder lying
Ġdig ital
Ġxm ltag
Ġhost ed
ortho gonal
ĠFe atures
iss ue
Ġadjust ed
Make Ndarray
orbit al
ĠSp atial
Ġaltern ate
Monitor ing
dispatch er
!!!! !!!!
Bit map
Ġdemo graphy
Rd Bu
histor ical
Ġintr in
pie ces
Trajectory File
kur t
Named TemporaryFile
ĠVAL UES
Sche me
Ġtit les
titan ic
Ġsimp ly
laf ond
/ {}/
0 32
2 33
3 95
8 75
C pu
D f
D en
D up
E arth
G M
N or
O I
S erie
V is
_ *
b el
c wmt
d cd
k h
k Motor
n me
r k
z lim
} [
å İ
Ġ Î
Ġ velo
st uff
en go
Ġn od
Ġn ir
Ġf uel
Ġp ressed
Ġc rops
Ġs ar
di et
li preading
ot ransform
Ġb am
Ġw b
(' ..
__ ['
th en
th rottle
Ġ2 03
am ble
Ġg pd
(" $
out come
out comes
ĠĠĠĠĠĠĠĠĠĠĠĠĠĠĠĠ ĠĠĠĠĠĠĠ
ax ies
Ġe og
Ġe cho
import ance
sp c
sp iral
ds k
Ġh over
od ot
index b
atch er
sa v
max size
ĠS S
ĠS al
ĠS eq
Ġk ws
te ams
]. __
ĠA gg
ind u
eri ods
jo co
Ġpro cedure
Ġint bitset
Con c
000 5
ĠB B
lu es
Ġ6 3
Ġ6 8
20 9
group node
Ġcomp s
tim ings
sign atures
50 7
back prop
ild card
Ġ7 6
ME DI
arch ical
({ })
18 4
hand ling
Ġorder ing
Ġlo cale
80 8
22 8
Get Raster
gg ers
Ob serv
tk inter
Pre view
Ġpi e
At tributes
Ġseg m
ĠTime Series
ĠJ SON
Ġ"% .
CC SD
Ġsol n
Ġdepth wise
ED S
-------------------------------- ----------------
Ġperi odic
Ġdiffe rences
Ġprop ag
Ġvari ation
Ġfin ite
Ġequal s
Ġdrop na
Coord inates
Cor pus
Ġtick er
good bye
Ġlb ls
Ġ{: >
modi fication
snp s
CAL C
ĠST D
BE AT
Cost s
Ġary ty
four ier
ĠPer form
chron ous
ARE A
occup ied
Ġmak es
Ġalle le
Ġlet ter
destroy AllWindows
san ity
simpli fy
ĠDistri buted
WEIGHT S
Ap prox
ĠForm at
ĠNE IGH
Ġautos pec
Ġweak ref
ĠAu dio
scen es
è© ¦
amilt onian
Ġpyqt graph
ĠLIM IT
ĠBytes IO
' |
) '''
. ]))
/ _
2 18
D b
D ump
E mission
H oriz
L K
L AS
P ages
R s
R ON
V CF
W eak
_ {}.
b an
b last
c max
c dot
e u
f use
h space
k nee
n bin
n cu
o ser
x h
x val
} -
å Į
æ ŀ
Ġ randn
or onoi
re vision
en dian
ra ses
Ġt end
pe at
ut ations
Ġs ph
Ġs io
Ġs ngl
el lipsoid
Ġre construction
Ġ1 12
Ġ( ("
Ġ( _,
Ġa i
int c
ck s
is ol
and er
Ġ* **
po ses
(" (
(" `
ĠT arget
et y
Ġy h
Ġe cut
sp p
Ġdata dir
---- -
Ġh space
Ġdi vs
Ġdi vided
pect ation
Ġk in
Ġk means
cor rs
low pass
ĠP S
ĠP op
sh m
ĠR ow
fun ctools
ĠM F
ĠM NIST
Ġ5 3
ic a
ic p
ĠF ITS
Ġen countered
Ġz lib
Ġun less
Ġan at
Ġpd d
']) *
ĠG amma
RE QU
use fixtures
Ġstart Time
Ġsub element
Ġrow span
ĠU ti
ant ed
AG ES
be ad
man ent
Ġsuper spud
context lib
Ġsig mas
Ġ& &
22 6
Ġover laps
90 6
Se conds
06 25
23 8
Ġ". /
MO V
Ġrank ing
'} },
symbol ic
project or
Ġli fe
Ġsetup tools
Ġsa ida
Obj s
del ity
station ary
pn ts
Ġwant ed
Ġrgb a
week day
Ġsoft ware
Ġsuffix es
Long itude
Te ams
lax is
Has hable
AV G
togg led
dele tion
Material Types
Ġmor ph
Acc um
æİ ¥
shut down
assertArray Equal
occur rences
ALLE L
OutOf Range
ĠSpec ify
åķ ıé¡Į
$ ^{-
/ \
0 97
4 80
A Data
C ached
E qu
E igen
G PI
H ard
L F
L DA
S un
S lic
g hi
j sn
n ation
n Elements
o cean
q stat
s mtp
t end
t win
x ing
y x
z label
Ã §
å °
æ ¬
æ Ń
Ġ orth
or acle
re search
re lev
st ein
ar b
de legate
Ġi e
me lody
Ġf lexible
Ġin x
Ġin compatible
Ġs parsity
Ġs outh
Ġre sampled
Ġre corded
un roll
data path
la place
Ġ[ ((
Ġb unch
Ġd as
ent a
set Current
th ick
res sive
om it
ver b
Ġnot na
Ġe as
lin eno
sp lev
cl k
Ġv p
Ġdi co
Ġtest Cond
index a
ĠS ome
). "
ĠA ss
Data Loader
ĠP r
ĠR o
point cloud
start up
ĠE ND
Ġpre processed
Ġch isq
ĠB unch
Ġcomp ressed
Ġfe h
RE E
Ġro ad
em ma
pol ate
table Widget
Ġ8 5
Ġac cepts
ME D
Ġinter active
ID X
block size
ĠRe action
TE GER
Ġcor relations
Ġ12 34
75 7
:` -
65 217
vari ation
40 6
Ġmulti plier
Ġfit ter
Ġover rid
66 6
Ġcent ered
rot ations
ĠCon vert
eb N
Ġtransform ers
lap lacian
26 9
peri ence
98 6
SC AL
Th rust
Ġopt parse
eli ke
Ġexec uted
project ed
Ġmay avi
press omd
SH IFT
ĠOr der
Ne ur
PAR ALLEL
Ġborder s
ĠAs set
Ġsqu ares
BO SE
Ġconver ter
Ġsome thing
ĠCategorical Index
Represent ing
Ġdig it
Print Results
Ġur ls
ĠTemp erature
xf rm
mpi rical
Exec utor
?? ?
Boost er
Char acter
ales cent
Sm all
crnr lon
~~~~~~~~~~~~~~~~ ~~~~~~~~~~~~~~~~
ĠKer nel
Structure Factor
SB fac
histor ies
å® ļ
Ter min
Analy zer
è® ¡
Ġhyp othesis
(".") [
prom ote
Ġhier archy
SHO UL
mir na
Ã³ n
IMP ORT
Ren derer
ĠERR OR
GetRaster Band
' re
) ','
9 16
A CC
C lock
D rift
D ROP
F etch
H EL
H BoxLayout
K d
M G
M ca
R W
S ci
] '])
] ``
b athy
c ra
d op
d ac
f fi
f Type
i vers
k ron
n ump
o is
p il
s ma
w gt
} -{
Ð ¸
æ Ķ
ç ī
è ´
in j
at ural
re cated
st on
en ed
ra ds
ra mid
Ġt if
Ġt all
le me
Ġn id
Ġs line
di late
di gest
Ġo sp
un ity
Ġ0 3
fi p
ex teriorElement
Ġa ble
Ġb urn
Ġd l
Ġw iki
ati vely
__ "):
", ),
Ġthe ore
end ers
ap ses
Ġg paw
Ġex tr
to k
sp er
Ġ_ ("
Ġ{ \
assert Dict
ub s
In correct
ĠS pectrum
us De
mo us
ĠP ower
ĠR atio
Ġpro xy
Ġget opt
ĠI mp
Ġtime max
ho ulder
start Time
IN D
Ġ{} .".
ĠL eg
ĠX ML
inter actions
inter mediate
11 9
pos itory
ng lish
ĠW rite
Ġwh it
Di v
do ji
ref d
back bone
Ġthis Temp
iv es
initial ise
SE ARCH
lic a
so up
radi al
Ġcor es
(_ ):
Ġpa inter
element MaterialTypes
MA IN
Ġ`` (
Al p
Ġad dition
ĠTest Case
)+ (
Ġcontrol led
Ġdisp lacement
Ġmis s
Ġdb g
optim isation
Result ado
Per formance
proto buf
ĠPro b
Ġli k
Ġimp rove
Ne arest
Medi um
ĠComp onent
Ġfollow s
tw od
car lo
mix ing
abi vars
Ġexpect s
Source Label
Ġquanti les
ĠCh ar
ĠDe vice
fic ations
Ġfail safe
Price W
Ġinitialize Element
ĠAd am
Auto Trackable
ĠOp timizer
GRO UND
Ġshare y
Ġum t
slic er
hed ron
Calcul ator
Ker as
cas cade
Ġpub lic
bd ys
Render Targets
ĠTrain er
Ġhit set
correl ations
ĠUni code
sca pe
El lipsis
thermo data
Align ment
resamp ling
Mostra Pos
Ġtre ated
REL ATION
Hyper params
ĠTI ME
Help Formatter
Ġreli ef
Comple ted
ĠLoc ation
FAL SE
PARTIC LE
Ġdiction aries
usDe Lib
! ',
, %(
/ .
2 84
2 95
2 87
B P
C ATE
G SM
H int
M NIST
P lan
R B
S ke
S ec
S peci
T an
T Streamer
W ER
X P
_ %(
f ro
f val
g mm
g love
j ar
k nockout
n chan
n opython
s rf
s apt
t ck
t pl
y c
æ ¯
ç Ħ
re cent
de compose
ra ctory
Ġt step
Ġt eff
Ġp vals
Ġp ages
Ġc is
): (
di pole
el ch
el bow
Ġre view
Ġre sampler
ol y
Ġm irrored
Ġo dd
def ines
Ġb k
Ġnp er
Ġd ens
Ġd rive
ri ce
set Enabled
ode tic
Ġx pos
Ġg ibbs
Ġex tended
Ġy md
Ġe ast
mple ments
Ġv o
log loss
Ġh d
Ġh g
Ġh armonic
zer n
Ġde pre
Ġde mand
Ġde coding
ĠS eg
ĠS ave
valu ed
te a
ci ble
Ġl it
low est
ac f
model Index
ĠC opy
Ċĉĉ Ġ
32 8
== =
"] ][
Ġpre compute
AT ES
pos ures
ten ess
Ġbo keh
graph er
Ġ7 1
ĠQ ubit
bar rier
ĠK Neighbors
Ġnorm s
ca Obj
stamp s
Tensor s
Str List
Ġne igh
position al
yn ess
67 8
35 7
acc el
auto graph
96 8
28 6
ĠSt orage
38 6
Ġexec uting
Cont ents
ifi cation
ä¸ Ń
Ġband order
mf cc
Dis abled
Can didate
solver s
Ġnu cle
VI EW
Ġconver ters
+'. '+
('_ ')
mult inomial
timestep per
Call ing
Detection Boxes
Ġman ual
Ġsumm arize
Ġexpression s
Pair s
sens ors
Extra ctor
Ġeffect s
Optim ization
determin e
Ġther mo
ĠBatch Normalization
Ġmetal licity
propag ation
ĠSum mary
WW WW
BF GS
RAT IO
Ġpha ses
Ġoccup ied
intain er
transa ction
PAN DA
65217 391
SHOUL DER
0 30
2 88
3 15
3 19
A CK
B ernoulli
C AT
D ig
E F
H ow
L et
M omentum
P G
T Z
T i
T AB
` ]
d df
g tf
h ar
s us
w atts
z f
Ġ 999
in ite
st randed
ar ta
de cl
Ġi a
Ġi mb
Ġn iter
Ġp rs
Ġ' ../../
Ġs ir
di ence
um ag
li l
Ġb rightness
Ġd fi
Ġd end
ent ree
), ),
ran t
array info
Ġst ops
': {
Ġg ri
Ġe kf
cl us
Ġcon str
Ġh essian
Ġtest ed
Ġ: >
In clude
Ġout lier
ĠA nnot
ph in
ĠC V
Ġse veral
32 9
ĠR ef
sc is
ir rep
Ġj acobian
Ġtra it
Ġun ivariate
Ġan im
stat ed
new ton
ĠB io
cy an
trans mat
]] ]],
]] [:]
flow Error
cur v
Ġsp ine
work dir
DE CA
ther mal
Ġsub mit
Ġac cel
Ġexp onential
rt rue
std in
SE NSOR
local ization
Col lision
be ads
dist utils
dist ortion
AN N
CO VER
gram mar
face t
sim ulations
Ch an
over lapping
Al loc
AB CAdapter
45 1
year ly
Ġbi j
Base DataType
cap tures
Cal lable
Ġproj s
Mo ving
ĠMulti ple
OL S
Sim ulator
question s
sl c
Ref s
dia gram
Top ic
Ġplo tobj
SY N
Ġsepar ator
hic les
':[ ],
Ġassu mes
Ġchromosome s
Ġremain der
åħ ¥
ĠAl vaFontSize
manif est
Ġsit u
æĹ ¶
ĠArgument Parser
nost ic
cisionTree Classifier
Magic Mock
Rele ase
% ",
) (*
) +'_
+ )\
: ^
C nt
E h
F s
H and
M pc
O III
S train
W alkers
_ ='
c rap
d S
d resden
f an
g mean
g luon
j v
k T
k size
l sh
m tx
n R
n cat
q res
s line
s mo
s ine
t ube
t utor
u is
x els
| "
Ġ architecture
re la
on sets
er re
de queue
ra ms
Ġt une
Ġf end
Ġf und
Ġf sim
Ġp res
Ġp earson
Ġc ra
Ġc hem
di ss
ol i
ed f
)) }
)) +(
ex if
Ġa se
ent rez
), \
ad jacency
ran ds
]) +'
set ex
set Check
res name
Ġst reams
orm al
Ġg id
from timestamp
Ġimport ance
ĠĠĠĠĠĠĠĠĠĠĠĠĠĠĠĠ ĠĠĠĠĠĠ
Ġy n
od ds
py qt
Ġk t
Ġop tical
input File
": [
ĠC ode
pre serve
pre ferred
01 3
ĠR A
ĠR p
Ġen map
Ġen queue
Ġtime min
Ġtime Limit
ber g
Ġpy learn
99 6
Ġmin ima
ne es
cur ate
raw maps
ĠW ill
fit ter
Ar m
Ġq b
Ġexp orted
Ġcur ves
ĠV ER
Set Color
18 6
rol laxis
13 37
55 7
UT ION
33 8
80 6
22 9
67 7
40 7
Ġfit line
Ġtorch vision
Ġts lib
35 4
27 27
UN I
85 8
Ġscal ings
Path s
UR N
cr m
tz info
assign ments
Date Col
Ġdat atypes
EX AMPLE
NO WN
SP IN
Ġskip ped
Ġskip ping
Ġband width
Invalid Argument
Ġcorrespon d
Process or
conti gs
Ang les
Ang strom
iso format
FA CE
ĠName d
ima genet
velo pers
nonlinear ity
numbers ink
phj Postcode
access or
ĠAx is
bul ent
extre me
kn ob
Ġscatter ing
halo data
Sm iles
æĸ °
Ġmor an
ĠtestWhile Grad
artifact s
Ġdftmp inset
Ġsing ular
Ġcomple ted
Ġwarm up
ĠFa il
ĠDensity Matrix
Ľ´ æİ¥
senti ment
Auth or
ĠRect angle
ĠPdf Pages
ermion Operator
Ameri ca
Expon ential
StructureFactor Constraint
ĠQubit Operator
' *
) `,
+ [
2 13
2 36
3 64
: `.
? "
A IR
B enchmark
D Op
L AT
M Y
M agnetic
N om
Q s
Q Icon
S emi
\ .
c ations
c cf
d rive
f ld
g ers
j edi
k dtree
m P
n ice
q p
v r
z o
Ñ Ĥ
æ Ŀ
è Ģ
Ġ zeta
in ce
in ject
Ġ= >
or ph
on gs
st abili
Ġt u
Ġt en
Ġi th
le ading
Ġf ault
Ġp nt
Ġc nm
ro sa
ro unded
Ġ' @
Ġs ra
Ġs os
Ġre ached
ct emp
ct ables
ur tosis
si vely
ex on
Ġb su
Ġd urations
(' `
op Test
con str
Ġ== =======
po d
Ġx l
ap m
ap r
ĠT RAIN
out path
Ġy f
Ġy o
lin ation
file obj
im ing
Ġof ficial
py game
ci als
vi ations
Ġl coord
Ġl mbda
mo coeffs
Ġse mi
sh uffled
sc at
Ġ[] ):
ĠM c
"] ].
ĠD ays
ĠF ound
()) ):
mean ing
wr t
sub type
ĠE PS
ĠE ither
ĠL ow
Ġun defined
])) ))
lace ments
Ġbo dies
RE P
amp s
Ġsup ply
Ġexp m
30 9
Ġopen ed
Ġopen ing
SE NS
dt wf
act ome
Ġvar list
Bo ok
ĊĠĠĠĠĠĠĠĠĠĠĠĠĠĠĠĠĠĠĠĠĠĠĠĠĠĠĠĠĠĠĠĠĠĠĠĠĠĠĠĠĠĠĠĠĠĠĠĠĠĠĠĠĠĠĠĠ ĠĠĠĠĠĠĠĠĠĠĠĠĠĠ
Ġ12 00
Ġreg istered
Ġph on
33 5
34 4
Ġref s
Ġref er
Ġref resh
wh itespace
65 6
su fficient
Ġad jacency
Ġ'. '.
Ġgener ating
Ġsign atures
DATA SET
Base Class
sn ip
Comp utes
Ġmy g
skip ped
single ton
Trans lation
gl orot
mut ate
vis ited
Ġfeed back
Ġrot ations
HT TP
NO DE
ĠStr atifiedKFold
ĠUn iform
LECT RON
Ġli ve
hat tan
mid point
He at
spin n
Ġstructure d
ĠPo sition
tw iss
Ġnu c
zz le
ĠSet s
Ġhyper parameters
Back ward
WOR LD
Ġbegin ning
Ġsepar ated
hit set
RAN DOM
Te V
1234 5
Cap turing
Seg ments
Sa fe
incre asing
Ġeigen vectors
Ġef ficient
Identi fier
rin ex
ĠMO DEL
Ġrequire ments
Ġgiv ens
wal ker
allt rue
twe et
quot es
Ġexplicit ly
PRI CE
Ġske leton
SAS P
Tol erance
ĠHT ML
specim en
Ġinten sities
Memb ers
assertDict Equal
DECA Y
+ )
2 75
5 20
9 05
: [
C LE
E G
E AR
F o
F ocus
G id
H AS
J D
L iteral
S ING
V TK
b st
b en
b pm
b ird
d end
d sp
f inger
g ys
k r
k per
n G
n ExteriorElement
r z
r mat
t print
t mpl
w hole
x arr
y t
· è¡Į
å ·
å ¹
Ł ·è¡Į
re ly
on ance
st u
st ory
de scriptions
ra mp
Ġt v
Ġi y
Ġn engo
Ġf lax
Ġc id
Ġ' *.
Ġs ÃŃmismo
ct l
', [
un wrap
], ),
ot ropic
Ġb ert
Ġfor eground
ran g
ri g
Ġas bytes
ig an
con tain
res olver
Ġ== ========
Ġst ations
dex p
Ġg of
=' <
np ix
ul y
ĠĠĠĠĠĠĠĠĠĠĠĠĠĠĠĠ ĠĠĠĠĠĠĠĠĠ
Ġy axis
Ġv n
Ġcon trib
path d
Ġ3 20
ub ility
Ġres ume
ĠS er
ci Ã³n
Ġu sually
Ġl al
Ġra dial
ph is
mo ver
ac quisition
ĠP D
ĠC a
ĠC lose
Ġnum s
ir p
pi p
pi cally
wr ites
iter tuples
ĠE L
IN ST
Ġun specified
Ġan a
Ġ10 3
Ġmat erials
Ġ6 9
]] *
ĠO mega
Co v
ĠW h
av as
',' ').
ref ined
check Name
ang ulation
Ġsh ifts
Ġ. *
ME SS
ance stry
24 8
feren ced
ĠIn dices
db f
Ġele ms
={ :.
200 4
65 4
yn om
colle ctor
day of
ii i
Plot ter
FI RST
parti te
Ġnd cg
Ġback wards
Ġdisp ersion
war ped
identi fiers
Or Value
Or dered
Per form
Group By
Mo tion
Iter able
Ġdown loaded
Ġci ties
dig ree
Ġneg atives
Ġtran sitions
Ġgre at
Filter ing
Ġes a
Tri gger
aper ture
alo ader
separ ate
PY THON
Ġsel l
rece ive
phj DF
visual ization
Ġfd j
havi our
Ġanaly tic
waveform s
artist s
Ġpe ople
Ġblob s
central ity
Ġgray scale
Ġeeg lcf
Ġappro ach
Ġoccur red
crnr lat
wal ks
ĠWindow s
nes ses
testTensorArray Write
Pub lisher
Rob ot
','- .
later al
acces sion
plas ma
TensorFlow TestCase
RADI US
agu ar
bathy metry
nExteriorElement Boundaries
' (
' /
, )*
3 10
: :-
C ros
H B
L UT
N b
O ST
R ates
S ites
b rightness
b jects
f cc
f dr
h ol
k pc
m obilenet
n atom
n othing
p tive
r find
s ue
s andbox
t cp
Ġ Ð
Ļ Ĥ
se man
in fe
ar ly
en io
Ġt we
Ġn ump
Ġn aming
Ġf obj
as p
an imal
Ġp th
ro at
ro gate
Ġ' .')
Ġin div
ol vers
ed ance
Ġ1 96
], )
lt ypes
id b
Ġd om
ran gle
set Property
[' __
'] ='
Ġv h
Ġcon nectivity
Ġcon centrations
Ġh sv
per ts
path name
sa g
max x
max y
tra ite
ĠS pi
ĠS NR
ĠS pherical
ĠS caling
Ġk g
vi ri
Ġop ens
ĠA ST
Ġme l
Ġcol lapsed
model List
ĠC li
ĠC ube
random ize
32 1
ĠR ot
ĠM s
Ġpro blems
comp t
pi o
ĠF lux
ĠF raction
Ġj sn
start prob
Ġz min
'], ['
ĠL I
ĠL ight
ay er
Ġpy matgen
ĠB ad
ST RI
rep ancy
Di Graph
Di agram
RE TR
pol icies
Name OrValue
Ġsh ot
Ġ8 8
pa wn
OR B
File Loc
ĠThe ano
ĠK Fold
conv olutional
Ġconfig ure
... '.
14 6
24 4
ĠRe quest
Ġread y
RO UND
can di
na a
mark ed
Ġabs ltest
Str ings
ich igan
04 7
Ġne ither
Ġtop n
drop ped
90 8
diction aries
Ġsign ed
Ġpick led
nc cl
Se ctions
PO LE
94 9
]+ "
88 8
Ġnb asis
Ġtransform ations
Max NLocator
SS P
Ġmain Layout
Ġ16 00
44 8
Ġwork sheet
quanti ties
EST IM
Ġsort er
amb iguous
Ġflux s
Ġhe ap
Ġcos ine
ĠTensor Tracer
tool box
Ġauto grad
={} '.
PRO J
Ġconcat enated
Ġrepresent ed
Ġes pressomd
Ġinv enio
Sta ge
Ġ"{ :
Ġ"{ :.
Ġflow s
summ arize
Ġamp licon
Ġpartition ed
Ġgame s
Ġderiv atives
ĠLe arning
phy sics
see ing
Sk learn
ention Datum
Ġç Ķ
brid ge
Ġchr X
comple tion
clim ate
Ġconsist ent
ĠCy linder
Rest ra
FUN CTION
Ġpers pective
Ep isode
mole cular
Ġske w
ĠSup er
Ġspike train
Ġdecor ator
Ġsnap shot
)& (
THREAD S
scis sa
','-. ','-.
NameOrValue Flag
3 66
3 87
8 50
> -
D em
E mp
G AS
H older
J acobian
K warg
R t
] +'_
a ex
b ck
b os
c ad
c ml
d fi
h ref
m dtype
n args
o ke
o il
p z
p matrix
s ans
t ance
t qdm
v z
w at
w rist
Ã ¤
å º
ç º
re cs
st ability
en emy
Ġt ip
Ġt ilt
Ġn gram
Ġp num
Ġc dr
Ġc ebq
di ds
Ġre pli
Ġre served
ol ded
Ġm ids
def erred
Ġ( {'
Ġ[ --
Ġd ust
Ġis sue
Ġ2 048
Ġx var
Ġx tol
Ġg to
Ġg row
Ġg athered
ke Train
et c
et ra
([ ['
Ġe vals
file formats
sp at
sp ine
Ġr up
ff tshift
all z
all reduce
vi val
Ġra dians
ac ed
ac cu
ĠP ET
"" ".
Ġth ar
jo urnal
init s
ĠD own
Ġtime zone
sub scribe
ĠL ink
Con straints
AT ORS
Ġ""" ),
split ter
reg rid
cy clic
ne ural
Ġ(' ',
ef ficient
cur rency
ĠO W
dx i
rc nn
og gle
DE V
back fill
Ġ8 1
Ġ7 9
==== =
SE TS
conv olved
24 6
24 7
ĠRe quired
TE MPL
radi ance
---------------- --
Ġpos n
sort ing
Ġqu aternion
88 9
Graph s
domain s
Ġcontain ed
Min or
proto s
Ġeps g
DA File
Random Forest
Fit ting
Obj ective
small er
Def ined
View er
KEY WORD
Height Const
PL ACE
conver ters
Ġregulari ze
ĠRes ource
Ġclip ped
ĠCl assification
Evalu ation
Ġser vice
IST S
collect ed
READ ME
Ġdelay s
Ġsuccess ful
material Types
Period Index
Day List
Ġphot ometry
Ġmix ture
6666 6666
hor z
ĠWD BaseDataType
xds dir
Ġgam maln
Ġgiv es
Act ual
reci procal
vof Model
Ġcri tic
pcolor mesh
GRU Cell
Tk Agg
triple t
Ġminim izer
Rout ine
extr ude
Ba seline
Ġrasteri o
Subset State
biom ass
associ ated
xmltag name
ĠAbs olute
MAPP ING
umag ai
( .*
) ["
3 17
5 01
5 87
> ")
D ur
I ris
M icro
N H
P F
Q T
R ho
S name
S te
S ources
a data
b dy
c up
d q
d or
d der
e z
h x
l bi
o le
s lr
s rv
v on
x iv
y a
z KB
å Ŀ
Ġ â
Ġ ul
Ġ ]]
in ary
in structions
or tions
er ta
er mi
al ect
Ġt list
Ġt ms
Ġi on
Ġi df
Ġi beis
Ġf type
Ġf ns
Ġc ml
Ġ' '),
ut s
Ġs rs
ur ch
Ġm h
Ġ1 35
)) -
la ser
ex pert
lt ype
ch ol
co location
Ġd it
ad or
__ ('
00 25
set Minimum
get Node
ode s
Ġis file
Ġis nan
up cast
Ġst one
Ġx a
Ġg i
im at
pro venance
col vec
py tz
Ġde cre
ĠS M
ĠS pr
min ima
mb s
ob ile
Ġor g
ĠA TL
add Handler
line a
ĠP P
ĠP lace
ĠP OS
ĠC RAM
Ġse ctor
Ġse gs
pre f
fe a
mat ter
Ġ` '
** .
** :
ĠD NN
ĠF T
ĠF ree
ĠF ont
Ġal i
Ġpre cip
Ġun constrained
Ġle ave
ĠB i
)] *
11 3
11 77
pos n
cur ity
20 3
ĠW iki
fa ir
sen sitive
Ġsp ots
Ġsub space
Ġ8 7
AR GS
ĠU til
ĠK e
Ġend ing
Array ToTensor
AG G
dist fn
TE S
we eps
ĠY es
open ed
sim u
PE G
04 6
ud ge
Ġad ds
ĠType d
evalu ated
acc ard
DF OCC
AS C
36 9
Ġpol ar
Log isticRegression
sm iles
23 9
ĠSt ats
Ġpri mitive
fer m
regulari ze
Ġeps Fact
scre ens
Ġty pename
vol atility
Ġcap tion
Ġface colors
Ġ(% .
Ġ64 0
relation ship
Ġvis it
ĠComp utes
Cor ner
Cor rection
NE SS
Off sets
book s
Ġvmin Star
Ġwa iting
Ġlab s
gate way
ste ering
ĠTh en
ĠLe vel
Ġshort cut
prec ise
Ġport folio
Ġur lopen
Ġman if
ĠRO I
Has Field
mas sive
Ġeig vals
Ġspi kes
qq plot
augment ed
loy ment
crnr x
Ġgiv ing
Ġpers on
quilibri a
autos pec
Ġenti ties
Variables Dict
Ġnib abel
Ġconti g
cand set
Ġims how
nost ics
ĠDoc ument
æĢ »
renti able
ĠSER IAL
åģ ļ
MODU LE
Orient ation
Ġtogg le
InvalidArgument Error
spinn aker
Restra int
ArrayToTensor Proto
) ".
/ {}.
5 34
E s
E quation
F ollow
G al
H SV
H Nn
H IDDEN
L ag
N EXT
P otential
R Y
R ad
S X
S MS
Y r
] `,
b il
h oc
j lo
j max
j hi
l ls
m illi
t temp
v lines
x g
x q
x ray
y ou
z ier
Ñ Ģ
å ½
Ġ lay
re co
st p
ar win
en ous
en velope
Ġi er
Ġn samples
Ġf str
Ġf lu
Ġp join
Ġp sy
Ġp rng
pe ople
Ġ' </
Ġre try
Ġre tain
Ġre cording
Ġre construct
Ġm jd
Ġ1 40
un scaled
un dation
)) )))
he res
Ġa w
Ġb ib
Ġnp arti
Ġd var
ent reprise
(' +
set state
op p
') ('
Ġst ra
Ġx e
Ġx ticks
(" *
Ġnot es
Ġe N
Ġe coli
import ed
file paths
Ġtest Scatter
Ġto uch
ff ord
In c
tra ffic
Ġres olve
ĠS li
ĠS ET
ĠS UB
Ġk x
low ratio
Ġcol name
ph s
=" {
Ġ) ;
ĠN S
ĠN avigationToolbar
[:, :]
Ġlog Event
sub dir
sub mitted
ĠB ound
ĠB utton
que t
fn c
ĠG itHub
den ominator
]] ][
fit xcorr
fa de
RE ND
Re m
check array
use ful
16 1
Ġsub list
Ġsub plots
30 6
ME T
ĠH AS
Ġend col
02 2
Array Conf
EN V
75 8
mag n
tmp fitxcorr
Ġcan onical
Ġref l
Ġref ine
MA SS
Get ting
Ġsim ulated
fra cs
go ing
Tra ined
UN E
Fun cs
Map Node
ING S
high ratio
Pre dicate
link age
cr n
Key point
ĠJ ob
agg lo
('\ \
RI X
Ġedge colors
optim ized
Th ickness
Ġgo ing
che b
tau x
Bound ing
Mode Keys
!! !
AM B
Ġmark s
Ġut c
adjust ed
Ġden sities
CF G
disc ard
avi side
eigen vectors
Ġrece ive
Ġprodu ced
Peak s
Ġmf cc
Ġslic er
Ġbroadcast able
Render ing
tor que
Ġmar keredge
Lib rary
Ġym gal
uli an
occup ation
ĠProcess ing
åĬ Ł
GEN ER
Sent ence
Ġä¹ ĭ
explor ation
Ġmapp ings
SetInput Connection
saf ename
Ġton nes
Ġtur bulent
OutOfRange Error
Ġheap q
Kwarg VariablesDict
ĠATL AS
ferm ion
Ġnparti tions
) <=
. '))
D r
I gn
M oment
M IS
O H
R inex
S hear
T mp
Z one
c gs
d qn
g ran
m z
t data
w space
w ik
x o
y ml
} ^
~ /
å ¦Ĥ
ç Ĥ
Ġ ze
Ġ license
in gest
in variants
re served
st ead
ar med
en ses
Ġi bs
me x
me cas
Ġn A
Ġp ops
Ġc k
Ġc name
Ġc dict
Ġc lobber
Ġ' )'
ut l
ge ometries
un if
um in
Ġa e
ma f
li cts
id dout
Ġd ts
ha plo
th readed
is subclass
ve hicles
Ġx vals
=' $\
Ġof ten
Ġh ad
Ġdi vid
Ġ{ (
per ror
ump tion
tr j
ĠS ty
min x
Ġk h
Ġk ill
Ġor ography
ĠA ffine
tri u
tri bs
Ġse man
pre computed
sh ells
bu tions
Ġ[] ])
ĠM C
for ced
ĠI NT
ĠF irst
ĠF WHM
Ġint ro
Ġ\ '%
ĠE valu
ulti mate
cy cl
inter pre
ef olding
Ġ6 2
ĠO ptions
Di vide
Re cords
grid spec
Ġare as
16 9
datetime s
ble u
mon o
Ġinter sect
return Type
Ġimg out
AN TS
ĊĠĠĠĠĠĠĠĠĠĠĠĠĠĠĠĠĠĠĠĠĠĠĠĠĠĠĠĠĠĠĠĠĠĠĠĠĠĠĠĠĠĠĠĠĠĠĠĠĠĠĠĠĠĠĠĠ ĠĠĠĠĠĠĠĠĠĠĠ
Ġsk el
man age
score at
03 7
Ġ(" %
ev a
pack ets
sort er
34 9
Ġfa ir
CH AIN
Ġad joint
LO ITER
Ġsim s
Ġmulti p
Ġmulti ples
Ġfit Results
Ġqu ick
AB CD
sha ke
Ġover lapping
gre edy
Sp rite
pick ed
37 6
exec ut
`` `
97 4
AD ER
De cision
rec IDs
rec tify
Path Cond
At las
ĠJ acobian
44 4
Ġ25 4
cross over
38 9
Ġsur to
Ġsur faces
48 9
Ġmag ics
Cont inuous
stor ies
CK ET
locs um
Ġhy brid
bg color
raise d
TIME S
spa rency
cip ant
plan ar
Create Mat
ĠMat plotlib
Ġserial ize
writ elines
('{ "
Ġaff ect
incre ase
ific ance
built ins
Ġconstruct ed
Cross Entropy
Geo Transform
shrink age
Cy cles
FIEL DS
ĊĠĠĠĠĠĠĠĠĠĠĠĠĠĠĠĠĠĠĠĠĠĠĠĠĠĠĠĠĠĠĠĠĠĠĠĠĠĠĠĠĠĠĠĠĠĠĠĠĠĠĠĠĠĠĠĠĠĠĠĠĠĠĠĠĠĠĠĠĠĠĠĠĠĠĠĠĠĠĠĠĠĠĠĠĠĠĠĠ ĠĠĠĠĠĠĠĠĠ
ĠCur ve
UC CESS
Bi jector
Ġdg fip
SPE CI
eng lish
ĠLat tice
fam i
ĠHist ogram
ĠUp date
Ġbra cket
ĠAtom ic
Qwt Plot
Cos ine
æ² Ĵ
Ġpay load
paralleli sm
Ġlig and
ĠIntegr al
Ġgf alternate
getmask array
Ġscr atch
Ġprote us
MEN SION
Ġqso Grid
IGNORE CASE
æŀ ľ
ynom ials
+ .
: **
? ")
A re
A ff
A ir
B N
B AND
C UT
D eta
F ore
F lip
G ray
L st
L AP
N Z
P OR
Q List
Q LineEdit
S tri
W ARE
X DS
_ "][
b mp
d E
d ri
f score
g mr
g was
n Images
p ent
p cg
p anda
v wc
z x
æ µ
Ġ quiet
re assign
st ellar
en i
ra steri
Ġt ic
Ġi l
Ġi z
Ġi tr
Ġf ri
an um
Ġc q
Ġc pp
Ġ' '))
di x
Ġre con
ur ated
si vity
Ġo de
ex cess
ma ze
int or
Ġb onds
co oked
Ġd N
Ġd T
), ))
ri p
Ġw ts
(' ;
(' |
__ =="
ab u
Ġst ability
to bytes
to Pandas
ith metic
cl r
pro tot
pro grams
Ġv b
log p
Ġh c
Ġr df
app s
ub ba
tr p
key Word
In compatible
tra f
ask s
ist ure
Ġout name
Ġk ivy
). ')
Ġl atter
Ġl prob
ren orm
Ġme sg
float x
Data Generator
mo energies
=" "):
pre ad
01 1
da emon
bu ilds
ĠM ain
Ġpro be
Ġmodel ing
ĠF RAME
Ġen velope
Ġmax y
Ġz ones
sub scription
Ġlist ed
ĠE poch
Ġpre fetch
Ġfi re
Ġun binned
ER A
Con figure
gs m
ST L
config urable
ĠO P
ĠO cean
ĠW ave
do or
RE SOURCE
Re cording
sen der
amp ling
datetime like
Ġ8 9
Ġ7 7
OR IG
Ġrow Clust
30 2
Ġopen mc
dt ol
Set Name
clas sic
... ",
nel ing
create Table
qui ver
radi ation
Ġfunction ality
inf ty
Ġtext coords
(* )
33 6
04 9
MP TY
IT UDE
element wise
Ġ`` [
over view
Get Active
En coding
sin h
Ġitem size
Ġact ually
ĠPar se
27 2
27 8
UN ITS
Ġ'% (
nu clide
Comp ound
Ġoper and
ĠSt atus
EL BO
Ġelement Quadrature
light ly
pdf s
Config Var
On ce
Min ute
eli ef
Na vier
Ġcsv file
Ġprop ortion
Ġdir ty
inc and
aff ected
Ġimp licit
PRO X
traj s
traj ec
bn ds
INPUT S
tw itter
adjust ment
Err ColumnName
Method Name
ĠBase Estimator
Cre ator
disc arded
Ġfft n
produ cer
erm ite
bra cket
para graph
Ro le
Ġed f
ä¹ °
bounding Rect
Ġear th
invert ed
Ġsat uration
chron ization
ĠMo di
Contact s
equ ity
Ġphy sical
ĠGe o
LAY ER
tis ations
0000000 2
SNP s
å¤ §
Ġkern els
Ġperf ect
nop ro
abund ances
Ġjo urnal
Ma jor
ĠCurrent ly
aaaa a
ĠDIST INCT
snak type
Separ ator
ĠREAD ME
DET CI
allen ge
ĠMD Analysis
ĠPrior ity
Ġamb iguous
reven ue
ĠSeg ment
ĠçĶ ¨
Navier Stokes
" ',
' -
) $',
= \"
D Type
D CT
H R
I K
I CON
K Means
L G
M nt
M gr
M RI
M uda
Q SizePolicy
R ules
T B
T ake
U K
V M
W F
b anner
c aught
d api
f get
f mu
h u
h base
l x
l vs
n sp
o ol
o led
p data
r mi
v os
w exog
æ ¸
Ġ ĉ
Ġ lim
at n
st y
Ġt lt
Ġt file
Ġt pr
Ġi Job
Ġn out
Ġn aive
ti led
Ġf prop
Ġc def
Ġc dist
Ġ' {}.
Ġre po
Ġre cv
Ġm ongo
ame tro
Ġif g
ex pt
Ġa aa
Ġb row
Ġb pm
Ġd of
Ġ+ "
(' ^
con da
up df
", '+
Ġx h
Ġx box
Ġg z
Ġg sw
(" |
Ġex if
to copy
ds n
pro ach
pro posals
Ġv ot
log L
sa verage
ens us
In s
ĠS lab
ĠS PEC
ci ons
gra b
add ons
Ġdf mp
ly r
ust ext
text rm
Ġlist Of
state less
stat ustext
ĉĉ ĉ
25 9
Ġcomp osition
Di ameter
fix es
0000 000000
temp file
pu d
Ġq id
AR RAN
ME NU
Ex ternal
Pro cessed
Ġfig ures
ĠK P
act wp
AN TI
Ġreg istry
inf luence
DI MENSION
tmp f
led ge
wo cs
Un recognized
)]) ):
vari ates
theta R
Ġgener ates
66 9
Ġav gs
Sp acing
down loads
Le ak
36 8
PO SE
94 8
Layer Norm
Ġmon ic
link str
corr coef
28 9
air s
Ġspec fun
EL L
Ġuni q
Add ing
mut able
From String
ĠPro gram
Ġtr Y
lst sq
DA Y
gal axy
Ġpop ulator
SV D
ĠKey word
report er
checkpoint able
br ut
ĠTEST DATA
Met per
ĠCh ange
Exp and
cla w
separ able
XX XX
ĠQu ery
Categorical Dtype
Ġtool bar
GD T
ĠMax Pooling
Ġclean up
GRO U
ĠMon te
Parti tions
Vari aveis
ĠTra ce
Ġaccum ulator
mapper s
Ġepisode s
Avg Pool
ida des
.... ....
chromosome s
ĠEX ISTS
EPS G
CONFIG URATION
PSF asc
Ġstrip ped
prep end
STA MP
han cer
ĠSpecifi es
CONT IG
trap z
diab etes
ĠExp ression
cool warm
Try ing
Ġnumer ator
bla h
consum er
piece wise
diam ond
MEM ORY
Ġnmr tr
Ġmedi awiki
Ġabund ances
centric ity
Ġdescrib ing
ĠPET Sc
, ]
A em
A wb
B ead
E ither
F ID
F ingerprint
G radients
H C
H ex
L INK
M ult
M ER
M achine
N ative
N AN
N II
P lay
Q P
Q Text
Q uality
T f
T x
Y ields
[ ()]
^ -
a vel
b ur
c val
c ited
c plx
e quilibria
i ra
i py
i Stg
m ati
m im
n I
n lay
p values
q arg
q max
r sp
t ps
x k
z pk
æ ¨
Ġ Ã
Ġ estimators
Ġ vecs
in bound
er ator
self test
Ġi ch
me ar
Ġn time
Ġn max
Ġf li
Ġp cov
Ġin dividu
Ġs ong
Ġs dr
di dx
di lated
di rout
() })
ol w
si mp
si lence
si phon
Ġo v
ch p
Ġnp ix
ri petal
Ġw i
Ġw vl
__ =='
get Chunk
is f
con fid
ab sa
up er
", \
Ġg tk
ter rain
=' {
Ġv arnm
log ies
time line
Ġcon cept
py datetime
Ġprint ed
ĠS Y
ĠS core
Ġk y
Ġk nn
[: ])
Ġor ange
Ġu d
). ")
line sep
us sel
ime m
ĠP ose
ĠC NN
01 234
da gger
ĠR en
ast Object
jo e
Ġos m
Ġget data
Ġat ten
Ġal loc
ĠE nergy
idx i
state ful
ĠL L
ĠL ower
Ġun stack
Ġle ad
Ġ""" .
Ġpy cbc
Ġ10 5
ĠB s
ST Y
Ġ[' -
exp lore
)] =
)] ):
)] ],
trans posed
ĠG EN
no op
Ġargs ort
ign er
Ġcomp atibility
ĠW ARRAN
Di richlet
edge colors
Ġro le
Test Conv
temp orary
Ġsh uffled
Ġexp ansion
Ġ7 3
Par ticles
02 8
Time Dom
18 00
Ġ} ),
qui res
Ġ9 7
CO MPLEX
diff use
Res ize
Res ampler
Ch i
Ġ, '
34 6
his parc
LO AD
Ġsim ulator
Ġmulti variate
Ġdist name
AB S
convert ing
95 4
45 7
pr f
97 7
88 88
high er
Ġmon key
23 1
fin ity
98 9
arc display
Ġhead ing
ration al
Ġposition al
Multi plier
host ed
Grid Layout
Ġflux es
hyper param
Can cel
Ke ep
Atom ic
bed o
TF Record
Ġsli de
Ġproto cols
Err ToFit
analy ses
Ġscan s
ĠFun c
produ ction
Match ing
uv w
Ġcum sum
Rot a
Basic LSTMCell
walk ers
Ġcharge s
SUM MARY
Ġslot s
Ġdiv mod
vor onoi
Ġbet as
Ġphy sics
ĠRep resent
tun ing
Build ing
Ġcla mp
Bytes IO
neighbour s
mole cules
Ġtech ni
Ġorbit als
ony mous
Ġequ ations
Ġnele cb
Ġphen otype
ĠSig ma
attemp ts
Micros Count
symmetri es
Sched uler
Allow ed
Ã§ Ã£o
__==" __
, )).
- "+
. '+
2 85
B am
C op
D N
D AL
F ri
F AR
G y
K ivy
O W
R untimeWarning
S hot
W C
W all
W GS
a head
b untu
c rops
k max
l csDict
m ip
n max
r fft
t arg
t ap
u tions
u fact
v us
w id
z min
ã ĥ
æ ł
Ġ ì
Ġ Dat
Ġ que
in ator
at a
st ors
er f
al p
en dation
Ġt ps
Ġt sk
Ġi vi
Ġn roots
ti ze
mp os
Ġin clusive
Ġs pherical
el t
el u
Ġre write
dat in
Ġm ac
Ġm acro
Ġ1 16
un ravel
Ġ" |
Ġ" ("
Ġ" </
fi du
data store
data Dir
Ġ[ \
ot t
co urse
Ġw inner
op set
is ms
[' --
Ġg array
ke pt
np rocs
Ġy edges
Ġe e
lin ux
sp ice
time Integration
Ġcon c
Ġh og
Ġr rule
ub a
tra des
art ree
art ments
bo o
ĠA in
Ġl vs
ss h
ĠC at
Ġ) ],
[" %
sh oot
ĠR t
bu gs
ir ing
ir case
ĠM X
comp ound
ĠD F
ĠF rom
64 9
wr f
Ġat tended
Ġlist dir
tf records
=[ ['
Con struct
new byteorder
Ġch rint
ix s
ĠO bs
Di ameters
Ġim read
DE NT
back up
Ġac q
Ġac ces
ĠV t
Ġcheck ing
SI AN
lic enses
Time Serie
Ġsum s
Ġrun data
ĠEx pr
05 4
05 6
db g
face colors
To File
DI V
rel x
rel path
04 41
Ġwr fout
Ġqu adratic
sha de
cura cies
nb enf
CE S
font properties
Se is
dimension ality
ĠCon nection
CA CHE
Ġerr no
Ġlat t
Ġfill ing
Log ging
dis coal
long double
fft pack
Ġmx net
Ġ'- ')
assign ed
SC REEN
Add ConfigVar
CON TA
App Data
click s
Oper ated
Dis k
Dis able
vol ve
zy g
ptr on
ĠTensor s
Ġhy d
nov a
Ġphj PrintResults
Ġapply ing
Ġes cape
HI ST
va e
ĠName s
00000000 0000
pv watts
Estim ate
Ġexc itation
super vised
ĠLog ger
Ġmd traj
Ġsuccess fully
ellip sis
hard mask
ĠNode s
trim med
Ġauth ors
Ġplayer Tag
Ġstatic method
ĠParameter Context
ĠDep th
Skip Test
Ġ? ,
ada delta
Ġplate par
Ġkeypoints Inside
ĠCont rol
å¾ Ĺ
REG ION
PIX ELS
UNK NOWN
Ġneur on
ĠWeight ed
Streams Handler
142 857
Ġcalib rate
Ð¾ Ð
Ġtor que
glm net
ĠSur face
brow se
damp ing
smp ls
ĠTick et
hemer is
ĠSal inity
crn ry
GetActive Camera
__==' __
imem rslt
! ".
* _
. ;
3 12
= ':
A UC
B g
B ert
C um
F ix
H b
I ME
M H
M X
N i
O ID
O MP
T Descr
V tk
_ ",
a diab
b ine
b nd
b thresh
c losure
d am
e quilibrium
f civec
h ds
i max
m ri
m nt
n H
n states
n lenses
s sp
t name
u om
y X
} ^{
Ġ ][
in dir
in consistent
at o
re strict
re sized
al a
ar sen
Ġi start
le w
Ġn grams
ti o
an ker
Ġp ed
Ġp il
Ġp ints
): ",
Ġs sd
Ġs corer
di com
Ġre lax
() ...'
la pack
Ġa veraging
], -
val J
Ġb mp
Ġd A
Ġd B
Ġw file
]) }
__ )),
put Text
') }
Ġ* /
Ġis null
Ġ2 70
am en
Ġg it
Ġg ca
Ġex pt
lab l
Ġe asy
Ċĉ ĠĠ
sp awn
ds h
pro vide
Ġcon secutive
per p
app le
test While
ub ar
ĠS i
Ġout come
Ġax i
ci fic
ĠA real
ĠA rea
ĠA LL
df lt
": {
ind J
ĠP H
ĠP ort
Ġse ason
fe cha
Ġth res
32 2
bu fs
und ant
ĠN A
Ġpro of
our c
Ġj ava
Ġtime lapse
Ġnew shape
sub arr
batch sz
Ġ10 8
ĠG UI
Ġ6 7
ĠO FF
25 8
ON ENT
ĠW idth
do ctest
Ġgra fico
img type
Re ci
Test er
Ġsub s
Ġq aid
last ic
Pro d
Ġdo copt
Time out
math bb
pop ulate
txt Resultado
Ġ[[ ],
Ra dial
sim ulator
ev sd
Gra m
gener ations
ib ull
84 8
acc ents
ĠCon n
Ġlat ency
Ġlib rosa
Log its
high pass
rec het
sm allest
Output Type
ba selines
ank le
77 77
serial izer
pb p
pb utton
Form s
Th ree
'} }}
Ġsplit ed
SP Test
Ġlow est
Iter ations
fail s
Ġ201 8
AP PROX
px d
br ute
PAR AM
diffe rences
speed s
Sta ircase
bind ings
Ġregulari zed
va il
suffix es
BO TH
mor let
Pix map
Ġaut omatic
Ġhyper parameter
blk locs
Ġnom inal
Ġapprox im
SF R
Ġman datory
MD D
Low T
her it
Ġphot on
Hy brid
fen xing
åħ ĥ
Ġ[{ "
Ġunpack ed
ĠCont inuous
ĠTH IS
ĠLO G
Vi sibility
Masked Unary
Ġcapture d
Ġmak ing
Quantity Type
reci pi
Ġsing les
Ter ms
fli pud
La zy
Visual izer
Ġcha ins
THRESH OLD
adv ance
ocent ric
ĠDif ference
currentIndex Changed
ĠQuanti ty
WHI TE
Ġdamp ing
ä½£éĩĳ æĢ»
song idx
descend ant
éĿ ¢
SCAL AR
Speci al
setCheck State
MESS AGE
ufact urer
MaskedUnary Operation
ä½£éĩĳæĢ» è®¡
' _
+ -
5 50
7 07
A mount
A sia
C RAM
L os
M N
N an
P AD
T xt
T iles
U rl
V data
e pe
e og
f u
i at
i pt
m V
m ne
m ises
n occ
t stop
z l
z max
} >
Ġ older
in compatible
or ry
re cover
re straint
st l
al ert
de re
ra dd
ra man
Ġt st
le f
le q
ti linear
Ġp laced
ro utes
ro spy
Ġs atis
di fficult
() [:,
ol f
Ġm us
Ġm irror
Ġm cmc
ame s
Ġo ob
Ġo gr
)) *(
he ta
Ġ[ :
Ġa as
Ġa per
], "
id d
Ġd os
Ġd yn
Ġw o
set Pen
ode g
op i
Ġ== ======
Ġst retch
arg check
Ġx err
Ġx tc
ĠT Streamer
Ġe in
Ġe mul
Ġe jecta
im ity
Ġcon traction
Ġh x
Ġdi alect
per spec
test Cond
In dividual
zer odeg
ari al
ĠS ame
ĠS TE
ĠS UM
ĠS tack
ment al
Ġk ubric
cor respon
ĠA A
gra sp
add Layout
Data Types
ĠC v
ĠC he
ĠC ap
pre compute
pre proc
Ġ< <=
ĠR ES
ĠM ar
ĠM ixed
ĠN ow
sum ing
Ġlog in
ĠD s
ĠI d
ann eal
batch Size
Ġfile types
Ġpre ferred
Ġfi ve
ĠL y
Ġun ary
Ġ10 4
ĠB ar
cy c
ĠG P
LE ARNING
Ġcomp iler
Ġgra sp
off line
Ġsp am
og ic
ther m
ome ters
ME SH
ĠH amiltonian
bi directional
Set Sizer
au xiliary
Ġtrans lations
man ip
={ :
Str Formatter
33 9
04 0
Ġlo st
Ġlo ops
34 0
sv c
67 6
Get Property
Ġ'. ',
Dataset s
ld j
Ġgrid data
Ġts ne
nb asis
TH ETA
pr m
PO P
94 6
status Bar
cr f
oper ands
identi fy
Inter actor
Inter sect
regulari zed
MS G
Ġconvert ing
Per Layer
Ġ'-- ',
scatter plot
68 6
Start s
encoder s
Ġap ps
flag saver
tab ol
Ġoptim ized
Ġsw ir
feed er
replic ate
inst alled
Ġlinewidth s
Ġ$ $
NP Y
render ing
cn v
inu x
custom ers
Ġlearn ed
conver ge
ima ger
Ġdisc arded
Ġoption ally
æľ ĥ
Version Handler
Ġreplace ment
ĠNe ur
success ful
combined cat
Ġincre ments
ĠNet CDF
pic a
Freq s
pear ance
Stop ping
Figure Canvas
OFF SET
Cent ral
extended VersionHandler
Predict ed
ĠParameter Error
TAG S
reaction Model
Ġnr arr
)+' \
ĠDo uble
åĲ Ī
ĠMes sage
Ġdemo graphic
Ta pe
ĠRandomForest Regressor
Ġcri tical
ĠMonitor Tags
Ġtan h
kur tosis
Ġprun e
ĠVer tical
âĶĢâĶĢ âĶĢâĶĢ
Ġorbit al
MAT RIX
Measurement Gate
reconstruct ed
ĠGROUP BY
pep tide
Under Selection
acteri ze
KeyStr sList
sncl Id
kow ski
GPI O
æ¬ ¡
Neur on
avas cript
, ['
, %.
2 60
2 80
: ]).
C ast
C ROP
G AMMA
L y
M h
M aster
M ATCH
N m
O ct
P rep
R P
S AT
Z eros
f k
h ighest
j y
j ubba
k ts
m us
o es
p atience
r mul
s obel
t abs
v rt
x array
Ġ velocities
re tain
st mt
ar tile
de local
Ġt ÃŃ
Ġi clust
Ġn ll
Ġn ative
Ġn total
Ġn steps
ti zed
an ion
Ġp et
Ġ' ;
el vin
Ġm obilenet
', ('
Ġ1 99
un biased
he rence
um s
ex clusive
ex cluding
], :]
val idator
Ġb v
Ġb id
Ġd out
Ġd shape
Ġfor ms
est er
(' &
(' :')
Ġdef initions
Ġas semble
set Range
set Fixed
op hase
", )
'] (
Ġthe tas
par quet
ĠT P
ĠT ile
Ġy ank
list en
pro per
Ġcon ta
Ġdi visor
Ġr table
Ġr ather
Ġtest TensorArray
Ġde serialize
ĠS ha
min imal
bo unded
ss d
ph one
ĠP ow
ĠP DF
ĠP hi
ĠC M
ĠC loud
Ġse a
Ġ< ---
output Dir
ĠM A
ĠM ay
ĠN ell
text Changed
comp uter
"] +
Ġlog ic
ĠI gn
ĠF P
ĠF ind
ĠF ermionOperator
ft p
ĠE BV
Ġpre view
wor st
Ġpy otl
ion s
emp lo
ĠB a
ĠB ayes
Ġmat s
Ġmin max
ĠG round
20 2
ĠW or
av ing
',' ',
pp pp
ill er
Re corder
obj id
Ġsh ots
Ġsub cat
Ġ7 8
grad u
last icity
Ġthis Component
cf s
block ed
estim ation
14 3
RO LE
ca usal
face ts
19 60
All Close
Ġ12 1
open mp
Model Predictions
md p
Ġbin ner
su c
Ġmulti label
The se
CA ST
Ġextra ction
rec list
Pre sent
bas ics
UR S
oper and
cap ac
LI M
Point To
track ed
Ġtheta R
Ġhigh light
thread ing
aa h
lb tim
median s
Ad ds
('- ')
Ġsort order
Ġfra ctions
-> '
Ġlimit ed
Ġhe avy
short cut
proc ID
rl lib
Ġpack ages
MODE S
land s
Sta ges
Ġcc rs
bf gs
ĠGra usDeLib
fiden ces
Zero Flag
modi fier
pf doc
Non Zero
Ġur i
decor ate
abo ost
åı ĸ
ĠTra jectory
ĠIter ator
ĠMin Max
but ter
ÂłÂł Âł
Ġneighbor hood
ĠLay out
Go ogle
RMS D
Ġcontact s
ĠApp ly
LGBM Regressor
ĠNO TE
Ġche b
Positive Flag
Ġcvx py
Ġcvx opt
CannotContain Negative
CannotContain ZeroFlag
CannotContain PositiveFlag
Annot ations
ama zon
å¸ Ĥ
ĠEstim ator
ĠCalcul ation
åı¯ ä»¥
Ġmole cules
ĠMasked Image
explo sion
Ġpriv ate
bxtx d
assemb ly
Ġmos aic
META DATA
ĠAlg orithm
Chrom osome
Ġmig ration
TW O
Ġcarbon ara
actu ator
ĠKNeighbors Classifier
confid ent
perspec tive
ĠtÃŃ pica
CannotContainNegative Flag
+ ':
? ",
B ETA
C artesian
D ual
L ap
M organ
N ON
O O
O TH
O PS
Q VBoxLayout
S UN
S UCCESS
T run
U HF
W vl
X Size
[ {
] |
^ ',
_ '):
b end
c raft
d kw
d focc
e id
e be
f num
g ini
j e
l fw
n id
n time
n class
n avigation
o ised
p range
p isco
x n
y ms
z es
è ·
é Ĺ
Ġ éĢĻ
re j
st emp
al so
ar range
en rich
de cess
ra ken
Ġi line
me chan
Ġn sample
Ġn sigma
Ġn aa
Ġf graph
Ġp as
Ġc ue
Ġc wd
Ġ' >',
Ġin coming
Ġs on
el astic
Ġre index
Ġre indexed
() ].
Ġm ention
', ))
data File
ex ceed
ma d
], ))
Ġb wd
co in
Ġd L
Ġd ont
ad joint
Ġw ilhoit
set mask
get state
is ing
Ġst ub
Ġst uff
Ġst aircase
Ġg luon
ĠT E
ĠT s
ver ity
ver lap
ul ating
ĠĠĠĠĠĠĠĠĠĠĠĠĠĠĠĠ ĠĠĠĠĠĠĠĠĠĠĠĠ
([ ("
ax v
Ġv iz
Ġv igra
Ġh rf
Ġdi rections
test AData
Ġ3 84
ff tf
In v
Ġres o
ĠS C
ĠS U
Ġk th
ob ox
Ġor i
ci erge
ĠA z
Ġl u
cs m
input file
Data Adapter
=" /
ĠC C
random ized
ĠR ET
Ġ[] ),
ĠN AME
'' .
Ġpro totype
ĠF F
ĠF lag
Ġj s
64 4
sub ok
sub sets
ann on
Ġfi ber
ĠL GBM
print out
Ġob server
reg istered
sy sex
tensor board
20 42
do Action
Ġro bjects
bs z
pol l
Ġsub type
Ġsub package
Ġq req
30 3
100 38
ĠH eight
ĠV e
Pro grams
ĠU ns
query SQ
so ck
vec tive
Ġread out
normal ised
05 7
select ors
13 1
55 8
03 8
serv es
sqrt m
CT YPE
EN S
75 4
Ġph ys
Ġph eno
MP S
su ggest
Get Additional
cord ant
Ġsim u
Ġmulti index
35 6
90 9
NA tom
Ġbreak s
ĠTest ing
dic tive
eb NE
ple ase
sm c
No Data
Ġsu itable
SS ING
power law
post eriors
,:] *
"," +
optim um
Not es
ox i
Min Max
EX TRA
47 8
ĠAt tributes
Sub scri
Ġdiffe ren
uid c
Ġtr g
OT UNE
ä¸ º
Oper ating
OL UTION
Ġgl m
tool tip
={} ):
ĠPo sitive
================ ========
Ġls ctables
Linear Regression
ĠModel Chain
GR ID
Cor relation
Ġlink age
Ġbar s
pk t
rr ule
ĠDE SC
support s
Ġbackend s
pub med
Down load
Sol id
Ġgpu array
,:, :],
ste reo
ĠRandom Streams
Ġmid point
produ ce
TRAIN ABLE
Ġca usal
Year s
Sa ha
EP SILON
Ġeigen values
hom ogeneous
svm light
sto od
BE AM
bal anced
dn ams
atten na
"} ')
avig ator
ĠError s
Ġmemb er
Ġdup licates
composite codons
Ġaltern atives
Request ed
ĠSparse Array
Ġ^ =
pan els
perturb ation
Ġarrow props
equ iv
hub er
FR AG
depre cate
simpli fied
quarter ly
refine ment
HD PH
regress ors
æİ ī
precip itation
Ġinterpre ter
FIN AL
ĠLab els
Dock Widget
Ġeb N
Ġä¹ Ł
inten ance
Ġanom aly
Ġtriple ts
Lens Agent
fish er
copi ed
Arti cle
Ġneighbour s
CLO SE
CLASSIFI ERS
ĠAng le
Bayesian Network
ĠMis sing
Fo cal
REND ER
Rem ote
querySQ LS
* "
3 32
4 40
: '],
? ')
B uff
B ond
C X
C redentials
C lamp
D Q
F ly
G I
J OB
L s
L bl
M ols
N F
S orted
V irtual
X C
X min
Y s
c time
c dist
d L
d X
d theta
e th
e coli
g v
i h
i co
i mplemented
j vm
k dims
n name
n sample
n rep
n Points
p ink
t apers
v comp
w ls
} :{
Â ±
Ġ lip
se ctor
se ud
re covery
ar xiv
Ġt sv
Ġt orn
Ġi k
Ġi base
Ġi xs
Ġi raf
Ġi mplements
le ctor
as ons
Ġp rom
Ġp lug
Ġ' ='
Ġ' {}'.
Ġin ception
Ġin struction
Ġs j
di um
dat atypes
dat aloader
ur m
Ġm g
Ġm sk
Ġif ft
Ġ" +"
ma intainer
int ent
Ġb sp
lt able
co tisations
Ġd theta
Ġw alk
set Maximum
set Disabled
end ly
par ses
Ġg au
ter r
from File
=' |
=' %(
Ġy b
Ġy ellow
ax x
if o
to a
time scales
Ġcon ds
Ġr atios
Ġ3 65
Ġ3 27
all ph
all Chunks
max v
ep imemrslt
tra vail
Ġde ts
Ġout line
bo lo
bo ols
bo ston
ss s
df unc
us gs
ph ob
ts lib
ĠC ore
Ġse m
sc he
ir s
ĠM P
ĠN eg
read into
ĠI MP
ĠI NN
64 6
Ġmax X
Ġmax im
Ġz o
Ġ\ \\
Ġnew axis
sub tensor
IN CLUDE
ard own
Ġtra jectories
Con sole
Ġan imate
])) ]
emp i
'. ")
ĠB and
exp ansion
exp lained
nd iter
trans lated
]] ['
Co inc
',' +
RE T
RE CTION
Re v
Re moved
em u
Ġsh m
pa ces
Ġexp lo
Ġ7 84
Ex posure
ĠH TT
ĠU buntu
:] +
{} -
Set Title
block ing
fill ing
Dict s
Time Distributed
pl or
18 2
18 3
24 9
Ġtemp dir
All Bead
={ })
Ġ[" %
17 2
Ġgroup By
yn cio
su med
af er
Mat rices
Ġapp ended
Ġar ff
Ġar cs
35 9
nc ells
ĠCon struct
Ġ'\ '
zip File
proj ections
prod SourceLabel
Ġvector ize
NN Layer
folder s
INE D
Ġso il
SIZE S
Ġ200 9
Ġdepth s
gl Vertex
mut ual
observ able
Ġxy coords
aw s
47 4
ply angle
Mo le
ĠPro gress
compare Gradient
("% .
Ġpop ulations
ï¼ ī
Rep lica
dig m
He tero
Ġbl as
(',') ]
inst id
Ġå ħ
Ġphj Temp
diffe rentiable
PH I
car to
Ġtab lename
ĠInter polation
Ġassign ments
Tri angle
Pa cific
Factor s
Sparse Array
ĠCh art
vers arial
Ġidenti fiers
ĠFile s
Ġsens ors
Ġpr j
jac ent
Ġrender ing
ĠDate time
199 4
super cell
('{ :
ĠNe ural
Mag s
ĠAd jacency
enum ber
Ġprogress bar
ĠEn coder
Ġvol tage
SK Y
chart s
Engine ering
clo ses
Ġwavelength s
Ġpys al
ĠMet Unicode
histo grams
don or
stit ute
Ġrecomm ender
ĠUni versity
Ġoccur s
Dif ference
Child ren
Ġpn ts
organ ism
LGBM Classifier
Ext ent
ĠRNN Cell
Nested While
Video Capture
bol tz
fri ction
capital ize
persist ent
ĠMan ual
pearson r
canonical ize
ĠHow ever
Exist ing
bri di
ĠCount Vectorizer
Ġnele ca
Black Body
Ġabstract method
igi ble
Ġforecast s
STRU CT
Ġhook s
å¿ ħ
Ġxg boost
ĠBu ild
ĠUti ls
Ġphon on
Ġrepli cates
GROU PED
dkw m
Ġtorn ado
ĠINN ER
AllBead s
. "),
> .
> `.
B id
B etween
C b
C DB
F amily
H S
P as
Q Dialog
S end
U G
Z ip
[ ...
_ ).
a pex
c ps
d P
e co
e min
f at
f sv
g ro
g ist
g rounds
h mm
l ars
n str
n exp
n strs
r val
} ):
æ Į
æ į
ç ¶
è µ
in axes
in force
or ption
re views
al ance
sel y
sel ec
sel ections
de tailed
Ġn k
ti fication
Ġf uzz
as of
mp to
mp eg
Ġc th
Ġc ameras
ro te
ro les
ro graph
ro sen
it t
Ġs obel
di rections
el le
Ġre load
Ġre direct
dat os
Ġm w
Ġm as
Ġm type
Ġm tx
Ġm scales
ame se
si ette
un pickle
un certainties
Ġ" )"
Ġ" ../../
Ġ( ~
Ġa k
co uld
Ġfor get
(' __
set pfdoc
type of
up i
Ġst a
am an
Ġg n
ĠT e
ĠT w
ver ified
ul ers
ĠĠĠĠĠĠĠĠĠĠĠĠĠĠĠĠ ĠĠĠĠĠĠĠĠĠĠĠĠĠ
if gs
lin comb
Ġcon sum
Ġcon sol
Ġh ds
Ġdi sa
Ġr py
ew at
ub les
ta we
ta ken
In cre
ist ics
ĠS IGN
Ġk n
Ġk dtree
Ġu y
ĠA ction
ĠA SC
ss m
Ġ/ *
Ġpar alleli
Data Object
Data Item
mo e
tri vi
ĠP A
ĠP F
ĠP x
ĠP UR
ĠC os
fe male
Ġ4 80
mat hematical
random s
ĠR s
Ġbe m
Ġbe haviour
jo y
dim er
Ġlog L
Ġget ting
ĠF A
mask ing
sub missions
IN Y
Ġtra v
step size
Ġan tial
run ners
ĠB ASE
Ġ[' %
Ġshape d
exp rs
ger p
box style
Ġlabel pad
check sum
pol arity
Test TDescr
ĠV k
Pro tein
{} ]
SI d
Ġinter ior
initial izable
cont inu
Ġcom ma
Ċĉĉĉ ĠĠĠ
Ġpath way
24 3
Ġtemp o
RO WS
ĠEx pectation
19 80
flat nonzero
Ġ(" -
EN SE
DI RECT
Ġup cast
atom ical
Un structured
gr d
Mat Mul
stop ped
Ġdist fn
AB ASE
gn u
Ġblock size
fra merate
84 2
anti d
Lo ok
95 9
nb ands
Sp ring
draw Contours
Ġpoint wise
Ġextra polation
.], [
De termin
Ġ... '
Ġ... ')
[:] =
Ġpi cture
det rend
ee ded
Ġstop ping
gu es
correct ness
Ġwork load
Ġpad x
SP LIT
Sh ell
Mo lecule
VER T
Window Size
ĠPro ject
ä¸ ª
spect rogram
compare Cpu
Rep licates
Mask s
environ ments
89 3
Gradient Tape
inst ead
Ġauto encoder
hyper parameter
nm r
UP LE
Ġrep licate
Ġæ Ī
vid ers
ĠsetUp Class
Ġes sen
tw ist
Sign ature
SM TP
Ġproperty Array
PRE CI
Ġba selines
Ġnu clide
Ġrec IDs
Mass Corr
break point
Ġfail s
exc itation
Ġmodi fier
[_ ]
phj NewPostcodeVarName
Ġcomm unic
Ġvolume s
Ġprodu ction
ĠBy Category
Ġmonitor ing
andardi zed
wavelength s
Full ID
ITER ATIONS
Ġcnn Dict
Segment edColormap
Optim al
Ġflip ped
ĠME AN
prun ing
ATTRIBUTE S
Ġther mal
colour s
Ġplan es
Wave form
ĠPri ce
éĩ į
Ġclo ses
Learning Rate
Ġbrick s
Cho ice
Ġellip sis
san itize
Ġgg plot
ĠForest Estimator
abund ance
(":") [
Ġproper ly
ĠBasic Conv
phen otype
BOT TOM
Unpack Read
Amp litude
Ġmole cular
ĠLINE WIDTH
Ġsan itize
Alle le
Cmd Line
glTex Coord
Ġintrin sics
Ġpie ces
isol ated
tawe ewat
) "]
3 16
6 01
7 50
: "+
A g
A EN
B ed
C ha
G N
G xt
G REEN
I LE
M ID
Q A
Q E
R FP
X i
X max
] ?
a corr
a abb
b cb
d ns
e cs
e quation
f obj
f uzzy
g over
h ang
h sq
j pp
k ml
k inds
l ss
m il
n out
p he
p ps
p att
q i
r ts
r als
w ill
x dim
z able
} }$
ä ¿
Ġ ----------------
in out
in coming
or skip
re li
re bin
re combination
on als
st orm
st devs
er c
al bedo
de que
de tach
Ġi min
Ġn avigation
Ġf ish
Ġp cd
Ġc u
Ġ' =
Ġin tra
ge otransform
() `.
ol ist
un def
un labeled
Ġ0 4
ce p
data Frame
ex perts
Ġa mr
ot ors
Ġb ld
ch m
ch en
co pic
id nam
Ġ+ /-
ri gid
Ġw atch
Ġas ync
set Pos
get Object
get Parameter
con sume
up dater
': (
ĠT ran
=' >
=' *',
et ree
ax on
import orskip
Ċĉ Ġ
sp ital
cl ar
Ġv cs
log likelihood
Ġdata Type
Ġcon tr
Ġh ide
Ġh omo
test mod
os c
ub o
In formation
Ġde cide
ask px
ĠS m
min v
te bra
date util
ĠA V
Ġl ds
gra in
": '
ph eno
ĠP SF
fe et
01 89
sh arded
Ġth ink
eri odic
ls box
output file
ĠR F
ĠR R
ĠR edu
sc anner
Ġpro x
our ier
ĠD N
Ġget s
Ġz a
Ġnew mask
Ġal end
(), '
ine tic
Ġpo inter
Ġch at
ĠB A
Ġshape ly
main interface
25 00
base class
ec g
ec ut
Ġfe a
Ġro l
Ġro idb
right s
50 6
Ġsize of
DE LE
AL Y
ĠU sage
bi j
net CDF
filter ing
Ġrandom ize
view port
Ġ9 1
Ġ9 8
55 9
ui tive
my faz
ross um
PE AK
pack ing
Ġne ver
replace ment
factor ize
wh l
67 2
40 9
theta SR
stop fend
gn om
nb rs
CE LL
Ġsc en
ĠCon vection
Ġpoint ing
Ġfont name
PO L
ple x
link ed
itor io
corr up
ĠSt ream
Ġsm art
44 7
); \
DO Y
Qu ant
Ġwork flow
Params Func
29 3
Ġla w
9999 9
48 6
arc min
eli um
ĠImage Draw
very very
Ġnan ops
clear ance
ĠPro blem
interpol ator
Mod al
Sum Of
Ġgl Vertex
Ġcap ital
09 10038
ĠComp osite
rees ur
Def s
del item
Ġmark ed
aml n
aggreg ated
Binary Operation
ĠRes olution
ĠRes ponse
play s
Ġrec array
MM Transitions
Ġnest erov
unstack ed
ste er
Ġfail ures
Ġpartition er
Ġdepend ent
Ġsymbol ic
phy lop
ä» £
Ġrc mod
Ġtrun cation
foot er
Ġ150 597
Ġevery thing
Over flowError
Sc enario
Ġfetch es
ĠNaN s
Ġprodu ces
sal es
amplitude s
keypoints Inside
atten ded
Ġassoci ation
Uti lities
ĠSp ace
some thing
éĢ ²
Task ID
AUT OTUNE
================================ ========
augment ation
/* ')
semi logx
BM Gxt
fortran array
vir us
ĠND Array
Ġtim ing
through put
Ġtun ed
Ġretri eve
consum ers
agn key
Ġow ner
Drop box
ĠOptim ization
Success fully
ĠOUT PUT
ament al
Aux Coord
ĠCar lo
Ġmach ines
Ġchem ical
rang ian
Emp loyment
Ġali ases
dere rs
Ġ150597 0910038
" ^
' ``,
* )
, ',
, )]
, ]*
, ...]
. '):
5 77
: @
A mb
A ss
B row
B PM
C PP
D il
F used
G est
G FT
K G
M star
M illi
O x
P res
P ops
P ivot
Q Action
Q TL
R M
R ace
S ti
S outh
S peaker
V GP
Z a
\ ":
b file
b rand
b ear
c sp
c ds
d J
h w
i dim
i actwp
k umagai
l us
n classes
n Objs
p al
p rensor
q pos
r fp
s col
s oc
s peaker
w new
x len
y d
z lib
Ã ¡
é ¡
in cl
in cipal
in spiral
or ography
re en
on ym
Ġt ank
Ġn bytes
Ġn lp
ti mage
Ġf num
mp fit
Ġp lev
Ġ' ('
Ġin pt
Ġs gn
di tive
() "
Ġm ir
Ġo o
Ġ0 7
um ann
data Type
Ġ[ (-
Ġa mon
ser r
li zation
ot ed
Ġb st
Ġb ench
Ġd q
Ġfor ced
Ġw est
(' //
Ġas anyarray
__ ).
set Icon
is sues
ab lish
Ġst dev
ĠT OT
=' {}_
np ly
to w
ds PerRegion
ens ation
tra ced
Ġde cs
ist ags
ĠS pectral
ĠS DAFile
Ġco var
Ġop name
Ġl x
10 29
=" "
ts ne
model Name
ĠC R
pre train
pre fs
Ġth ings
ag ain
ĠR out
ast ro
ĠM SE
ĠM entionDatum
map Settings
vel s
Ġlog prob
ĠF ace
Ġj w
Ġz g
Ġnew size
sub script
ĠL x
Ġun install
AT IVE
Ġch ron
99 2
St atistic
11 52
lob pcg
stri ke
ef it
ign ored
graph viz
ĠW s
Di stances
Ġmask ing
Ar t
sen ders
Name space
pa ired
ome d
Ex tended
')) ):
ĠV ol
SE PAR
Ġstate ful
ns pec
02 9
05 9
Ġ9 2
call ing
db scan
open cv
Ġpos sibly
Ġph is
33 4
Variable Reference
04 4
Ġcontinue Routine
Ġbase dir
CH ROM
Al ready
ash er
Ġad c
mi tives
Ġtop ics
Widget Item
84 4
side walk
35 8
95 6
Ġinfo dict
Ġ.. ..
Fe b
font Size
87 0
87 6
Ġ'\ \
gt l
De ad
Ġmon o
Ġsu doku
ĠCo v
nal og
Ġpl as
CC D
Ġtag ged
termin als
Ġ200 8
)- (
clu sions
NO M
lb r
cd l
ĊĠĠĠĠĠĠĠĠĠĠĠĠĠĠĠĠĠĠĠĠĠĠĠĠĠĠĠĠĠĠĠĠĠĠĠĠĠĠĠĠĠĠĠĠĠĠĠĠĠĠĠĠĠĠĠĠĠĠĠĠĠĠĠĠĠĠĠĠĠĠĠĠ ĠĠ
stream ing
Cal ib
Cal endar
Ġproj ections
VER BOSE
From File
cb h
IS H
IS M
Grid Spec
tran sp
Ġsha res
OP TION
Ġmp u
000000 01
AP P
Ġimp lies
fold ing
syn th
Ġsamp l
cycle Stage
ĠInput s
sched ulers
Down loading
lex sorted
cla use
Ġconver ts
Zero Padding
Ġgood args
PY SYN
Ġunder stood
week ly
Ġmd l
Ġeigen vector
expression s
Ġed itor
Coef ficient
Elements Array
Ġgal data
Ġstation ary
Ġ'* ',
sens us
ĠBin ned
tech s
ĠNetwork Code
Sw ap
Ġdescri ptions
leak age
intersect s
Ġcollect ed
Ġhold ing
Ġtar file
ĠPO INTER
chainer x
jan uary
Ġextre mes
Ġprun ing
Ġmk dir
ĠGR U
ĠRender Targets
Board Vector
elementBoundary ElementsArray
Fail ure
shock Capturing
å¼ Ģ
seis mic
('= ')[
Ġmarg inal
TIT ION
Ġded ges
Ġvsd in
ĠSc enario
ĠCir cular
ĠSky Coord
Question Type
ĠParam Sklearn
WEB SEARCH
Life cycleStage
ĠSyn thetic
Rich ards
punct uation
kMotor Status
åİ »
Observ able
ĠMF CC
setCurrent Index
ĠAss u
Ġoverrid en
CATE G
stu dies
ESTIM ATORS
Leak y
bridi ze
CDB S
( ())
) '.
) $')
+ -----------------------------------------------+
- ")
. **
. )*
7 20
8 18
= <
> [
> "]
B io
B rain
C TED
C lothNode
D RAW
D Transpose
G a
M utation
M Hz
N ear
O THER
R U
R dm
S pect
T oggle
W arp
Y ES
] _,
b ak
d U
d Y
d ont
g vcf
h ann
h diag
i u
i col
i line
i vector
l name
l angle
m time
r min
s labs
t u
t te
u ated
v arnm
y b
å Ĩ
æ ĻĤ
è ĩ
Ģ æľī
in files
in sides
re ls
re als
re servoir
st ones
st aircase
al ts
ar ily
de o
de li
Ġt el
Ġt arg
Ġt ib
Ġi ce
Ġi rf
le ap
Ġn ip
Ġn ns
ti ca
as fortranarray
an es
Ġs om
Ġs apt
Ġs atisfied
di vs
el m
() ["
Ġm z
ame l
un ts
Ġ" %(
um ing
fi es
fi ling
ex change
Ġ( ):
int uitive
Ġb ulk
Ġd max
Ġfor ces
est ring
ri ers
Ġw rt
set Axis
get MethodName
op ath
op oly
qu er
ray leigh
Ġst oring
'] ]['
po sa
Ġx v
Ġx coords
par set
ap h
from method
ver tible
np er
ul let
ĠĠĠĠĠĠĠĠĠĠĠĠĠĠĠĠ ĠĠĠĠĠĠĠĠĠĠ
sp ider
Ġv an
Ġv id
log q
Ġh k
Ġh at
Ġdi rout
Ġdi hedral
Ġtest Invalid
ass cf
sa a
tr c
tr unk
Ġres name
append Child
ĠS a
ĠS IM
Ġco variances
ĠA bins
Ġtf b
Data Handler
mo dis
Ġth unk
ĠM ON
ĠM ini
ĠM star
ĠN B
ĠN p
ĠN ussel
for cing
Ġlog sumexp
ĠF low
Ġj et
Ġen codings
ip ts
Ġmax x
sample Tab
Ġat tack
Ġal locate
Ġ{} "
ĠL s
ĠL in
print er
Ġan ti
Ġpo ses
Ġch anging
Ġpy mongo
St udy
Di rac
ec hem
matrix dim
pol lant
level Set
DE LAY
Ġsub classes
Ġq nn
err no
dot ted
Ġ7 20
ĠH elper
gen sim
ĠV AR
ĠQ PushButton
ĠU B
ĠU TC
bar h
Ġarg max
SI X
cli ps
Ġend date
AG N
Time DataFrame
TE NT
Ġread only
Ġtrans lator
eval f
Ġiter ative
Cl one
make TimeDataFrame
Ġfa iss
Ġwr f
center ing
Ġtmp file
67 9
Out liers
pon ent
vs ini
char acters
([' %
ĠPar ams
Ġinfo Layout
27 4
ĠTest s
37 9
pr ng
Ġdep ending
Text Ctrl
94 4
97 6
Log istic
De velopment
No Value
ba h
cel ist
dis arm
skip Test
sec err
vide os
Trans late
Node Def
Ġdivision s
mut ated
Ġpad y
fl ann
cri me
quanti zation
NO ISE
SP READ
Multi variate
Ġmag s
Ġab ort
IM AL
IM AGES
OP R
Des ired
Ġaverage d
Ġaverage s
Cur ves
TR Y
ĠTensor Array
He aviside
Do es
Do cs
Ġview er
chi ef
ĠPo ints
Ġå Ī
Level Set
mer ra
Module List
Ġlw c
Ġdesc ent
Ġcheckpoint able
Dep recated
Ġcg at
ĠIN TEGER
Ġquanti ze
Ġquanti ties
Method Error
Proto col
rx ns
ĠConv olution
zen ith
Ġaff inity
ä» ·
Copy From
Ġshort est
Sty les
bon ded
Ġanaly zed
Ġvisual izer
Over lay
nom ask
bid px
ĠFloat ing
Ġslope s
Fin der
rac tical
Ġbyte seq
ĠText ure
ĠHe re
Summary Writer
nam ing
Ġair flow
bro ken
ali ties
ĠHDF writer
Alg Error
Ġreplic as
Ġlet ters
SPE ED
Short fall
anom aly
ĠSI MPLE
åĽ ¾
Ġconti guous
Annot ation
Ca use
FIFF V
Eff ects
iem ann
ĠSci entific
Dy graph
åī į
fon ts
Ġded ent
Self Attention
("/") [-
thumb nail
Da ily
ROT ATION
ĠQuant um
Inception V
ĠDetermin es
viri dis
ĠCylinder s
scissa e
urch ill
Subscri ber
HDPH MMTransitions
ĠPUR POSE
Ġbld g
ĠTOT AL
ĠNussel t
. '],
0 87
2 100
3 80
6 000
A DF
A IC
C tr
C ML
D ou
E nglish
G lob
L am
L ev
L AND
M em
M IC
N ING
N orth
O k
P et
P db
Q Object
R SS
R NG
S ound
T onic
T REE
V K
V P
V an
W s
W est
X avier
] '),
] //
` '
a M
a unay
c ers
e o
f ret
g jr
i os
i NaT
k args
l dt
l mbda
m sa
m stats
m SASP
m ichigan
n in
n ick
n atoms
n Space
p A
r table
r rect
r ites
s lo
s lip
u ite
w fs
z metal
è ½
in stant
in act
in verter
in Tangent
re cycl
ra re
Ġn ans
Ġf tol
Ġf lex
Ġc min
Ġ' ))
di ble
Ġre straint
Ġre stored
Ġre servoir
ur istic
() '
ol in
ol ine
un ix
un ivariate
)) })
Ġ( +
Ġa dim
Ġd J
Ġd ry
Ġw c
]) *(
__ ']
set Frame
set Style
get int
get var
th ought
op ls
is ance
con cept
Ġ* )
'] ]]
'] [:-
Ġx k
end ul
Ġg Con
ĠT a
ĠT ag
to co
Ġh diag
Ġ: =
Ġto k
ep ic
In fer
ĠS N
cor red
Ġu c
Ġu z
vi o
vi ance
ĠA UT
ĠA vg
input node
ph ant
mo val
mo vies
pre amble
Ġth us
ĠR V
Ġ[] ]
ir regular
ĠM achine
Ġpro vider
Ġpro ceed
for get
Ġlog y
ĠI A
ĠF ull
eg gs
12 75
ĠL P
000 4
Ġch ilds
Ġmin T
ĠG lue
sy st
graph HeightConst
cent ripetal
ill ary
Ar row
ref uge
Ġver b
Ġplot figure
Ġsh ut
Ġall reduce
Ġuse mask
Par tial
ĠH s
ĠV irtual
ĠQ gs
ĠQ Label
SI C
bi lities
SE C
SE CTION
([[ [[
property Array
]], [
ĠIn fo
CO UN
transform ations
multi p
Ġ(" \
All Reduce
Ġreg istration
open cl
fla x
uni ties
RA C
sort order
ga ins
34 3
Ġmsg type
su doku
mplement ation
lip se
Ġraw fmax
Box Size
Le ase
)+ "\
ide al
ple v
kw ik
upper case
bas in
air mass
26 3
post code
44 3
Ġroot name
fer mi
sql alchemy
Config Parser
vis cosity
Per sist
CON TO
Ver bose
47 9
che mistry
ond on
star tidx
Ġap pe
Ġdet rend
LECT ION
Ġci vec
Ġpop ulate
Oper ators
Ġgl Clear
IL L
Ġrespon ses
Ġcos mics
ĠVariable s
sf h
Ġnc cl
syn apse
******** ****
PRO CESS
Meta Feature
ĠComp utation
Ġlink ed
way points
TIME OUT
TIME STAMP
%% "
least sq
ĠRes hape
Ġsqu ad
Ġperform ing
ĠRa dio
ĠDe cisionTreeClassifier
Loss With
199 5
Mag nitude
switch es
Ġport s
SIG INT
PR INT
ĠABC DataFrame
ĠCom mand
Ġve ct
Ġhand led
Style BW
BE G
ĠPol ynomial
Jo hn
Station Info
ĠDis play
mos quit
Month End
ĠAl low
Segment ation
Ġweb search
recogn ition
jump s
plo titem
Dif ferences
LEV ELS
Ġcmp rt
buy sell
ĠNormal ize
ĠPa ul
Ġpersist ence
Rece iver
horiz on
dss FileLoc
++++ ++++
Sensor s
ĠEv ents
antial ias
ĠCoord inate
TIT LE
Ġæľ ī
Ġåı ¯
Bl ur
ĠHy per
Stamp ed
ctw cc
uren ces
ĠGo ogle
ĠWITH OUT
abol a
memo ize
leav ed
Ġlik ely
Ġthermo data
dsh ifts
Ġein sum
inforce ment
Ġamr data
reesur fer
recycl ing
endul um
corred or
' ;
. """,
8 80
9 11
A ctions
A linea
D ash
E psilon
G i
G row
G HI
I LED
L p
P hysical
Q w
Q Pen
R idge
R anker
S LI
S quared
T LE
T UPLE
U ME
V ri
V hh
W I
W iki
Y Size
] [::-
a is
a oi
b net
c it
c min
d pt
d omin
e per
e ment
e rer
f uzz
f rechet
g cs
g us
h list
h ls
h mean
h ud
h wnd
j w
j acobi
k ed
k ascade
l al
l ar
m other
n lat
r pn
s ar
s lug
s lobj
s lsq
t ad
t angent
u ic
u sive
y er
{ %
Ñ ģ
é Ļ
ĉ ĠĠĠ
Ġ ë
Ġ ari
in de
in ent
at ar
st reak
st ages
en ough
Ġi ca
me aring
Ġn j
Ġn chan
ti an
ti ed
as matrix
Ġc aching
Ġ' ?',
Ġs cl
Ġs sc
Ġs olutions
Ġre writer
Ġre dshift
Ġm asses
Ġm ontant
ed o
Ġ" ="
Ġ" "))
he tero
def ect
data gen
Ġa y
Ġa way
ma e
], (
Ġb ag
Ġb io
Ġb colors
Ġnp z
id ences
Ġd cg
est ig
Ġw y
(' '.
get Energy
ck le
and o
Ġ2 30
Ġ2 73
up dating
ve led
Ġx val
Ġg litch
from keys
=' $
=' -
Ġex on
out line
out File
out Dir
out Tangent
shape file
Ġe ma
Ġe mpirical
import ant
sp ans
pro totype
log det
Ġdata Dict
Ġdi richlet
test ream
ump f
assert Device
assert Configure
assert CML
tr x
ari os
Ġk b
art en
ob tained
gra ce
num Stages
Ġra ce
input Dict
Ġme chanism
ĠP C
ĠP lane
ĠC S
ĠC ent
fe asible
Ġ4 04
output Directory
map q
point ing
"] },
join s
ĠI K
var names
Ġoutput node
Ġal len
Ġal ive
ĠE M
ĠE ngine
IN VALID
Ġ{} ))
ĠL and
ĠL DA
ĠL asso
Ġun pickle
Ġle me
ĠB ayesian
ST RE
ix el
ne q
ne cessary
den ce
den oise
Ġ(' +
LE TON
25 2
ON S
fit corr
av gs
Re peat
com ma
16 3
Ġplot ly
Ġplot StyleBW
pa int
AL F
the ore
mon te
15 1
ĠV ideo
Ġfig name
ID F
Ġdo ck
ĠRe move
math text
sk in
ĠIn clude
stra ined
Ġper centiles
CO EFF
not na
ton s
sqrt n
du ra
Ġstep size
tick store
Tensor Like
Ra di
75 6
mag net
PE OE
Ġne o
Ġne on
mu x
Num s
Ġsim on
gg plot
Input Layer
Ġraw fmin
Ġmod ulation
27 9
nb its
45 9
filt stamp
ulari zation
full Body
font name
Ġsc roll
Ġattr name
Ġpol ynomials
`` :
Ġerr msg
Ġbi om
De code
Ġ... "
Ġ... ],
Ġmon otonic
Pre Action
Comp uted
lr d
Ġlocal Mu
Ġinst agram
cer t
98 039
mass Corr
Trans fer
Ġsol ubility
wave function
Ġrel res
Ġdat et
fl x
aw sm
Ġoptimizer s
ĠAt tribute
eli hoods
Sub tensor
ĊĠĠĠĠĠĠĠĠĠĠĠĠĠĠĠĠĠĠĠĠĠĠĠĠĠĠĠĠĠĠĠĠĠĠĠĠĠĠĠĠĠĠĠĠĠĠĠĠĠĠĠĠĠĠĠĠĠĠĠĠĠĠĠĠĠĠĠĠĠĠĠĠ ĠĠĠĠĠĠĠĠĠĠĠĠĠ
ĊĠĠĠĠĠĠĠĠĠĠĠĠĠĠĠĠĠĠĠĠĠĠĠĠĠĠĠĠĠĠĠĠĠĠĠĠĠĠĠĠĠĠĠĠĠĠĠĠĠĠĠĠĠĠĠĠĠĠĠĠĠĠĠĠĠĠĠĠĠĠĠĠ ĠĠĠĠĠĠĠĠĠĠĠĠĠĠ
Ġprefix es
Sh ut
From Host
oo oo
inc idence
elect ric
BU IL
Ġpop up
SH EY
Ġ"_ ".
AP T
imp rove
ĠDi richlet
ML P
Ġpack ing
View s
ĠCol lection
abc def
Ġprior itized
FO RE
HER SHEY
Grad Grad
Ġdetermin ing
Ge om
Ġvi sion
BO OST
ĠSet tings
cip line
NG Key
arrow style
Ref resh
ĠRandom State
hex digest
Ġfraction al
Constant Fill
ĠGener ator
foot Indexes
Over lap
Global Mass
Place ment
extre ma
Ġ"{} "
"> <
COMP ONENT
por a
Head ing
ĠMO DE
Ġlt able
Extra ction
DEN SITY
Ġmi di
don nees
ĠME M
Dif feren
Ġdisk stat
Ġsci kit
semi logy
ĠPAR A
ĠPandas Object
Ċĉĉĉĉĉĉĉĉĉĉ ĉ
Ġstrict ly
+"/ "+
Diag onal
åĽ ŀ
Ġinterpre t
Ġzm q
oy ancy
ORD IN
Mark ers
ĠOper ator
Rece ived
ĠRMS D
INIT IAL
Elect ron
Ġste reo
Ġprep end
ĠEd ge
ĠEd itor
Ġquot ing
Ġide al
ĠSto ck
Ġhalo data
Alle les
Ġperturb ation
Ġvsd out
Ints List
ĠTfidf Vectorizer
VERG ENCE
METRI C
EXAMPLE S
traite ment
AMB DA
Diameters Array
refuge elike
assertConfigure Fails
massCorr Model
* ",
/ '):
0 85
A in
A bins
B x
D eps
E z
F ER
F LI
I Python
J K
K wargs
K IT
N W
R g
S AR
S UR
S KE
S olve
S parsity
S CORE
X y
b M
b name
b ss
c linical
d phi
f q
i row
k st
l j
n var
n rm
p acing
q data
r sqrt
s ketch
u y
v able
x Node
y lat
z pf
} ])
ä ¼
é ĥ½
Ġ art
Ġ qualifier
or eg
re ml
st atistical
Ġt name
Ġt ele
Ġt omo
me sg
me ca
Ġn var
Ġn cts
Ġf ct
Ġf lt
Ġf ab
Ġf beta
an al
an tic
Ġp al
Ġp lafond
Ġc ms
Ġc au
Ġc aught
Ġ' :'
Ġ' )')
Ġs A
Ġs lab
Ġs cs
Ġs lr
Ġre pl
ma mm
Ġb ayes
Ġb ird
Ġfor e
Ġw ire
get ools
con cepts
Ġ2 05
Ġst p
end date
par ture
Ġg sd
np s
out f
Ġy end
ht m
Ġe w
Ġe max
Ġe cg
lin regress
lin estyles
to y
file mod
Ġcon former
Ġcon vection
Ġh id
Ġh oriz
Ġdi f
Ġdi rec
Ġdi scre
Ġ{ {
ta vg
In i
tra v
Ġprint er
ist a
min y
Ġk max
Ġk alman
ob ama
Ġu u
ms k
ms m
ĠA D
fo od
ph h
mo ds
ĠP andaID
ls m
Ġdf mix
da mage
ag onal
sc att
ĠN ifti
read Registry
Ġlog q
ĠD C
()) ])
lit z
start fend
Ġmax it
Ġmax Val
lat tr
sub query
Ġal location
Ġob spy
ĠX s
Ġpy pi
bin bounds
exp time
nd v
Ġcl r
trans lator
inter f
pos x
LE ASE
Co mplete
nn a
ĠW here
ĠW ait
do i
sign s
pp g
RE AL
son s
Re quire
Ġsp matrix
save dir
og en
DE O
ance stral
ĠH ill
ok es
ĠV olume
Ġma il
Ġarg min
SI R
Ġdo ing
ĠRe cord
math tt
man de
man ufacturer
axes B
radi an
55 6
ca f
Ġzip ped
19 00
inf inity
75 9
Variable Aggregation
Ġsig s
MP xNode
Ġformat ting
mi um
En code
div is
sin ks
cache dir
find Contours
Ġover rides
Ġbox size
Ġcent re
Se ek
06 9
day List
Ġfont properties
Ġback up
Ġstruct ures
Ġge ometric
has hable
28 3
cap tions
Ġsm f
fin ance
SA C
98 2
gu id
38 2
present ation
Ġwork dir
:]) /
+" _"+
cri min
ĠPy Torch
SP P
Ad aptive
Ġign oring
Ġredu cer
ĠPro file
Ġty pically
Pol ar
Ġci string
Ġsen ti
ĠOr dered
Gradient Boosting
Medi a
Ġtran sport
PRO B
wp idx
TRA DE
Cor ners
car riers
PRE V
Pa use
Ġfh d
Lat ency
QU EN
Ġaggreg ated
{}_ {}_
Mix ture
Ġreport ing
nor mpath
ĠMe asure
Ġcorr up
Ġmodi fication
Mis match
Match er
Average d
Ġca Obj
Ġcast ed
Ġç Ľ´æİ¥
Ġeigen value
ĠSim Params
ĠCom bin
Ġcam col
Ġve hicle
Ġaccum ulators
Ġlook s
Ġsphere Position
BIN S
ĠIM F
Ġ"{} "'.
=", ",
bayes net
Eval Type
Head Richards
brick s
prun ed
æķ Ī
consol idated
resamp ler
å® ĥ
Experiment al
Ġinnov ation
Deg rees
sas m
SPE C
SCP D
interest ing
Ġattemp ts
Audio Frames
ĠSpecifi c
ĠND CG
ACT IV
ĠTI FF
ĠRob erta
ĠAp prox
Ġcand les
DESC RI
director ies
Ġvirtual env
quick sort
Rew ard
settle ment
Elem wise
ĠCOR RELATION
spiketrain s
ĠRet ri
'> )
Dup licate
twin x
çĦ ¡
])+' -'+
bathymetry Func
haplo type
ä¹° åįĸ
ĠPriority Ndarray
æ¸ ¬
CONTIG UOUS
Ġmonkey patch
ĠSIGN AL
BOOST ING
filemod ulators
readRegistry Keys
' ^
' ',
( {}
3 18
5 49
A ex
A nn
A sk
A CTION
B Z
B m
C u
C ri
D ag
E Q
F ITS
H U
H alo
H OLD
I Q
L ive
M NE
N r
N ell
N ED
P SI
Q MainWindow
R ings
S PECT
T t
W P
W V
W hat
c ti
d W
f ew
h eld
k end
k Hz
n as
n oc
n rt
n frames
p ile
s sa
s lave
t et
w info
w edge
x REF
z A
Ħ ı
se quent
in clusive
at able
at tribs
re covered
st udent
al locate
Ġt pl
Ġt iled
Ġt cp
Ġn in
Ġn lenses
ti e
Ġf u
Ġf set
Ġf nc
Ġf isher
an onymous
Ġp ep
Ġp cs
Ġp rm
Ġc max
Ġc ros
pe ek
Ġ' [-
Ġin set
Ġs st
Ġs fs
Ġs bm
Ġs lobj
Ġs lightly
Ġm df
Ġm dtype
Ġm ys
Ġm other
Ġm tl
Ġo ctave
Ġo echem
Ġ1 48
he rent
ing Fig
data value
la cing
ot u
Ġb are
Ġb ank
Ġb ernoulli
co ok
Ġd rag
est ro
ri al
Ġw aves
Ġw ildcard
(' ~
Ġdef erred
__ _
set Auto
get pid
ode sic
ck ey
op Provider
con Type
and oc
Ġ2 22
am r
Ġg aps
ver tebra
Ġex cel
ul sion
out filename
et une
Ġy ticks
Ġy Coeff
list a
Ġe gy
Ġ_ ():
pro te
pro logue
pro mpt
Ġv u
Ġv gm
Ġdata points
Ġh ub
Ġdi dn
Ġr k
ass calar
il led
il bert
tr n
In dian
In Chunk
tra xels
Ġde tailed
Ġde viations
ĠS parsity
ĠS Beta
Ġco in
Ġra s
Ġra vel
Ġcol lapse
=" +
ĠP ick
ĠP Dist
ĠC Beta
ĠC artesian
Ġse xt
Ġse quential
Ġth umb
ls Model
ag o
ĠR D
Ġpro s
Ġpro mpt
comp ilation
comp arisons
for bid
ĠD type
ĠD ay
ĠD ATE
ĠF IT
Ġj edi
ll vm
var in
wr k
Ġnew dict
sub region
batch T
=[ [[
Ġle ak
AT C
run Test
])) [
ĠB O
ST AND
trans lations
Ġcomp utations
ĠW ARNING
ref raction
Ġro unded
save file
Ġim resize
work load
Ġplot options
Ġplot Ind
ild j
Ġq res
pa ren
pa uli
Ġexp lained
height s
round ing
Ex cel
ĠV ocab
cf fi
std coo
ĠU pper
cont inuum
Ġdo i
Ġconfig ured
lic able
02 1
'][ ...]
pl r
TE X
Ġ} }
create Dimension
ĠY note
axes A
total Point
Ġmo ved
Ġmo ves
seq len
Ġmethod Name
multi taper
19 75
current ly
60 6
Ġmatch er
Ch k
mis sed
mt d
msg type
cast er
*( \
element BoundaryQuadrature
over rides
ib z
Ġright Now
Ġmulti class
embed der
Ġdiff ers
Ġdist ort
Ob serve
Ġsave file
gre at
Ġunit ary
45 4
region key
87 7
PO LY
Ġtri ps
fici encies
]+ [
sw s
shift Ratio
Ġnon linear
ĠCo uld
lr n
ĠSt atic
stru c
hi ve
job lib
classifi ed
Int Time
Inter mediate
Ġany thing
'} ),
With out
Ad vanced
IM UM
IM READ
ĠPro perties
Bin ned
tran sparent
Ġdir path
prior ities
Ġmp atches
Ġsearch sorted
px map
Ġpost eriors
Ne ighbor
vtk PolyData
rest ing
Ġstream er
New ton
wp name
CS F
Ġannot ated
}{ :
mer ging
gui ded
gui win
car rier
TF E
mix in
pare to
Rect F
Cre ation
cla des
ãĢ ģ
ĠBo ost
trip les
Work flow
Ġshared X
}" '.
integr als
eig val
quant um
SER V
Write Path
Generator TestCase
Ġindi cies
Ġvisual ization
Cap tion
PR NGKey
Ġman ually
wra pping
Ġaccum ulate
reject ed
Ġho le
=", ")
Pack et
Phot ometry
DD NNLayer
tmax z
Std Dev
some value
Ġthrough put
Ġmotion Num
Ġsr cs
tech ni
Go od
('$ \\
ARE ST
ĠME THOD
Fl ush
Dif ferent
Ġrout ines
ĠOpen GL
ĠCON FIG
åĬ ¨
hal py
uds on
ĠNormal ization
ĠStart ing
implement ation
CHECK ING
FFFF FF
WA VE
jan us
Ġmer ging
CUDA Place
æĹ ¥
Ġdash es
caffe model
Ġfall ing
ongo Client
Prior ity
epi logue
imeca NO
DOC STRING
mun p
ĠSci ence
Defaults HelpFormatter
ĠEl lipsis
ĠCre ates
ĠphjPostcode CheckVarName
Ġintern ational
Ġmarg ins
MFn Numeric
CHANN EL
declare Property
QUE UE
cann y
Ġpin ned
Ġblen d
Ġfancy box
ĠChar acter
ĠNamed TemporaryFile
gys ystem
ĠEL SE
POR TED
eni ence
amen ity
labl shift
ogic Period
axv span
empi rical
ĠHTT P
mpto tic
jpp cf
Qw AB
$ ,
' <
, :-
3 30
8 14
A h
B LOB
B ORDER
C v
C uda
C vt
D H
E ig
F Y
G as
G MM
G Hz
J aguar
K Y
L is
L ater
L aw
M en
M LE
M yr
O C
Q HBoxLayout
S pherical
T ube
V EN
a use
b int
b idden
c def
c name
c numpy
g les
g ive
i si
l ds
n ur
n sigma
p type
p format
q m
q z
r sub
s sim
s ld
s atisfied
t ci
w len
y our
ª Ķ
æ ¡
æ ¶
Ġ ä¸ĭ
se ase
in dicators
or tional
al ex
al gebra
sel s
en hancer
de SerializeFile
ra cket
Ġt stop
Ġt iff
Ġi ir
Ġi jk
Ġi ldj
me te
Ġn type
Ġn ii
ti er
Ġf k
Ġp value
Ġp anda
Ġp cophore
Ġc losure
ro ker
ut m
ge odetic
): \
Ġs fh
ct p
Ġm one
Ġm ds
ame an
Ġ1 100
Ġ1 44
un zip
Ġ" ").
ue tte
la dder
Ġ[ (),
ma intenance
li quid
ot ing
Ġb ow
co alescent
id l
-- ",
ad as
(' *
Ġas p
__ }
set diff
set Input
get size
') "
is kit
con ta
con tained
res ses
res ID
Ġ- \
up lim
end rift
Ġg tf
Ġg ues
(" {:
ul ls
Ġy dat
") +
") }
if u
if ty
to do
pro blems
Ġv len
col on
log normal
Ġcon servative
Ġh el
Ġdi ver
Ġr ti
Ġto a
tr f
key ed
In dx
Ġde var
ĠS w
ĠS ent
ĠS ac
ĠS SP
mb l
ob st
Ġco locate
ĠA P
ĠA rc
ĠA DI
Ġl map
Ġcol sample
Data frame
ĠP e
ĠP LOT
pre Range
pre ferences
pre senter
Ġth ick
row col
ir ch
ĠM S
ĠM AT
text ures
pi v
ĠD y
ĠF LO
oc ular
image data
ho o
Ġz c
Ġz l
Ġ\ (
12 05
Ġle x
ER T
print able
iz ip
ĠX i
Ġval idated
Ġ[' /
Ġmat urity
ps roi
trans Data
trans mission
pos ite
no se
no value
no apply
Ġon sets
ak ing
av Sol
Ġsp ans
work book
16 00
tx y
}) '
ome s
Ex pect
ĠH F
ĠH AVE
ĠQ wt
ĠQ Application
Pro bs
ant asy
Ġconfig parser
... )
05 8
05 88
19 50
du ctivity
Ġframe logprob
Ġsy stems
Ġsy ntax
open File
mag enta
UT H
ev ing
ev olve
RA P
Ġref lect
Ġref ractory
factor ial
CH I
user Info
40 96
stop words
Ġdiff er
Ġarr ty
Ġar ri
Ġconv ex
Ġpick ed
DF T
sup p
Se cs
Ġheight s
Ġtri ples
Ġlat ex
_{ %
pad s
Ġmon te
Ġmon tage
Comp ression
96 1
display ed
Ġfn match
light s
Ġhist type
Ġmis sion
Check s
77 4
Inter vals
DO T
Ġfeed able
Ġrot or
Ġprocess or
47 6
road User
Sub mit
Ġmag net
Ġmag netic
ĠUn defined
black man
interpol ated
Ġvari ational
Ġci ket
PAT TERN
Run Options
report ing
Ġmesh node
Ġleg acy
Ġsw ath
Ġimp roved
imp ls
Ġpoly val
Ġcr it
78 6
Ġface ts
Ġå Ĳ
Ġta cl
Length s
Wh ich
mer cator
Ġfs l
tw ice
mix er
CR seg
FO V
FO UR
Ġrec id
linewidth s
ov od
plan et
ĠDe velopers
SD SS
äº ¤
database s
ĠNe ed
ĠArray Like
TRAIN ING
Non linear
Te ch
Ġpf am
ĠConfig Parser
van tage
ĠST AR
fm ts
Ġve tor
Ġgu ar
boost ing
Ġanswer List
Ġgui Event
Ġagg lo
ĠSp lit
pw m
ĠSV D
Eval Features
ida de
Ġ'* '
fen X
NET WORK
('{} :
Sha re
Ġcentral ity
'`` :
sci kit
ENABLE D
Ġmak ani
Ġwv lt
1111 1111
Parse FromString
ko ef
Project s
Ġsit k
ĠMonitor ing
enf ant
indi ce
indi cies
Car lo
spl rep
Ġplant list
arcs inh
triple ts
ĠOper ation
MPI rank
"""" """"
shock s
ĠLE FT
IZE D
Ada Boost
ĠSto chastic
ulo mb
ĠCoord inates
Aut omatic
Combin ed
Cat alog
Elog beta
Ġgeop andas
SPAR SE
Ġfilen m
Ġsnip pet
Design ators
1904 76
Attemp ting
ban co
Ġlife time
Equ ity
Ġlit tle
Ġimb alance
ĠAnnot ations
rela cao
SING LE
Dr ug
ĠSty le
nopro j
Ġsatis fy
tabol ites
amazon aws
fftf req
ĠAbins Modules
levelSet ModelIndex
Xavier Fill
ĠPARA MS
SKE LETON
" +"
) >=
/ {}
0 95
0 88
2 90
? ':
C CA
C LI
D L
D lg
D ays
E LE
E very
H ello
M acc
N eeded
P X
P ref
Q n
R n
R MSE
S en
S tem
S MA
T max
T min
T INY
W edge
X IS
Y our
Y EAR
a hedron
b unch
c il
d N
e Corpus
f ort
f link
g k
g athered
h ill
k dict
l int
l max
n wp
n sigs
o logical
p ax
p ump
r df
s form
t one
t sa
t gz
u ci
u ffix
v type
w ich
w orth
x v
x new
y h
z var
z score
§ ĭ
æ Ħı
ç Ļ
è ª
Ġ serving
in variant
re plot
re tained
on i
st re
er ode
en et
de coding
Ġi g
me ster
le ment
Ġn samp
Ġf ci
Ġf Type
Ġc locs
Ġ' )[
Ġs ch
Ġs af
Ġs pread
di cation
el bo
Ġre actor
ct set
() [::-
Ġm ols
Ġm ysql
Ġo u
un ip
Ġ" *.
ex posures
ma pe
Ġb ss
Ġb ayesian
ch op
ch allenge
Ġnp ar
Ġd E
Ġd val
Ġw ing
(' ...
]) ==
__ ):
set Label
[' /
con fidences
Ġis hape
Ġis scalar
Ġx new
Ġx edges
ap ache
Ġg an
ĠT S
ĠT f
Ġy es
sp aced
im it
log m
Ġdata Frame
Ġcon current
Ġh an
Ġh armonics
Ġdi vergence
per ms
Ġtest Float
od b
py mc
ep litz
In structions
In tended
ari zation
ĠS tri
ĠS catter
Ġout str
Ġk sp
Ġk per
Ġax ial
vi ties
ĠA TOM
Ġl cd
Ġl xml
ren ds
ren derers
red undant
10 25
us dor
Data Group
tri s
ĠP open
ĠC annot
ĠC AM
Ġ) ]
pre lu
Ġnum Cells
32 3
ĠR ight
ĠR oot
ir ation
ĠM RI
Ġpro grams
vel ty
its ot
Ġlog f
Ġtime points
var type
var list
Ġat an
Ġat ts
Ġ\ ;
iter bi
Ġnew y
Ġal ert
Ġal ltypes
ber noulli
=[ .
Ġtra cer
ĠL ong
Ġun idades
Ġle vs
ER IC
color ed
ĠB IG
Ġmat utils
ĠG auss
Ġbo unded
sy ngine
sy mpy
25 3
Di str
Ġfe e
Ġgra m
RE AS
Re q
Re main
Re search
Ġsp lev
ang strom
Ġstart col
Ġplot file
Ġsub sets
err msg
Ġac el
ach es
Par is
gen o
ĠV ECT
ĠV BMGxt
std am
{} '
Ġarg ns
SE G
Set ter
au li
Ġvar type
... \
block Signals
io us
RO HF
)], [
ĠIn it
ĠEx cel
Ġ9 3
---------------- ----
select able
pri md
can opy
Ġcor rel
multi ples
unit arity
current State
Ġabs orb
DI SC
Ġha st
Me ch
port al
Res ps
IT CH
CH UNK
over h
over line
Al titude
extra polation
cre m
Ġsim ulations
Ġgener ators
Tra j
TH E
37 2
37 3
Ġ'_ ')
Ġsorted Keys
Le af
Le eCorpus
)+ ",
Ġextra s
97 2
Ġback bone
Pre Trained
dis armed
Ġstd in
Ġmy ci
Ġmy Win
Ġnn abla
Ġoper ate
TI FI
Ġter rain
Ġdisp atcher
ced ence
MO USE
77 7
Ġ200 5
Add ress
Ġfind ing
fl ash
cri stal
Ġla gs
FT WARE
Ġobserv able
Dist Array
ĊĠĠĠĠĠĠĠĠĠĠĠĠĠĠĠĠĠĠĠĠĠĠĠĠĠĠĠĠĠĠĠĠĠĠĠĠĠĠĠĠĠĠĠĠĠĠĠĠĠĠĠĠĠĠĠĠĠĠĠĠĠĠĠĠĠĠĠĠĠĠĠĠ ĠĠĠĠĠĠĠĠĠĠĠ
dy no
Ġab spath
Ġli ft
Ġavg fg
button Box
Normal izer
inc ident
fail ures
tt l
loor div
dest inations
SH ORT
progress bar
CL S
Ġimp ulse
Fit ter
ĠPo isson
Ġdebug ging
Ġphj NewPostcodeVarName
Ġencoder s
GR IDS
Ġast ype
Ġri m
chan lun
ĠRes Net
compo unds
Sparse Column
analy se
Ġexport er
GRA D
ĠMat erial
Track bar
scf values
Ġdump s
ĠQu aternion
card inality
phj StrList
Quadrature Points
XT C
('.') [-
ĠEn try
Tran sport
ej e
ĠLinear Regression
Ġtw iss
chip s
comple teness
"> </
mig ration
ĠSA MPLE
FRAME S
but t
dash es
AUT H
Optim um
CHAN TAB
Prop ag
ĠNew ton
SIGN ED
jk stra
CESS O
Cho ose
ĠPAR TIC
replay enhancer
åĽ ł
Ġtax on
Ġrd kit
COM MENT
persist ence
ĠTR s
ORD ERS
Ġnear by
Depend ent
Hi C
ĠBe am
________ ________
Ġspect rogram
VO C
Ġbel ong
Mirrored Strategy
ĠCho ice
ĠMerge Error
âĢķâĢķâĢķâĢķâĢķâĢķâĢķâĢķ âĢķâĢķâĢķâĢķâĢķâĢķâĢķâĢķ
Ġpj da
Az imuth
æĸ¹ æ³ķ
Ġnper seg
ncat tr
çĤ º
Ġdivid end
ĠAtomic Environment
ĠRES ULT
ĠMixed LM
Focal Point
æį ®
Ġsampl erate
Ġnip ype
assertDevice Equal
ĠMEM ORY
nna varin
æ¡ Ī
unip d
usdor ff
CHANTAB ILITY
ĠPARTIC ULAR
' +'
) '))
) """
) %(
) ``.
* (-
. )+
6 30
8 30
8 28
> ]
A ve
B et
B OR
B ridge
C d
C lim
C CT
C SC
C LIP
D ss
F luid
G ri
I so
L ng
N V
N aive
O range
Q Graphics
Q FileDialog
Q GridLayout
R ename
S creen
T ot
V D
] ])))
_ <
b road
c amp
f pack
f utures
g ar
h ids
h inge
h ermite
m ile
m cs
m map
n ts
n Job
o int
p dist
p upil
p seud
r ppg
v time
w ash
x date
y Plot
Ð »
ç µ
è ¾
é ł
Ġ zer
Ġ erosion
se es
se ma
re le
re jection
st reet
al d
Ġi max
Ġi ou
le ad
Ġn axis
Ġn og
Ġn ave
Ġn ash
Ġn src
as ym
mp ot
Ġp name
Ġp am
Ġp ho
Ġp raat
pe ts
lo st
Ġ' ]
it ors
it ution
Ġin come
Ġs ad
Ġs ho
ct ags
Ġm mi
si ded
Ġ1 13
Ġ1 38
Ġ1 70
un sorted
un binned
Ġ" ;
he igth
Ġ0 8
ce ano
ce ptron
um idity
fi bers
Ġ( (-
Ġa bi
li kes
Ġb end
Ġb sz
Ġb isect
ch d
ch ten
Ġd time
Ġd md
Ġreturn code
ad dexp
get M
th k
') \
con tr
Ġ* .
Ġx Coeff
ath Definition
par r
Ġg ip
=' ?',
et secs
Ġy vals
if g
if os
sp t
sp lot
pro vided
Ġh olds
Ġdi late
Ġr bm
str on
ub es
In ference
In stances
Ġres olved
Ġde ps
ĠS AS
ĠS erial
Ġk r
Ġk dims
cor eg
fig text
Ġco variates
ĠA nd
ĠA ltern
num Mols
Ġra dio
Ġme ters
Ġpar ity
ph c
=" '
ĠC d
ĠC ache
ĠC MD
pre Gid
sh arp
Ġth ough
da de
][ (
ĠN ull
frame on
Ġlog likelihood
ĠD R
Ġget ter
ĠI np
ĠF C
ĠF rozen
ho spital
ho uette
Ġmax shape
Ġz lev
sub collection
sub traction
Ġal p
ĠE mbed
ĠE ager
Ġfile List
=[ ]):
Ġun matched
Ġun limited
Ġle gs
print ing
Con vergence
Ġan ts
Ġpo les
split ed
que ues
exp on
99 3
rep l
ne ck
'), '
den cy
Ġon line
Ġcomp ared
ON D
ĠW n
]), '
uple d
com mission
Ġver sus
bs r
amp l
Ġstart time
DE SI
Ġsub fig
Ġsub dir
Ġsub script
target name
Ġq p
Ġq y
201 00
201 60
lon gest
AL P
Ġcur v
grad v
grad w
the se
Par ametro
ĠQ VBoxLayout
ĠU T
mod n
SE N
SE P
ĠK NN
Set InputData
Ġcom bs
Col lector
Ġ} \
pop size
Ġsk rf
axes pad
Ġper manent
Ġmo on
Ġ[[ ]]
multi part
uff ling
inf all
mag ics
DI FF
make TimeSeries
ga us
34 2
field values
Ġwr p
ud ents
Ġad n
Ġcount ing
Ob served
AB I
real istic
Se quences
band pass
FI FO
nu g
nu isance
sw ift
Comp liance
cap s
Ġsm iles
SA MPL
44 100
,:] -
98 3
RI ST
Int Domain
now ledge
case d
Py HASH
DO UT
ĠData Type
Ġpredict s
Th er
Th Ar
Th resh
ink el
An om
Ġtask Queue
('- ',
('/ ',
," \
Bin Edges
Ġskip blocks
OP TI
KE KE
SH MP
Ġhe tero
Post Action
ĠVariable Filter
Ġauto correlation
Ġta us
Ġ$ {
ĠModel Checkpoint
NE AREST
Open GL
land mask
ĠSe cond
Ġdomain s
Loc ations
SM C
Down loads
ĠPython EvalType
ima gen
ĠFile NotFoundError
pv lib
exact ly
Message s
Message Type
++ )
Estim ated
rx n
GE O
Ġtak ing
ĠNe arest
Draw ing
ĠEn ter
Ġè Ģ
Ġspeed s
Ġcombined Fluxs
hier archical
Ġir rep
CPU Place
("_ ")
Char Field
Ġdr ug
Ġbc bio
Ġti po
gam maln
Ph ys
plo idy
Coefficients Evaluate
COLUM NS
Vol tage
Ġamplitude s
Numpy OpTest
Ġelect ron
Ġcop ies
Rest art
ĠGe ometry
reflect ance
Ġgy ro
Export To
ensemb l
past e
snow i
ĠWeight s
fri endly
Ġprun ed
ĠAB CAdapter
hydro phob
Ġinterpre ted
CONT RO
Basis Set
lum in
ĠAu dience
spi el
ExteriorElement BoundaryQuadrature
ĠDiscrete Variable
Ġbuff ers
ĠExtra Trees
Connect ing
Ġaugment ation
Inp lace
ade mic
Ġpublish ed
MOT OR
nucle us
[...]
