{"<|endoftext|>":0,"!":1,"\"":2,"#":3,"$":4,"%":5,"&":6,"'":7,"(":8,")":9,"*":10,"+":11,",":12,"-":13,".":14,"/":15,"0":16,"1":17,"2":18,"3":19,"4":20,"5":21,"6":22,"7":23,"8":24,"9":25,":":26,";":27,"<":28,"=":29,">":30,"?":31,"@":32,"A":33,"B":34,"C":35,"D":36,"E":37,"F":38,"G":39,"H":40,"I":41,"J":42,"K":43,"L":44,"M":45,"N":46,"O":47,"P":48,"Q":49,"R":50,"S":51,"T":52,"U":53,"V":54,"W":55,"X":56,"Y":57,"Z":58,"[":59,"\\":60,"]":61,"^":62,"_":63,"`":64,"a":65,"b":66,"c":67,"d":68,"e":69,"f":70,"g":71,"h":72,"i":73,"j":74,"k":75,"l":76,"m":77,"n":78,"o":79,"p":80,"q":81,"r":82,"s":83,"t":84,"u":85,"v":86,"w":87,"x":88,"y":89,"z":90,"{":91,"|":92,"}":93,"~":94,"¡":95,"¢":96,"£":97,"¤":98,"¥":99,"¦":100,"§":101,"¨":102,"©":103,"ª":104,"«":105,"¬":106,"®":107,"¯":108,"°":109,"±":110,"²":111,"³":112,"´":113,"µ":114,"¶":115,"·":116,"¸":117,"¹":118,"º":119,"»":120,"¼":121,"½":122,"¾":123,"¿":124,"À":125,"Á":126,"Â":127,"Ã":128,"Ä":129,"Å":130,"Æ":131,"Ç":132,"È":133,"É":134,"Ê":135,"Ë":136,"Ì":137,"Í":138,"Î":139,"Ï":140,"Ð":141,"Ñ":142,"Ò":143,"Ó":144,"Ô":145,"Õ":146,"Ö":147,"×":148,"Ø":149,"Ù":150,"Ú":151,"Û":152,"Ü":153,"Ý":154,"Þ":155,"ß":156,"à":157,"á":158,"â":159,"ã":160,"ä":161,"å":162,"æ":163,"ç":164,"è":165,"é":166,"ê":167,"ë":168,"ì":169,"í":170,"î":171,"ï":172,"ð":173,"ñ":174,"ò":175,"ó":176,"ô":177,"õ":178,"ö":179,"÷":180,"ø":181,"ù":182,"ú":183,"û":184,"ü":185,"ý":186,"þ":187,"ÿ":188,"Ā":189,"ā":190,"Ă":191,"ă":192,"Ą":193,"ą":194,"Ć":195,"ć":196,"Ĉ":197,"ĉ":198,"Ċ":199,"ċ":200,"Č":201,"č":202,"Ď":203,"ď":204,"Đ":205,"đ":206,"Ē":207,"ē":208,"Ĕ":209,"ĕ":210,"Ė":211,"ė":212,"Ę":213,"ę":214,"Ě":215,"ě":216,"Ĝ":217,"ĝ":218,"Ğ":219,"ğ":220,"Ġ":221,"ġ":222,"Ģ":223,"ģ":224,"Ĥ":225,"ĥ":226,"Ħ":227,"ħ":228,"Ĩ":229,"ĩ":230,"Ī":231,"ī":232,"Ĭ":233,"ĭ":234,"Į":235,"į":236,"İ":237,"ı":238,"Ĳ":239,"ĳ":240,"Ĵ":241,"ĵ":242,"Ķ":243,"ķ":244,"ĸ":245,"Ĺ":246,"ĺ":247,"Ļ":248,"ļ":249,"Ľ":250,"ľ":251,"Ŀ":252,"ŀ":253,"Ł":254,"ł":255,"Ń":256,"ĠĠ":257,"ĠĠĠĠ":258,"ĠĠĠ":259,"ĠĠĠĠĠĠĠĠ":260,"se":261,"in":262,"ĠĠĠĠĠĠĠ":263,"Ġ=":264,"at":265,"ĊĠĠĠĠĠĠĠĠ":266,"ĊĠĠĠĠĠĠĠ":267,"or":268,"re":269,"on":270,"ĊĠĠĠ":271,"st":272,"er":273,"al":274,"sel":275,"ar":276,"self":277,"en":278,"de":279,"ra":280,"Ġt":281,"Ġi":282,"me":283,"le":284,"Ġn":285,"ĊĠĠĠĠĠĠĠĠĠĠĠ":286,"Ġself":287,"ti":288,"Ġf":289,"as":290,"an":291,"mp":292,"Ġp":293,"Ġc":294,"pe":295,"lo":296,"ro":297,"Ġ'":298,"it":299,"ut":300,"Ġin":301,"ge":302,"ĊĠĠĠĠĠĠĠĠĠĠĠĠĠĠĠĠ":303,"):":304,"Ġs":305,"di":306,"es":307,"el":308,"Ġre":309,"dat":310,"ct":311,"ur":312,"()":313,"ol":314,"Ġm":315,"',":316,"ame":317,"si":318,"ed":319,"Ġo":320,"Ġ1":321,"Ġif":322,"un":323,"))":324,"Ġ\"":325,"he":326,"ing":327,"Ġ0":328,"ce":329,"um":330,"ue":331,"def":332,"fi":333,"data":334,"la":335,"ex":336,"Ġ(":337,"ĊĠĠĠĠĠĠĠĠĠĠĠĠĠĠĠ":338,"Ġ[":339,"ort":340,"Ġa":341,"ser":342,"ma":343,"],":344,"li":345,"int":346,"val":347,"tion":348,"ot":349,"Ġb":350,"ype":351,"lt":352,"urn":353,"ch":354,"co":355,"turn":356,"Ġnp":357,"id":358,"Ġd":359,"ent":360,"),":361,"Ġfor":362,"est":363,"--":364,"Ġreturn":365,"ad":366,"mport":367,"Ġ+":368,"one":369,"ran":370,"ĊĠĠĠĠĠĠĠĠĠĠĠĠĠĠĠĠĠĠĠĠĠĠĠĠ":371,"ha":372,"ri":373,"Ġw":374,"('":375,"])":376,"ati":377,"Ġdef":378,"ate":379,"Ġas":380,"__":381,"00":382,"set":383,"get":384,"sert":385,"th":386,"ode":387,"ck":388,"put":389,"op":390,"')":391,"None":392,"len":393,"name":394,"type":395,"is":396,"ĠĠĠĠĠ":397,"qu":398,"['":399,"ray":400,"ig":401,"con":402,"ze":403,"and":404,"res":405,"Ġ*":406,"ab":407,"Ġ-":408,"rom":409,"._":410,"Ġis":411,"array":412,"ation":413,"Ġ2":414,"hape":415,"up":416,"Ġ==":417,"ve":418,"Ġst":419,"\",":420,"arg":421,"']":422,"Ġel":423,"po":424,"Ġthe":425,"Ġx":426,"ath":427,"end":428,"ult":429,"orm":430,"par":431,"ap":432,"dex":433,"':":434,"am":435,"Ġg":436,"ke":437,"ction":438,"(\"":439,"ĊĠĠĠĠĠ":440,"ter":441,"rue":442,"ĠT":443,"om":444,"from":445,"ĊĠĠĠĠĠĠĠĠĠĠĠĠĠĠĠĠĠĠĠ":446,"ver":447,"='":448,"Ġimport":449,"cal":450,"ĠNone":451,"Ġex":452,"ĊĠ":453,"lab":454,"np":455,"ul":456,"out":457,"et":458,"ĠĠĠĠĠĠĠĠĠĠĠĠĠĠĠĠ":459,"Ġy":460,"shape":461,"([":462,"ax":463,"ht":464,"Ġassert":465,"Ġnot":466,"\")":467,"size":468,"able":469,"rint":470,"list":471,"Ġ%":472,"Ġe":473,"if":474,"lin":475,"odel":476,"to":477,"Ġelse":478,"import":479,"Ċĉ":480,"ror":481,"file":482,"qual":483,"sp":484,"Ġ_":485,"ds":486,"ith":487,"label":488,"cl":489,"im":490,"lot":491,"pro":492,"mple":493,"Ġv":494,"ces":495,"Ġof":496,"col":497,"log":498,"args":499,"Ġdata":500,"time":501,"----":502,"Ġcon":503,"Ġh":504,"Ġdi":505,"Ġr":506,"ext":507,"Ġ{":508,"alse":509,"per":510,"path":511,"app":512,"Ġtest":513,"test":514,"ass":515,"od":516,"False":517,"ure":518,"str":519,"ect":520,"Ġ:":521,"value":522,"ump":523,"range":524,"ew":525,"Ġto":526,"Ġ3":527,"py":528,"assert":529,"loat":530,"index":531,"ise":532,"atch":533,"ff":534,"os":535,"ub":536,"form":537,"sa":538,"il":539,"ta":540,"stan":541,"ens":542,"Ġand":543,"tr":544,"sion":545,"all":546,"ite":547,"max":548,"key":549,"ile":550,"ep":551,"rame":552,"umpy":553,"ow":554,"Er":555,"In":556,"tra":557,"der":558,"Ġprint":559,"Error":560,"zer":561,"Ġres":562,"Ġde":563,"ari":564,"ask":565,"True":566,"Ġlen":567,"pect":568,"mage":569,"append":570,"ist":571,"ĠS":572,"valu":573,"ight":574,"Ġout":575,"ment":576,"min":577,"Ġk":578,"lay":579,"[:":580,"te":581,"date":582,"plot":583,"mb":584,"cor":585,"art":586,"fig":587,"ob":588,"Ġax":589,"Ġor":590,"bo":591,"ci":592,"Ġu":593,"].":594,"Ġco":595,"ms":596,"rand":597,"vi":598,"ase":599,"Ġop":600,").":601,"Ġ>":602,"Ġwith":603,"ĠA":604,"ers":605,"Ġl":606,"gra":607,"num":608,"cs":609,"ren":610,"dict":611,"values":612,"low":613,"red":614,"ensor":615,"10":616,"add":617,"ss":618,"fo":619,"Ġ/":620,"Ġra":621,"Ġtf":622,"line":623,"equal":624,"input":625,"ĊĠĠĠĠĠĠĠĠĠĠĠĠĠĠĠĠĠĠĠĠĠĠĠ":626,"Ġname":627,"Ġdtype":628,"Ġme":629,"Dat":630,"df":631,"us":632,"\":":633,"float":634,"Ġnumpy":635,"Ġpar":636,"Ġcol":637,"ph":638,"Data":639,"mo":640,"=\"":641,"dir":642,"ack":643,"ime":644,"ac":645,"ts":646,"model":647,"dtype":648,"tri":649,"ind":650,"ĠP":651,"ĠC":652,"ĠĠĠĠĠĠ":653,"Ġrange":654,"((":655,"Ġse":656,"ĊĠĠĠĠĠĠĠĠĠĠĠĠĠĠĠĠĠĠĠĠĠĠĠĠĠĠĠĠĠĠĠĠ":657,"\"\"":658,"ams":659,"Ġ)":660,"ĊĠĠĠĠĠĠĠĠĠĠĠĠĠĠĠĠĠĠĠĠĠĠĠĠĠĠĠĠĠĠĠĠĠĠĠĠĠĠĠĠ":661,"pected":662,"stance":663,"pre":664,"Ċĉĉ":665,"[\"":666,"umn":667,"fe":668,"01":669,"ctor":670,"Ġresult":671,"eight":672,"sh":673,"Ġ<":674,"Ġth":675,"Ġ4":676,"Ġ__":677,"eri":678,"row":679,"ls":680,"Ġdf":681,"ject":682,"Ġstr":683,"da":684,"format":685,"ize":686,"ity":687,"pt":688,"ly":689,"Ġnum":690,"..":691,"ty":692,"ĊĠĠĠĠĠĠĠĠĠ":693,"mat":694,"Val":695,"random":696,"32":697,"output":698,"ariable":699,"train":700,"ag":701,"ĠR":702,"bu":703,"class":704,"ator":705,"Ġ`":706,"ast":707,"sc":708,"ault":709,"Ġ[]":710,"Ġraise":711,"und":712,"Ġbe":713,"ir":714,"fun":715,"**":716,"][":717,"ĠM":718,"ĠN":719,"Ġ5":720,"sum":721,"ary":722,".,":723,"():":724,"''":725,"read":726,"jo":727,"Ġ+=":728,"rans":729,"map":730,"==":731,"Ġpro":732,"ust":733,"frame":734,"Ġos":735,"init":736,"Ġplt":737,"loc":738,"point":739,"Ġexpected":740,"arn":741,"ĠTrue":742,"result":743,"ic":744,"Ġelif":745,"text":746,"comp":747,"\"]":748,"Value":749,"vel":750,"our":751,"[:,":752,"for":753,"heck":754,"its":755,"ord":756,"dim":757,"Ġlog":758,"Ġinput":759,"ĠFalse":760,"pi":761,"__(":762,"ĠD":763,"ys":764,"join":765,"Ġmodel":766,"ample":767,"load":768,"Equal":769,"unt":770,"Ġget":771,"ĠI":772,"ĠF":773,"gth":774,"tial":775,"Ġj":776,"oc":777,"Ġen":778,"())":779,"64":780,"mask":781,"ll":782,"labels":783,"lit":784,"ops":785,"ace":786,"Ġtime":787,"ft":788,"image":789,"mean":790,"ip":791,"ho":792,"var":793,"wr":794,"lib":795,"start":796,"Ġoutput":797,"wargs":798,"Ġmax":799,"sample":800,"--------":801,"roup":802,"params":803,"Ġz":804,"Ġint":805,"Ġ@":806,"Ġindex":807,"lat":808,"tions":809,"Ġat":810,"ents":811,"Ġ\\":812,"iter":813,"rent":814,"axis":815,"arget":816,"ameter":817,"eg":818,"Ġnew":819,"sub":820,"instance":821,"12":822,"Ġal":823,"rid":824,"Ġlist":825,"sig":826,"ĠE":827,"rix":828,"'],":829,"ann":830,"ber":831,"ute":832,"ValueError":833,"info":834,"ses":835,"tf":836,"thod":837,"IN":838,"ard":839,"idx":840,"batch":841,"(),":842,"lename":843,"Ġ{}":844,"Ġfile":845,"Ġpre":846,"zeros":847,"Ġfi":848,"ange":849,"=[":850,"age":851,"ature":852,"state":853,"idth":854,"ine":855,"Ġtra":856,"ĠL":857,"ay":858,"ry":859,"ctions":860,"Ġun":861,"step":862,"ore":863,"node":864,".__":865,"cept":866,"Ġ**":867,"uti":868,"Ġle":869,"ER":870,"print":871,"lose":872,"req":873,"Ġset":874,"layer":875,"Con":876,"cale":877,"column":878,"000":879,"Ġan":880,"wor":881,"ree":882,"ures":883,"write":884,"Ġarray":885,"Ġpo":886,"cat":887,"weight":888,"AT":889,"Ġtype":890,"ĊĠĠĠĠĠĠĠĠĠĠĠĠĠĠĠĠĠĠĠĠĠĠĠĠĠĠĠ":891,"ings":892,"run":893,"Ġob":894,"Ġvalue":895,"attr":896,"Ġaxis":897,"lim":898,"old":899,"!=":900,"stat":901,"]))":902,"lace":903,"iz":904,"Ġfrom":905,"Ġisinstance":906,"ĠX":907,"ations":908,"ener":909,"new":910,"cess":911,"pha":912,"[-":913,"ies":914,"Ġch":915,"Ġ\"\"\"":916,"norm":917,"lock":918,"split":919,"Ġpy":920,"ion":921,"gs":922,"Ġ10":923,"color":924,"ght":925,"parse":926,"emp":927,"Ġpd":928,"'.":929,"assertEqual":930,"().":931,"'])":932,"lamb":933,"bin":934,"Ġval":935,"core":936,"Ġ!=":937,"ĠB":938,"ST":939,"ĉĉ":940,"Ġ['":941,"que":942,"ource":943,"itial":944,"reg":945,"Ġshape":946,"exp":947,"code":948,"sed":949,"99":950,"Frame":951,"names":952,"Ġmat":953,")]":954,"izer":955,"error":956,"Ġmin":957,"ix":958,"lambda":959,"St":960,"ulti":961,"quen":962,"ption":963,"ele":964,"nd":965,"loss":966,"ps":967,"ell":968,"config":969,"Ġkey":970,"cy":971,"Ġcl":972,"trans":973,"les":974,"Ġtensor":975,"inter":976,"11":977,"rep":978,"head":979,"Ġfloat":980,"dices":981,"kwargs":982,"lter":983,"with":984,"ne":985,"fn":986,"ĠG":987,"lob":988,"pos":989,"ĠValueError":990,"ten":991,"ger":992,"Ġ'''":993,")))":994,"'),":995,"stri":996,"otal":997,"den":998,"no":999,"Ġon":1000,"atures":1001,"Ġbo":1002,"lu":1003,"update":1004,"main":1005,"Ġ('":1006,"length":1007,"Ġfun":1008,"Ġargs":1009,"sy":1010,"Ġimage":1011,"ef":1012,"Ġ6":1013,"variable":1014,"ory":1015,"ak":1016,"]]":1017,"count":1018,"poch":1019,"tensor":1020,"copy":1021,"flow":1022,"cur":1023,"ded":1024,"20":1025,"LE":1026,"ĠO":1027,"raw":1028,"Co":1029,"=(":1030,"ign":1031,"box":1032,"group":1033,"reate":1034,"nan":1035,"nn":1036,"eld":1037,"25":1038,"uct":1039,"Ġcomp":1040,"close":1041,"by":1042,"Ġtry":1043,"ng":1044,"ker":1045,"base":1046,"},":1047,"ual":1048,"ON":1049,"graph":1050,"Ġtrain":1051,"ument":1052,"ĠW":1053,"fit":1054,"cent":1055,"av":1056,"Ġwh":1057,"fa":1058,"Ġexcept":1059,"Di":1060,"ec":1061,"do":1062,"Ġfe":1063,"Ġlabel":1064,"Ġgra":1065,"are":1066,"ĊĠĠĠĠĠĠĠĠĠĠĠĠĠĠĠĠĠĠĠĠĠĠĠĠĠĠĠĠĠĠĠ":1067,"filename":1068,"tim":1069,"sign":1070,"arr":1071,"edge":1072,"numpy":1073,"DataFrame":1074,"img":1075,"pec":1076,"Ġdefault":1077,"','":1078,"fix":1079,"pp":1080,"Ġmask":1081,"ill":1082,"Index":1083,"dx":1084,"stant":1085,"vent":1086,"Ar":1087,"RE":1088,"son":1089,"Re":1090,")),":1091,"points":1092,"off":1093,"func":1094,"Ġline":1095,"ref":1096,"Ġvalues":1097,"sen":1098,"]),":1099,"uple":1100,"Ġsp":1101,"ateg":1102,"Ġro":1103,"matrix":1104,"right":1105,"com":1106,"ameters":1107,"Ġver":1108,"check":1109,"em":1110,"default":1111,"save":1112,"bs":1113,"pol":1114,"grid":1115,"thon":1116,"here":1117,"Ġim":1118,"ont":1119,"amp":1120,"sition":1121,"Ġare":1122,"sing":1123,"method":1124,"ude":1125,"rc":1126,"level":1127,"lta":1128,"Test":1129,"0000":1130,"50":1131,"work":1132,"use":1133,"16":1134,"ang":1135,"\".":1136,"Name":1137,"Ġcont":1138,"param":1139,"Type":1140,"Ġbatch":1141,"dd":1142,"own":1143,"igh":1144,"Ġsize":1145,"vector":1146,"obj":1147,"og":1148,"datetime":1149,"dataset":1150,"tx":1151,"temp":1152,"ises":1153,"})":1154,"Ġstart":1155,"string":1156,"Ġplot":1157,"Ġsh":1158,"series":1159,"DE":1160,"table":1161,"Ġ.":1162,"back":1163,"ther":1164,"ated":1165,"Ġcolor":1166,"ave":1167,"Ġcolumn":1168,"Ġsub":1169,"Ġ8":1170,"function":1171,"pu":1172,"sq":1173,"tive":1174,"Ġall":1175,"ule":1176,"ild":1177,"Ġweight":1178,"arange":1179,"target":1180,"Ġq":1181,"columns":1182,"201":1183,"layers":1184,"eta":1185,"pa":1186,"eries":1187,"ension":1188,"err":1189,"dot":1190,"AR":1191,"Ġsup":1192,"Ġac":1193,"mode":1194,"object":1195,"of":1196,"Ġexp":1197,"indow":1198,"Ġ7":1199,"oth":1200,"ĊĠĠĠĠĠĠĠĠĠĠĠĠĠ":1201,"keys":1202,"order":1203,"rate":1204,"OR":1205,"ids":1206,"perty":1207,"ords":1208,"rt":1209,"ull":1210,"orted":1211,"(-":1212,"inal":1213,"lon":1214,"ach":1215,"ding":1216,"File":1217,"AL":1218,"Po":1219,"width":1220,"inputs":1221,")):":1222,"height":1223,"Ġrow":1224,"ress":1225,"plt":1226,"ble":1227,"ĠThe":1228,"ome":1229,"Ġuse":1230,"space":1231,"Ġcur":1232,"grad":1233,"Ġ{'":1234,"rop":1235,"els":1236,"30":1237,"ME":1238,"utils":1239,"ates":1240,"arning":1241,"100":1242,"round":1243,"dims":1244,"ear":1245,"List":1246,"trib":1247,"valid":1248,"indices":1249,"ance":1250,"Ex":1251,"the":1252,"reshape":1253,"]:":1254,"vice":1255,"lobal":1256,"scale":1257,"tem":1258,"'))":1259,"mon":1260,"resh":1261,"Par":1262,"Ġopen":1263,"ĠH":1264,"Ġsample":1265,"15":1266,"tit":1267,"last":1268,"gen":1269,"ok":1270,"'].":1271,"ĠV":1272,"Ġma":1273,"cle":1274,"'):":1275,"Ġthis":1276,"vert":1277,"cf":1278,"ery":1279,"Ġcheck":1280,"ĠQ":1281,"std":1282,"====":1283,"ments":1284,"iv":1285,"Pro":1286,"erate":1287,"ols":1288,"ĠU":1289,"ick":1290,":]":1291,"ark":1292,"Ġfig":1293,"freq":1294,"mod":1295,"andas":1296,"Ġdict":1297,"Ġsys":1298,"Ġcv":1299,"ward":1300,"tiv":1301,"vals":1302,"abs":1303,"{}":1304,"process":1305,"ĊĠĠĠĠĠĠĠĠĠĠĠĠĠĠĠĠĠĠĠĠĠĠĠĠĠĠĠĠĠĠĠĠĠĠĠĠĠĠĠĠĠĠĠĠĠĠĠĠ":1306,"olu":1307,"bar":1308,"rect":1309,"Ġarg":1310,"place":1311,"SI":1312,"bi":1313,"Ġinter":1314,"unk":1315,"cv":1316,"ints":1317,"net":1318,"ical":1319,"lines":1320,"ant":1321,"ins":1322,"initial":1323,"samples":1324,"SE":1325,"stack":1326,"astype":1327,"dt":1328,"Ġhas":1329,"features":1330,"cli":1331,"Ġnode":1332,"scri":1333,"umerate":1334,"cope":1335,"ĠK":1336,"conv":1337,"Ġtarget":1338,"types":1339,"lice":1340,"Ġstate":1341,"Set":1342,"items":1343,"cont":1344,"([[":1345,"ID":1346,"au":1347,"peci":1348,"Ġpass":1349,"weights":1350,"Ġmath":1351,"ĊĠĠĠĠĠĠĠĠĠĠĠĠĠĠĠĠĠ":1352,"query":1353,"filter":1354,"Ġdo":1355,"local":1356,"Ġconfig":1357,"try":1358,"Ġenumerate":1359,"Ġby":1360,"act":1361,"Ġvar":1362,"Ġdim":1363,"csv":1364,"Ġend":1365,"clas":1366,"Ġdataset":1367,"mbed":1368,"plotlib":1369,"ml":1370,"ns":1371,"...":1372,"block":1373,"header":1374,"older":1375,"Ġcom":1376,"idget":1377,"cu":1378,"title":1379,"lic":1380,"top":1381,"02":1382,"left":1383,"return":1384,"Array":1385,"AG":1386,"estim":1387,"ties":1388,"ĊĠĠĠĠĠĠĠĠĠĠĠĠĠĠ":1389,"dep":1390,"meta":1391,"ache":1392,"delta":1393,"so":1394,"14":1395,"ative":1396,"bug":1397,"elp":1398,"ception":1399,"Ċĉĉĉ":1400,"Ġlabels":1401,"io":1402,"ging":1403,"Col":1404,"Ġthat":1405,"most":1406,"be":1407,"property":1408,"Ġpath":1409,"constant":1410,"arch":1411,"fill":1412,"Dict":1413,"show":1414,"Ġker":1415,"vec":1416,"hist":1417,"'][":1418,"results":1419,"Ġnumber":1420,"Time":1421,"dist":1422,"({":1423,"pl":1424,"18":1425,"ĊĠĠĠĠĠĠĠĠĠĠĠĠĠĠĠĠĠĠĠĠĠĠĠĠĠĠĠĠ":1426,"24":1427,"ĊĠĠĠĠĠĠĠĠĠĠĠĠĠĠĠĠĠĠ":1428,"Ġtemp":1429,"Ġsum":1430,"nel":1431,"Ġ]":1432,")[":1433,"bose":1434,"ĠRe":1435,"]],":1436,"Bo":1437,"ĊĠĠĠĠĠĠĠĠĠĠĠĠĠĠĠĠĠĠĠĠ":1438,"Ġother":1439,"python":1440,"TE":1441,"epoch":1442,"Ġrandom":1443,"util":1444,"rol":1445,"math":1446,"Ġtm":1447,"ones":1448,"Ġnorm":1449,"Ġ}":1450,"ĠIf":1451,"Ġread":1452,">>":1453,"Ġ100":1454,"Ġlambda":1455,"Ġmust":1456,"create":1457,"quence":1458,"tional":1459,"alpha":1460,"feren":1461,"Ġparams":1462,"Ġimg":1463,"sk":1464,"mary":1465,"Ġcal":1466,"AN":1467,"cipy":1468,"RO":1469,"\"),":1470,"we":1471,"]])":1472,"pop":1473,"uld":1474,"txt":1475,"normal":1476,"Ġtrans":1477,")],":1478,"eval":1479,"ĊĠĠĠĠĠĠĠĠĠĠĠĠĠĠĠĠĠĠĠĠĠĠĠĠĠĠĠĠĠĠĠĠĠĠĠĠĠĠĠĠĠĠĠĠĠĠĠĠĠĠĠĠĠĠĠĠ":1480,"Ġsk":1481,"cul":1482,"scal":1483,"ĠY":1484,"Ġidx":1485,"sage":1486,"ĠIn":1487,"Ġrun":1488,"ĠEx":1489,"Ġtensorflow":1490,"item":1491,"Ġmode":1492,"05":1493,"metri":1494,"qui":1495,"conn":1496,"view":1497,"man":1498,"Ġparser":1499,"Ġ9":1500,"opy":1501,"bl":1502,"Ġmatplotlib":1503,"Ġvariable":1504,"ner":1505,"axes":1506,"zero":1507,"mpl":1508,"coord":1509,"stra":1510,"call":1511,"Ġper":1512,"ĊĠĠĠĠĠĠĠĠĠĠĠĠĠĠĠĠĠĠĠĠĠ":1513,"radi":1514,"----------------":1515,"select":1516,"]['":1517,"Ġfunction":1518,"score":1519,"13":1520,"total":1521,"Ġmo":1522,"coder":1523,"like":1524,"lower":1525,"CO":1526,"ĠDataFrame":1527,"not":1528,"Ġiter":1529,"atter":1530,"elds":1531,"sg":1532,"Ġno":1533,"sifi":1534,"55":1535,"Ġ>=":1536,"pri":1537,"move":1538,"ui":1539,"03":1540,"Ġ[[":1541,"can":1542,"doc":1543,"\"],":1544,"ca":1545,"db":1546,"serv":1547,"na":1548,"seq":1549,"transform":1550,"Ġmethod":1551,")*":1552,"Ġcor":1553,"gram":1554,"Ġalpha":1555,"ess":1556,"annot":1557,"Ġzip":1558,"my":1559,"ĊĠĠĠĠĠĠĠĠĠĠĠĠĠĠĠĠĠĠĠĠĠĠĠĠĠĠ":1560,"argument":1561,"face":1562,"source":1563,"obs":1564,"ton":1565,"\"\"\"":1566,"orch":1567,"Ċĉĉĉĉ":1568,"multi":1569,"sqrt":1570,"version":1571,"19":1572,"flat":1573,"Ġ(\"":1574,"du":1575,"offset":1576,"ĊĠĠĠĠĠĠĠĠĠĠĠĠĠĠĠĠĠĠĠĠĠĠĠĠĠ":1577,"Ġkwargs":1578,"feature":1579,"stamp":1580,"Ġmean":1581,"Ġhelp":1582,"tol":1583,"All":1584,"Ġ12":1585,"prob":1586,"uth":1587,"CT":1588,"ĊĠĠĠĠĠĠĠĠĠĠĠĠ":1589,"Ġreg":1590,"Ġframe":1591,"Ġsy":1592,"Ġstep":1593,"ĊĠĠĠĠĠĠĠĠĠĠ":1594,"Ġwill":1595,"options":1596,"Ġlayer":1597,"tick":1598,"ano":1599,"Ġcolumns":1600,"scope":1601,"cond":1602,"uture":1603,"uster":1604,"Ġ<=":1605,"Tensor":1606,"cols":1607,"number":1608,"true":1609,"ors":1610,"Ġpandas":1611,"ized":1612,"`.":1613,"ategor":1614,"diff":1615,"ats":1616,"uff":1617,"Ġsuper":1618,"Ġele":1619,"rank":1620,"unit":1621,"steps":1622,"ift":1623,"Ġobject":1624,"predict":1625,"To":1626,"assertTrue":1627,"Ra":1628,"inf":1629,"Ġ>>>":1630,"EN":1631,"verage":1632,"75":1633,"als":1634,"ey":1635,"context":1636,"imum":1637,"={":1638,"open":1639,"concat":1640,"Ġ|":1641,"coun":1642,"expected":1643,"gy":1644,"ager":1645,"Ġscipy":1646,"fla":1647,"Ġnet":1648,"seed":1649,"coords":1650,"sim":1651,"ĊĠĠĠĠĠĠĠĠĠĠĠĠĠĠĠĠĠĠĠĠĠĠĠĠĠĠĠĠĠĠĠĠĠĠĠ":1652,"Ġ--":1653,"Model":1654,"files":1655,"mark":1656,"Ġweights":1657,"xy":1658,"current":1659,"erge":1660,"Cl":1661,"ĊĠĠĠĠĠĠĠĠĠĠĠĠĠĠĠĠĠĠĠĠĠĠ":1662,"mag":1663,"url":1664,"json":1665,"enti":1666,"inue":1667,"(_":1668,"debug":1669,"tain":1670,"UT":1671,"Ġresults":1672,"ron":1673,"Ġtext":1674,"spec":1675,"ection":1676,"aly":1677,"Ġtable":1678,"root":1679,"(*":1680,"ped":1681,"Ġpos":1682,"stats":1683,"lux":1684,"Ġabs":1685,"uto":1686,"ctory":1687,"60":1688,"dates":1689,"unds":1690,"chann":1691,"stem":1692,"Ġ[\"":1693,"Ġinitial":1694,"DI":1695,"struct":1696,"Ġtuple":1697,"ĠSeries":1698,"Ġclass":1699,"raises":1700,"word":1701,"non":1702,"sparse":1703,"ross":1704,"Str":1705,"ev":1706,"variables":1707,"Ġtotal":1708,"rap":1709,"Ġup":1710,"cell":1711,"uni":1712,"Ġload":1713,"tmp":1714,"Ġfilename":1715,"Ġha":1716,"PE":1717,"idden":1718,"ference":1719,"200":1720,"nodes":1721,"ube":1722,"Me":1723,"redu":1724,"pack":1725,"reshold":1726,"md":1727,")/":1728,"Ġcopy":1729,"led":1730,"figure":1731,"Ġph":1732,"ich":1733,"sent":1734,"yle":1735,"alg":1736,"ĊĠĠĠĠĠĠĠĠĠĠĠĠĠĠĠĠĠĠĠĠĠĠĠĠĠĠĠĠĠ":1737,"port":1738,"Ġmatch":1739,"atic":1740,"nt":1741,"Res":1742,"make":1743,"RA":1744,"tom":1745,"Ġpa":1746,"device":1747,"vars":1748,"33":1749,"rel":1750,"clude":1751,"Variable":1752,"seg":1753,"sort":1754,"04":1755,"Size":1756,"Ġcan":1757,"Ġsig":1758,"ga":1759,"Ġcontinue":1760,"where":1761,"Ch":1762,"hand":1763,"atio":1764,"atom":1765,"Ġorder":1766,"future":1767,"timizer":1768,"Ġne":1769,"Ġscale":1770,"outputs":1771,"match":1772,"17":1773,"Ġlo":1774,"Ġobj":1775,"position":1776,"wo":1777,"leg":1778,"ensity":1779,"ound":1780,"learn":1781,"Ġit":1782,".\")":1783,"event":1784,"Ġgroup":1785,"mis":1786,"dec":1787,"MP":1788,"Ġerror":1789,"Ġ,":1790,"34":1791,"mt":1792,"Gra":1793,"cfg":1794,"bins":1795,"connect":1796,"olution":1797,"wer":1798,"replace":1799,"Ġinputs":1800,"Op":1801,"=['":1802,"Un":1803,"global":1804,"Ġ&":1805,"ĊĠĠĠĠĠĠĠĠĠĠĠĠĠĠĠĠĠĠĠĠĠĠĠĠĠĠĠĠĠĠ":1806,"Ġbase":1807,"units":1808,"Ġmsg":1809,"uration":1810,"msg":1811,"eff":1812,"field":1813,"IT":1814,"testing":1815,"\"):":1816,"gener":1817,".')":1818,"Ġepoch":1819,"sv":1820,"Ġref":1821,"Ġlin":1822,":`":1823,"orig":1824,"cast":1825,"Ġbu":1826,"Ġfa":1827,"ense":1828,"Ġwhile":1829,"gpu":1830,"verse":1831,"pix":1832,"Ġlogging":1833,"[('":1834,"window":1835,"*(":1836,"ization":1837,"'''":1838,"tings":1839,"Ġwr":1840,"cores":1841,"utton":1842,"//":1843,"Ġops":1844,"mu":1845,"pose":1846,"\"])":1847,"reak":1848,"mand":1849,")])":1850,"Lay":1851,"rows":1852,"factor":1853,"Ġ20":1854,"+'":1855,"80":1856,"wh":1857,"empty":1858,"ield":1859,"des":1860,"pectr":1861,"=-":1862,"Ġlength":1863,"ocab":1864,"late":1865,"idat":1866,"his":1867,"Ġdt":1868,"Num":1869,"element":1870,"center":1871,"action":1872,"Ġfreq":1873,"depth":1874,"22":1875,"65":1876,"yn":1877,"').":1878,"hould":1879,"CH":1880,"keep":1881,"Ġformat":1882,"slice":1883,"tic":1884,"gr":1885,"classes":1886,"cos":1887,",'":1888,"Ġbin":1889,"Ġwidth":1890,"MA":1891,"user":1892,"Ġloss":1893,"Ġ``":1894,"su":1895,"Ġstring":1896,"parameters":1897,"ssage":1898,"ong":1899,"Ġlogger":1900,"Ġtmp":1901,"Ġcurrent":1902,"angle":1903,"vari":1904,"over":1905,"parser":1906,"mplex":1907,"67":1908,"Al":1909,"cc":1910,"Get":1911,"Ġcoord":1912,"af":1913,"cls":1914,"ash":1915,"Ġused":1916,"Out":1917,"disp":1918,"mplement":1919,"ud":1920,"limit":1921,"ler":1922,"Ġone":1923,"subplot":1924,"Ġgen":1925,"extra":1926,"ndim":1927,"almost":1928,"linear":1929,"Ġad":1930,"pon":1931,"Ġ'.":1932,"colle":1933,"Ġmetri":1934,"amma":1935,"Ġadd":1936,"arnings":1937,"Ġmatrix":1938,"]):":1939,"requen":1940,"Mat":1941,"rs":1942,"cre":1943,"eriod":1944,"40":1945,"vs":1946,"cord":1947,"ib":1948,"ndarray":1949,"foo":1950,"ĊĠĠĠĠĠĠ":1951,"theta":1952,"LO":1953,"IG":1954,"session":1955,"]*":1956,"Ġuti":1957,"ial":1958,"times":1959,"irst":1960,"gb":1961,"fname":1962,"Ġfunc":1963,"Ġdatetime":1964,"ĠNot":1965,"dictions":1966,"DAT":1967,"ream":1968,"Ġorig":1969,"tivation":1970,"wise":1971,"Ġapp":1972,"Ġsim":1973,"Ġright":1974,"Ġcount":1975,"estimator":1976,"pred":1977,"bool":1978,"edges":1979,"turns":1980,"stop":1981,"Dataset":1982,"Ġmulti":1983,"Ġfilter":1984,"states":1985,"allclose":1986,"gg":1987,"ken":1988,"Ġfit":1989,"dtypes":1990,"Ġfeature":1991,"']['":1992,"Ġqu":1993,"Ġshould":1994,"Ġevent":1995,"onent":1996,"Ġlevel":1997,"embed":1998,"other":1999,"iform":2000,"tree":2001,"Ġoff":2002,"sol":2003,"images":2004,"pout":2005,"ulation":2006,"Raises":2007,"ld":2008,"apply":2009,"pecifi":2010,"mi":2011,"buff":2012,"ists":2013,"lip":2014,"ression":2015,"En":2016,"Ġpytest":2017,"Ġverbose":2018,"Ġcls":2019,"Ġdiff":2020,"Ġarr":2021,"ody":2022,"Ġdist":2023,"div":2024,"sin":2025,"Ob":2026,"tag":2027,"metadata":2028,"AB":2029,"fir":2030,"cache":2031,"']:":2032,"Reg":2033,"Ġmake":2034,"Ġtop":2035,"Ġgrid":2036,"ods":2037,"hs":2038,"Ġcreate":2039,"find":2040,"sis":2041,"strip":2042,"gn":2043,"Ġtorch":2044,"ater":2045,"ropout":2046,"Input":2047,"location":2048,"sha":2049,"Widget":2050,"Ġindices":2051,"tention":2052,"cation":2053,"tribute":2054,"ous":2055,"pd":2056,"Ġsave":2057,"gradi":2058,"Ġleft":2059,"char":2060,"Ġsess":2061,"Ġgraph":2062,"ĊĠĠĠĠĠĠĠĠĠĠĠĠĠĠĠĠĠĠĠĠĠĠĠĠĠĠĠĠĠĠĠĠĠ":2063,"ategorical":2064,"Ġinit":2065,"rectory":2066,"Ġts":2067,"asarray":2068,"pool":2069,"Ġgener":2070,"Ġoptional":2071,":-":2072,"Ġblock":2073,"amples":2074,"mesh":2075,"Ġgrad":2076,"Ġar":2077,"Image":2078,"ylabel":2079,"Ġ--------":2080,"distance":2081,"fra":2082,"ting":2083,"convert":2084,"pair":2085,"`,":2086,"training":2087,"iloc":2088,"Ġ((":2089,"Ġeach":2090,"ou":2091,"Ġfirst":2092,"Ġcontext":2093,"84":2094,"any":2095,"ify":2096,"assertRaises":2097,"drop":2098,"Ġover":2099,"stribu":2100,"Ġtheano":2101,"cision":2102,"utes":2103,"Ġbox":2104,"real":2105,"Ġsource":2106,"anti":2107,"Ġconv":2108,"side":2109,"search":2110,"assifi":2111,"prop":2112,"sys":2113,"Ġmap":2114,"meas":2115,"uments":2116,"store":2117,"66":2118,"Ġpoints":2119,"35":2120,":,":2121,"go":2122,"quest":2123,"ĠType":2124,"Ġraw":2125,"()[":2126,"Tra":2127,"90":2128,"Ġid":2129,"Lo":2130,"scalar":2131,"Series":2132,"Ġnames":2133,"Ġitem":2134,"Ġact":2135,"sid":2136,"Ġcent":2137,"(['":2138,"png":2139,"wa":2140,"rot":2141,"cket":2142,"reduce":2143,"ĠPar":2144,"diction":2145,"option":2146,"idation":2147,"Ġparam":2148,"bot":2149,"andard":2150,"buffer":2151,"Ġsign":2152,"95":2153,"evalu":2154,"assertAll":2155,"Ġinfo":2156,"Ġdimension":2157,"adding":2158,"mory":2159,"cost":2160,"Ġnormal":2161,"cura":2162,"gre":2163,"ics":2164,"Ġmod":2165,"27":2166,"nb":2167,"uint":2168,"amer":2169,"Ġaxes":2170,"roll":2171,"xlabel":2172,"Ġ..":2173,"Lab":2174,"first":2175,"iven":2176,"NA":2177,"models":2178,"lag":2179,"LAG":2180,"Ġav":2181,"Ġstri":2182,"acc":2183,"Fe":2184,"Ġbreak":2185,"Ġpick":2186,"Ġwhich":2187,"Ġunit":2188,"cut":2189,"CE":2190,"dian":2191,"ranch":2192,"Sp":2193,"integ":2194,"lable":2195,"ropy":2196,"draw":2197,"curacy":2198,"ION":2199,"summary":2200,"ases":2201,"45":2202,"Ġds":2203,"beta":2204,"Ġhave":2205,"TH":2206,"Ġmeta":2207,"UN":2208,"85":2209,"pytest":2210,"DF":2211,"filt":2212,"Ġret":2213,"ĠTest":2214,"tuple":2215,"alle":2216,"Ġwor":2217,"AS":2218,"Line":2219,"ĠReturns":2220,"tk":2221,"[:-":2222,"pts":2223,"next":2224,"itude":2225,"Ġbool":2226,"sup":2227,"ulari":2228,"pick":2229,"Ġonly":2230,"unique":2231,"nc":2232,"down":2233,"remove":2234,"scription":2235,"\"))":2236,"Fun":2237,"Ġfeatures":2238,"Ġkernel":2239,"========":2240,"Ġoutputs":2241,"full":2242,"Ġlast":2243,"parent":2244,"flags":2245,"font":2246,"sigma":2247,"ined":2248,"ĠAr":2249,"htt":2250,"Ġcolle":2251,"Ġsc":2252,"The":2253,"LAGS":2254,"ĠException":2255,"Ġ[-":2256,"bound":2257,"ĊĠĠĠĠĠĠĠĠĠĠĠĠĠĠĠĠĠĠĠĠĠĠĠĠĠĠĠĠĠĠĠĠĠĠ":2258,"region":2259,"opt":2260,"ector":2261,"37":2262,"Se":2263,"onents":2264,"dimension":2265,"initializer":2266,"ĠZ":2267,"Ġ'_":2268,"FF":2269,"Ġcore":2270,"ground":2271,"rection":2272,"87":2273,"Box":2274,"year":2275,"tools":2276,"ĠCon":2277,"_(":2278,"exec":2279,"Ġsorted":2280,"ĊĠĠĠĠĠĠĠĠĠĠĠĠĠĠĠĠĠĠĠĠĠĠĠĠĠĠĠĠĠĠĠĠĠĠĠĠ":2281,"Ġatom":2282,"pars":2283,"pr":2284,"tical":2285,").__":2286,"vision":2287,"://":2288,"sitions":2289,"src":2290,"sian":2291,"Ġ'\\":2292,"ai":2293,"ĊĠĠĠĠĠĠĠĠĠĠĠĠĠĠĠĠĠĠĠĠĠĠĠĠĠĠĠĠĠĠĠĠĠĠĠĠĠĠĠ":2294,"Ġsklearn":2295,"tes":2296,"Ġ\",":2297,"uble":2298,"ĠTypeError":2299,"DATA":2300,"ved":2301,"Ġattr":2302,"perim":2303,"ility":2304,"gt":2305,"dic":2306,"alysis":2307,"comb":2308,"Ġdep":2309,"mplemented":2310,"CA":2311,"Ġ'%":2312,"06":2313,"Ġheight":2314,"Ġ',":2315,"Le":2316,"eb":2317,"fc":2318,"itle":2319,"Ġoffset":2320,"=%":2321,"Ġxrange":2322,"metric":2323,"poly":2324,"holder":2325,"legend":2326,".\"":2327,"~~":2328,"uniform":2329,"eric":2330,"day":2331,"requency":2332,"respon":2333,"Ġdec":2334,"Ġpoint":2335,"Ġupdate":2336,"36":2337,"attrs":2338,"Ġ'__":2339,"coef":2340,"Map":2341,"band":2342,"anel":2343,"parameter":2344,"bit":2345,"zip":2346,"Ġpol":2347,"Ġfont":2348,"``":2349,"module":2350,"({'":2351,"PO":2352,"Text":2353,"dered":2354,")+":2355,"94":2356,"UL":2357,"ii":2358,"proj":2359,"med":2360,"Ġoptions":2361,"hidden":2362,"Ġextra":2363,"Up":2364,"ide":2365,"ain":2366,"Ġerr":2367,"ratio":2368,"phi":2369,"amera":2370,"Plot":2371,".],":2372,"Ġtri":2373,"prefix":2374,"FI":2375,"parti":2376,"status":2377,"Ġbi":2378,"Ġkeras":2379,"Ġev":2380,"97":2381,"fici":2382,"Ġlat":2383,"****":2384,"ĠThis":2385,"ĠQt":2386,"culate":2387,"]+":2388,"Ġscal":2389,"fields":2390,"exists":2391,"Ġdel":2392,"hy":2393,"avg":2394,"Case":2395,"ader":2396,"Ġfill":2397,"arker":2398,"Ġlib":2399,"ple":2400,"Ġaction":2401,"bias":2402,"Ġglobal":2403,"nu":2404,"Ġind":2405,"Ġdoc":2406,"merge":2407,"lean":2408,"sible":2409,"Ġ1000":2410,"AD":2411,"Log":2412,"dense":2413,"kw":2414,"Ġnd":2415,"Base":2416,"Ele":2417,"88":2418,"layout":2419,"ING":2420,"Ġfiles":2421,"Ġcf":2422,"prod":2423,"pyplot":2424,"cluster":2425,"wrap":2426,"Ġhasattr":2427,"Ġheader":2428,"compute":2429,")).":2430,"_{":2431,"mbol":2432,"sw":2433,"Ġback":2434,"tour":2435,"pad":2436,"ted":2437,"Ġnb":2438,"Ġsame":2439,"stribution":2440,"De":2441,"Ġvector":2442,"high":2443,"static":2444,"task":2445,"olute":2446,"enate":2447,"Ġstruct":2448,"align":2449,"colors":2450,"ping":2451,"rec":2452,"sequence":2453,"sur":2454,"swith":2455,"sm":2456,"Ġstats":2457,".)":2458,"Ġtraining":2459,"Ġtransform":2460,"counts":2461,"TY":2462,"Ġ...":2463,"Conv":2464,"shift":2465,"Graph":2466,"sym":2467,"No":2468,"cies":2469,"fs":2470,"inates":2471,"Layer":2472,"ources":2473,"logger":2474,"Ġcell":2475,"Ġmon":2476,"epochs":2477,"Ġdelta":2478,"Ġvariables":2479,"best":2480,"periment":2481,"dev":2482,"Ġparameters":2483,"UM":2484,"PI":2485,"cm":2486,"ighb":2487,"Pre":2488,"channels":2489,"Ġ[(":2490,"nown":2491,"Output":2492,"bounds":2493,"NN":2494,"auto":2495,"threshold":2496,"words":2497,"State":2498,"patch":2499,"metrics":2500,"chunk":2501,"ĊĠĠĠĠĠĠĠĠĠĠĠĠĠĠĠĠĠĠĠĠĠĠĠĠĠĠĠĠĠĠĠĠĠĠĠĠĠ":2502,"Ġsq":2503,"ZE":2504,"Max":2505,"Path":2506,"1000":2507,"gex":2508,"Ġconstant":2509,"ba":2510,"else":2511,"sn":2512,"diag":2513,"dr":2514,"Ġwarnings":2515,"uffle":2516,"]).":2517,"link":2518,"23":2519,"ness":2520,"psi":2521,"ans":2522,"Ġcode":2523,"energy":2524,"cel":2525,"pectrum":2526,"inv":2527,"cube":2528,"Ġcall":2529,"efault":2530,"'+":2531,"Ġ'/":2532,"Ġgetattr":2533,"Comp":2534,"signal":2535,"Ġcontrol":2536,"entry":2537,"Norm":2538,"cho":2539,"::":2540,"uted":2541,"DEF":2542,"%(":2543,"eps":2544,"Ġ_,":2545,"widget":2546,"build":2547,"Ġutils":2548,"Ġnext":2549,"Ġinte":2550,"ĊĠĠ":2551,"lap":2552,"final":2553,"dis":2554,"Ġstd":2555,"neg":2556,"Ġdate":2557,"flux":2558,"ating":2559,"Ġsu":2560,"attern":2561,"Ġquery":2562,"Ġ\"\\":2563,"ush":2564,"Fi":2565,"SS":2566,"[:]":2567,"('%":2568,"IO":2569,"Ġmu":2570,"long":2571,"Ġpi":2572,"child":2573,"randn":2574,"det":2575,"Ġ15":2576,"kernel":2577,"upper":2578,"Ġmy":2579,"At":2580,"bas":2581,"Ġspecifi":2582,"style":2583,"etwe":2584,"Table":2585,"skip":2586,"deg":2587,"Ġgiven":2588,"etween":2589,"Ġnn":2590,"Ġjson":2591,"tributes":2592,"Ġnon":2593,"ĠCo":2594,"Ġsamples":2595,"]-":2596,"vocab":2597,"96":2598,"sorted":2599,"TestCase":2600,"ussian":2601,"itor":2602,"ture":2603,"Ġfound":2604,"Ġwindow":2605,"_%":2606,"levels":2607,"---":2608,"ĊĠĠĠĠĠĠĠĠĠĠĠĠĠĠĠĠĠĠĠĠĠĠĠĠĠĠĠĠĠĠĠĠĠĠĠĠĠĠ":2609,"kl":2610,"sor":2611,"ons":2612,"verbose":2613,"UR":2614,"queue":2615,"nal":2616,"argv":2617,"Ġmain":2618,"Ġoper":2619,"ometry":2620,"Ġvalid":2621,"display":2622,"Ġ),":2623,"titem":2624,"perties":2625,"Ġ:]":2626,"Ġge":2627,"('--":2628,"linspace":2629,"Ġ50":2630,"_,":2631,"cr":2632,"ost":2633,"linalg":2634,"corr":2635,"ength":2636,"transpose":2637,"complex":2638,"iled":2639,"Ġloc":2640,"oper":2641,"olume":2642,"Ġsigma":2643,"tile":2644,"lr":2645,"squ":2646,"idate":2647,"Ġlocal":2648,"()))":2649,"Ġuser":2650,"has":2651,"Ġ:,":2652,"Ġinst":2653,"Ġ-=":2654,"folder":2655,"Ġpcv":2656,"TI":2657,"aries":2658,"scores":2659,"orith":2660,"INE":2661,"handle":2662,"fits":2663,"Ġso":2664,"28":2665,"coding":2666,"extend":2667,"ticks":2668,"viron":2669,"Ġ{\"":2670,"air":2671,"assifier":2672,"Ġ->":2673,"ee":2674,"iew":2675,"Ġ],":2676,"system":2677,"gine":2678,"change":2679,"Ġchunk":2680,"26":2681,"Info":2682,"placeholder":2683,"Matrix":2684,"Label":2685,"Ġ30":2686,"html":2687,"Ġter":2688,"control":2689,"gamma":2690,"env":2691,"Ġtitle":2692,"mooth":2693,"vas":2694,"Ġ//":2695,"Ġseg":2696,"ixed":2697,"Ġactual":2698,"Ġdisp":2699,"Ġfield":2700,"less":2701,"power":2702,"savefig":2703,"Ġspec":2704,"stances":2705,"ĠSt":2706,"concatenate":2707,"fy":2708,"ank":2709,"Ac":2710,"EL":2711,"post":2712,"Ġfn":2713,"resample":2714,"Ġ----------":2715,"Ġwhere":2716,"xs":2717,"Ġpl":2718,"settings":2719,"Ġembed":2720,"shapes":2721,"peri":2722,"fore":2723,"Key":2724,"mul":2725,"Ġscore":2726,"ĠTime":2727,"Ġ},":2728,"cap":2729,"ĠJ":2730,"Ġsm":2731,"only":2732,"Ġslice":2733,"Ġ*=":2734,"Ġelement":2735,"Ġsparse":2736,"agg":2737,"Ġuni":2738,"record":2739,"fft":2740,"Ġdest":2741,"ister":2742,"Ġshow":2743,"Ġ255":2744,"Ġ----":2745,"Ġmx":2746,"Ġparameter":2747,"Ġang":2748,"Ġ'-":2749,"sec":2750,"Ġyield":2751,"SIZE":2752,"domain":2753,"fin":2754,"rng":2755,"ris":2756,"Ġusing":2757,"just":2758,"stru":2759,"Count":2760,"light":2761,"Implemented":2762,"ategy":2763,"SA":2764,"war":2765,"Ġpri":2766,"Ġhist":2767,"ced":2768,"Ġrequi":2769,"vide":2770,"dirs":2771,"cer":2772,"trace":2773,"Ġepochs":2774,"ular":2775,"pdf":2776,"Ġ11":2777,"dump":2778,"tz":2779,"__':":2780,"Ġ16":2781,"Ġwrite":2782,"LI":2783,"relu":2784,"evaluate":2785,"Ġ):":2786,"active":2787,"gress":2788,"Ġsrc":2789,"dm":2790,"Ġword":2791,"String":2792,"44":2793,"keras":2794,"single":2795,",:]":2796,"boxes":2797,"hi":2798,"Qt":2799,"ingle":2800,"Ġ25":2801,"tail":2802,"ning":2803,"98":2804,"For":2805,"identi":2806,"\",\"":2807,"TYPE":2808,"ence":2809,"ĠParameters":2810,",-":2811,"07":2812,"Fa":2813,"lack":2814,"Point":2815,"Button":2816,"Ġlines":2817,"message":2818,"truth":2819,"Column":2820,"([\"":2821,"alog":2822,"track":2823,"flatten":2824,"assign":2825,"shared":2826,"Ġcollections":2827,"ĊĠĠĠĠ":2828,"loop":2829,"Ġ\"%":2830,"andom":2831,"blem":2832,"mass":2833,"Ġrate":2834,"dio":2835,"Close":2836,"Shape":2837,"('\\":2838,"Ġstop":2839,"structure":2840,"timestamp":2841,"Ġwe":2842,"Ġcontain":2843,"Ġmis":2844,");":2845,"':'":2846,")**":2847,"ered":2848,"gu":2849,"Ġcoun":2850,"Trans":2851,"period":2852,"xx":2853,"CC":2854,"TEST":2855,"job":2856,"Ġ\".":2857,"Ġext":2858,"reader":2859,"]=":2860,"Ġtheta":2861,"Ġseed":2862,"ik":2863,"Ġsequence":2864,"cross":2865,"noise":2866,"MO":2867,"Ġ%(":2868,"38":2869,"ravel":2870,"channel":2871,"ported":2872,"ally":2873,"Ġold":2874,"ilder":2875,"Ġpred":2876,"reset":2877,"mm":2878,"Check":2879,"ves":2880,"COL":2881,"Ġtag":2882,"Ġrank":2883,"SC":2884,"Ġchann":2885,"classifi":2886,"orth":2887,"Ġhigh":2888,"binary":2889,"Ġimages":2890,"itch":2891,"RI":2892,"sitive":2893,"Ġroot":2894,"NAME":2895,"Ġdb":2896,"Ġdistance":2897,"opts":2898,",),":2899,"ane":2900,"gradient":2901,"termin":2902,"INT":2903,"peak":2904,"Int":2905,"Ġnetwork":2906,"Node":2907,"rm":2908,"Ġedge":2909,"ini":2910,"optim":2911,"learning":2912,"Ġbest":2913,"compile":2914,"Ġkeep":2915,"Ġversion":2916,"logy":2917,"ĠNotImplemented":2918,"area":2919,"Ġcompute":2920,"fer":2921,"now":2922,"ower":2923,"ret":2924,"forward":2925,"Color":2926,"/(":2927,"Is":2928,"Ġpix":2929,"Ġbins":2930,"warn":2931,"Ġeval":2932,"77":2933,"server":2934,"Ġ200":2935,"etch":2936,"Inter":2937,"ential":2938,"Ġsur":2939,"regulari":2940,"Ġstat":2941,"components":2942,"site":2943,"case":2944,"serial":2945,"Ġcenter":2946,"ET":2947,"ww":2948,"ency":2949,"ogram":2950,"olean":2951,"Ġwx":2952,"comm":2953,"processing":2954,")-":2955,"Py":2956,"Ġsol":2957,"allel":2958,"average":2959,"repr":2960,"Dir":2961,"ites":2962,"Object":2963,"cated":2964,"ive":2965,"ummy":2966,"ĊĠĠĠĠĠĠĠĠĠĠĠĠĠĠĠĠĠĠĠĠĠĠĠĠĠĠĠĠĠĠĠĠĠĠĠĠĠĠĠĠĠĠĠ":2967,"wave":2968,"orithm":2969,"Number":2970,"\\\\":2971,"cov":2972,"sets":2973,"Ġdepth":2974,"ewidth":2975,"MS":2976,"Net":2977,"ĊĠĠĠĠĠĠĠĠĠĠĠĠĠĠĠĠĠĠĠĠĠĠĠĠĠĠĠĠĠĠĠĠĠĠĠĠĠĠĠĠĠĠ":2978,"ylim":2979,"siz":2980,"oment":2981,"present":2982,"Ġany":2983,"ice":2984,"frames":2985,"Add":2986,"DO":2987,"Date":2988,"Ġpickle":2989,"Qu":2990,":.":2991,"ĠData":2992,"Warning":2993,"ster":2994,"sql":2995,"ametri":2996,"Ġdivision":2997,"Ġunits":2998,"hot":2999,"tolist":3000,"eq":3001,"clu":3002,"ategory":3003,"correct":3004,"wd":3005,"description":3006,"selection":3007,"lease":3008,"Ġmetrics":3009,"Ġcfg":3010,"../":3011,"insert":3012,"ug":3013,"untime":3014,"Not":3015,"Ġ%.":3016,"command":3017,"jor":3018,"mk":3019,"network":3020,"td":3021,"chrom":3022,"Ġrel":3023,"assertAllEqual":3024,"soft":3025,"TO":3026,"rho":3027,"ustom":3028,"gl":3029,"pb":3030,"ability":3031,"Config":3032,"ock":3033,"ED":3034,"Ġ[],":3035,"Form":3036,"clip":3037,"ful":3038,"mut":3039,"Or":3040,"arge":3041,"token":3042,"bad":3043,"ypes":3044,"21":3045,":'":3046,"events":3047,"vis":3048,"ene":3049,"radius":3050,"kens":3051,"peed":3052,"pen":3053,"loud":3054,"ĠAn":3055,"Result":3056,"Ġprob":3057,"selected":3058,"Element":3059,"ient":3060,"Hist":3061,"Ġfull":3062,"imal":3063,"parametri":3064,"Ġpredict":3065,"On":3066,"dings":3067,"Ġfeed":3068,"Almost":3069,"decode":3070,"icy":3071,"AlmostEqual":3072,"Ġdat":3073,"erature":3074,"DIR":3075,"arrays":3076,"Ġwork":3077,"sli":3078,"Ġbeta":3079,"observ":3080,"atoms":3081,"Th":3082,"dirname":3083,"usters":3084,"Params":3085,"Ġbut":3086,"'}":3087,"31":3088,":])":3089,"ather":3090,"api":3091,"ĠTable":3092,",)":3093,"Ġrequest":3094,"indexer":3095,"randint":3096,"ĠPeriod":3097,"ĊĠĠĠĠĠĠĠĠĠĠĠĠĠĠĠĠĠĠĠĠĠĠĠĠĠĠĠĠĠĠĠĠĠĠĠĠĠĠĠĠĠ":3098,"Ġrot":3099,"Ġfind":3100,"2000":3101,"PS":3102,"ling":3103,"rb":3104,"xlim":3105,"Ġrng":3106,"ake":3107,"+\"":3108,"39":3109,"attention":3110,"expand":3111,"andle":3112,"startswith":3113,"Ġdoes":3114,"segment":3115,"Ġmetric":3116,"ox":3117,"ules":3118,"conf":3119,"Ġfontsize":3120,"ink":3121,"Ġsplit":3122,"An":3123,"Ġpad":3124,"ĠIndex":3125,"month":3126,"Ġparent":3127,"With":3128,"gin":3129,"bytes":3130,"parametrize":3131,"\"].":3132,"29":3133,"predictions":3134,"ators":3135,"fl":3136,"Ġ\"__":3137,"ish":3138,"branch":3139,"assertAlmostEqual":3140,"Ġwhen":3141,"ctionary":3142,"memory":3143,"Ġdtypes":3144,"cri":3145,"Ġxy":3146,"variance":3147,"aw":3148,"Ġ''":3149,"directory":3150,"Ġregion":3151,"Ġconvert":3152,"Ġactivation":3153,"sampl":3154,"eager":3155,"asses":3156,"groupby":3157,"section":3158,"ĠNotImplementedError":3159,"Per":3160,"body":3161,"uest":3162,"Ġseq":3163,"Ġtypes":3164,"Ġprocess":3165,"Min":3166,"inner":3167,"script":3168,"Ġyear":3169,"accuracy":3170,"ebq":3171,"Ġspecified":3172,"08":3173,"Temp":3174,"dropout":3175,"rgb":3176,"Ġmessage":3177,"Ġla":3178,"ĠPy":3179,"double":3180,"logical":3181,"CON":3182,"Ġoptimizer":3183,"],[":3184,"9999":3185,"bottom":3186,"</":3187,"depend":3188,"EX":3189,"eak":3190,"Ġtask":3191,"quanti":3192,"groups":3193,"Gui":3194,"cpu":3195,"Ġ'--":3196,"Ġopt":3197,"48":3198,"Ver":3199,"Ġdraw":3200,"255":3201,"--------------------------------":3202,"pass":3203,"Ġcoords":3204,"hood":3205,"47":3206,"proto":3207,":\\":3208,"density":3209,"ring":3210,"Ġfname":3211,"ĠAt":3212,"scatter":3213,"Com":3214,"HT":3215,"logits":3216,"Ġtree":3217,"ose":3218,"example":3219,"Ġgo":3220,"calc":3221,"NO":3222,"conds":3223,"exit":3224,"42":3225,"Ġresp":3226,"targets":3227,"arc":3228,"SP":3229,"}'.":3230,"ily":3231,"mpty":3232,"abled":3233,"ached":3234,"Float":3235,"thread":3236,"Ġconn":3237,"US":3238,"Ġhead":3239,"ration":3240,"sd":3241,"lete":3242,"'s":3243,"Ġtwo":3244,"Ġda":3245,"optimizer":3246,"actions":3247,"encode":3248,"Ġthan":3249,"errors":3250,"aa":3251,"lb":3252,"-%":3253,"Of":3254,"manager":3255,"Ġpadding":3256,"che":3257,"Ġinstance":3258,"atist":3259,"fast":3260,"dition":3261,"Ġinplace":3262,"Ġtimes":3263,"road":3264,"eli":3265,"embedding":3266,"ote":3267,"Ġpredictions":3268,"Ġ(-":3269,"cd":3270,"oriz":3271,"Var":3272,"Ġyou":3273,"Ġtrue":3274,"prox":3275,"objects":3276,"aded":3277,"median":3278,"ek":3279,"./":3280,"ero":3281,"warning":3282,"Ġparse":3283,"export":3284,"untimeError":3285,"FT":3286,"cords":3287,"Sub":3288,"history":3289,"counter":3290,"ij":3291,"used":3292,"onal":3293,"68":3294,"Ad":3295,"[(":3296,"ignore":3297,"ailable":3298,"tn":3299,"Ġvals":3300,"ES":3301,"fp":3302,"Ġign":3303,"this":3304,"formation":3305,"Ġdevice":3306,"lation":3307,"('-":3308,"interval":3309,"ynam":3310,"cp":3311,"Ġkeys":3312,"rary":3313,"org":3314,"Ġobserv":3315,"App":3316,"Ġsignal":3317,"panel":3318,"Ġpair":3319,"cg":3320,"term":3321,"wx":3322,"ead":3323,"client":3324,"cum":3325,"rad":3326,"ĠImage":3327,"(__":3328,",))":3329,"ond":3330,"Item":3331,"Ġposition":3332,"Ġ\"\"":3333,"quee":3334,"Ġexec":3335,"span":3336,"tau":3337,"Dist":3338,"two":3339,"Ġperi":3340,"ĠDefault":3341,"Id":3342,"_)":3343,"repe":3344,"thods":3345,"ving":3346,"star":3347,"Ġmasked":3348,"ĊĠĠĠĠĠĠĠĠĠĠĠĠĠĠĠĠĠĠĠĠĠĠĠĠĠĠĠĠĠĠĠĠĠĠĠĠĠĠĠĠĠĠĠĠĠĠĠĠĠĠĠĠĠĠĠĠĠĠĠĠĠĠĠĠĠĠĠĠĠĠĠĠ":3349,"ssion":3350,"erial":3351,"Na":3352,"olds":3353,"Ġallow":3354,"Ġfactor":3355,"Ġprefix":3356,"symbol":3357,"Ġdistribution":3358,"Ġbetween":3359,"Ġinclude":3360,"()]":3361,"Ġgradi":3362,"writer":3363,"Ġinterpol":3364,"contour":3365,"home":3366,"=[\"":3367,"xt":3368,"ply":3369,"dimage":3370,"Ax":3371,"force":3372,"Multi":3373,"constra":3374,"stream":3375,"001":3376,"aster":3377,"'t":3378,"ĠStr":3379,"fr":3380,"nr":3381,"except":3382,"Ġeps":3383,"Ġpool":3384,"wait":3385,"blocks":3386,"GB":3387,"Group":3388,"speci":3389,"tot":3390,"rain":3391,"sist":3392,"cmd":3393,"Ġtol":3394,"coeff":3395,"('/":3396,")',":3397,"los":3398,"(\"\\":3399,"Ġkind":3400,"xml":3401,",\"":3402,"examples":3403,"Cal":3404,"Ġobs":3405,"Ġdiffe":3406,"(**":3407,"Sh":3408,"Ġmag":3409,"ffix":3410,"Ġatol":3411,"Start":3412,"PUT":3413,"aussian":3414,"categorical":3415,"Ġflat":3416,"Exception":3417,"uffer":3418,"dy":3419,"Ġab":3420,":],":3421,"mc":3422,"ĠĠĠĠĠĠĠĠĠ":3423,"let":3424,"Ġsession":3425,".*":3426,"hain":3427,"torch":3428,"vm":3429,"part":3430,"very":3431,"Ġ14":3432,"isnan":3433,"Ġ{}'.":3434,"oid":3435,"experiment":3436,"Ġproj":3437,"Ġcache":3438,"nx":3439,"encoder":3440,"Ġnan":3441,"asure":3442,"ected":3443,"ĠUn":3444,"Ġsteps":3445,"Ġday":3446,"setup":3447,"Ġabsolute":3448,"Mo":3449,"VER":3450,"black":3451,"Ġzero":3452,"elper":3453,"queeze":3454,"Ġurl":3455,"Ġcsv":3456,"kind":3457,"Ġcy":3458,"Ġap":3459,"sizes":3460,"Ġlow":3461,"Ġsingle":3462,"scre":3463,"Ġdet":3464,"flag":3465,"PU":3466,"rf":3467,"Ġseries":3468,"Window":3469,"pandas":3470,"generator":3471,"ighbors":3472,")')":3473,"IM":3474,"ws":3475,"Ġnodes":3476,"ian":3477,"mble":3478,"ched":3479,"bucket":3480,"EST":3481,"request":3482,"game":3483,"pus":3484,"Cont":3485,"clear":3486,"From":3487,"Ċĉĉĉĉĉĉ":3488,"frac":3489,"fter":3490,"filters":3491,"ifi":3492,"validation":3493,"ither":3494,"iterations":3495,"cb":3496,"tices":3497,"Ġredu":3498,"ĠPro":3499,"Ġsi":3500,"Ġalg":3501,"LECT":3502,"Bin":3503,"uid":3504,"IS":3505,"project":3506,"host":3507,"ines":3508,"Ġtr":3509,"ĠFLAGS":3510,"Ġbound":3511,"xyz":3512,"Grid":3513,"Ġener":3514,"Ġcluster":3515,"Ġhidden":3516,"okup":3517,"Ġli":3518,"dius":3519,"Ġexample":3520,"Ġprop":3521,"ĠArgs":3522,"lst":3523,"positions":3524,"interpol":3525,"staticmethod":3526,"Ġperiods":3527,"atial":3528,"Ġthreshold":3529,":%":3530,"http":3531,"'},":3532,"tran":3533,"inp":3534,"cates":3535,"Ġavg":3536,"Ġsort":3537,"Ġskip":3538,"OT":3539,"ä¸":3540,"2014":3541,")(":3542,"Ġdir":3543,"Ġrows":3544,"Iter":3545,"Ġsetup":3546,"Ġjoin":3547,"alf":3548,"Ġfinal":3549,"Tree":3550,"button":3551,"Ġty":3552,"__\":":3553,"Normal":3554,"Ġ-------":3555,"Dim":3556,"reference":3557,"Ġband":3558,"Ġlon":3559,"Ġjob":3560,"tivity":3561,"BC":3562,"pattern":3563,"}\".":3564,"desc":3565,"oo":3566,"spect":3567,"collection":3568,"regularizer":3569,"mf":3570,"timedelta":3571,"common":3572,"inc":3573,"entropy":3574,"By":3575,"DA":3576,"Gener":3577,"sess":3578,"major":3579,"Ġ/=":3580,"stdout":3581,"stor":3582,"Ġdown":3583,"pow":3584,"compare":3585,"outer":3586,"',')":3587,"']))":3588,"Ġsummary":3589,"Feature":3590,".'":3591,"(\"%":3592,"backend":3593,"ilar":3594,"CK":3595,"simple":3596,"mission":3597,"Ġargparse":3598,"FLAGS":3599,"tab":3600,"Ġchar":3601,"Ġcre":3602,"Train":3603,"ĠMulti":3604,"ategories":3605,"Ġbuild":3606,"Spec":3607,"Parser":3608,"Ġmodule":3609,"Ġvari":3610,"partition":3611,"\"][":3612,"rnn":3613,"Ġctx":3614,"elect":3615,"datasets":3616,"free":3617,"amb":3618,"pectral":3619,"ND":3620,"NT":3621,"Ġlayers":3622,"classmethod":3623,"Ġfilt":3624,"tract":3625,"nection":3626,"ested":3627,"70":3628,"known":3629,"Ġsha":3630,"argmax":3631,"User":3632,"Wr":3633,"\").":3634,"scan":3635,"lags":3636,"lient":3637,"Random":3638,"Ġclose":3639,"take":3640,"tags":3641,"Ġparti":3642,"click":3643,"hema":3644,"fail":3645,"impl":3646,"Ġscope":3647,"ender":3648,"Ġcost":3649,"Ġoptim":3650,"https":3651,"Ġmay":3652,"response":3653,"\"][\"":3654,"press":3655,"properties":3656,"tains":3657,"Ġ{}\".":3658,"As":3659,"Mod":3660,"gal":3661,"Ġcmap":3662,"Ġ201":3663,"stants":3664,"missing":3665,"decay":3666,"activation":3667,"=[]":3668,"null":3669,"heet":3670,"ĊĠĠĠĠĠĠĠĠĠĠĠĠĠĠĠĠĠĠĠĠĠĠĠĠĠĠĠĠĠĠĠĠĠĠĠĠĠĠĠĠĠĠĠĠ":3671,"prior":3672,"integer":3673,"Pol":3674,"Ġhow":3675,"][\"":3676,"none":3677,"paths":3678,"Ġ32":3679,"Ġstride":3680,"OP":3681,"Ġci":3682,"Ġmerge":3683,"Ġmonth":3684,"Ġfra":3685,"lope":3686,"interp":3687,"hash":3688,"Invalid":3689,"ĠFor":3690,"Bound":3691,"hat":3692,"thresh":3693,"tests":3694,"PAT":3695,"Ġmp":3696,"gradients":3697,"}.":3698,"lengths":3699,"sidual":3700,"ULT":3701,"Ġperiod":3702,"collections":3703,"BU":3704,"Ġpop":3705,"Ġforward":3706,"days":3707,"Sum":3708,"pg":3709,"ral":3710,"Ġdisplay":3711,"Vector":3712,"peline":3713,"radient":3714,"Oper":3715,"Ġinto":3716,"apping":3717,"locity":3718,"generate":3719,"Ġndarray":3720,"SV":3721,"include":3722,"[[":3723,"()),":3724,"joint":3725,"tt":3726,"Ġlower":3727,"inate":3728,"ficients":3729,"Ġstandard":3730,"->":3731,"GL":3732,"aff":3733,"ĠKey":3734,"Ġfin":3735,"bers":3736,"sep":3737,"__,":3738,"Ġ'{":3739,"Ġmarker":3740,"Ġbot":3741,"']]":3742,"Mes":3743,"resize":3744,"ptional":3745,"attributes":3746,"101":3747,"cdf":3748,"Class":3749,"Function":3750,"pairs":3751,"Ġmemory":3752,"$\\":3753,"nonzero":3754,"Ed":3755,"dup":3756,"lev":3757,"gray":3758,"isinstance":3759,"deredDict":3760,"Dis":3761,"Ġround":3762,"Ġmock":3763,"OL":3764,"vol":3765,"\"+":3766,":{":3767,"Core":3768,"enu":3769,"Ġreference":3770,"')[":3771,"Des":3772,"__)":3773,"moid":3774,"Ġ\"/":3775,"Ġsen":3776,"hdf":3777,"Ġau":3778,"imshow":3779,"ENT":3780,"frequency":3781,"Ġgl":3782,"zed":3783,"Ġlimit":3784,"Ġcase":3785,"vectors":3786,"KE":3787,"usion":3788,"engine":3789,"hether":3790,"Ġsecond":3791,"component":3792,"lec":3793,"Ġ13":3794,"128":3795,"Ġangle":3796,"Run":3797,"assed":3798,"Ġmore":3799,"TypeError":3800,"loor":3801,"coordinates":3802,"Ġ])":3803,"Ġcross":3804,"Ġtoken":3805,"template":3806,"ï¼":3807,"Ġtz":3808,"Ġtau":3809,"report":3810,"measure":3811,"dest":3812,"Ġmesh":3813,"canvas":3814,"Ġgenerate":3815,"roadcast":3816,"Rep":3817,"standard":3818,"original":3819,"Mask":3820,"vided":3821,"price":3822,"Ġvocab":3823,"SH":3824,"zy":3825,"Ġtile":3826,"content":3827,"~~~~":3828,"_.":3829,"ccess":3830,"Ġlearning":3831,"Range":3832,"sources":3833,"environ":3834,"Ġaverage":3835,"assertFalse":3836,"[::-":3837,"BA":3838,"locs":3839,"000000":3840,"Points":3841,"}\\":3842,"clean":3843,"chain":3844,"Ġstack":3845,"vices":3846,"cuda":3847,"progress":3848,"checkpoint":3849,"bits":3850,"Ġ\"_":3851,"lp":3852,"mol":3853,"uples":3854,"Ġ40":3855,"oom":3856,"ptr":3857,"()):":3858,"quences":3859,"ĠOr":3860,"Mode":3861,"VAL":3862,"tern":3863,"tems":3864,"arest":3865,"Classifier":3866,"AP":3867,"ABLE":3868,"xi":3869,"Ġsa":3870,"Pool":3871,"Ġrequired":3872,"mid":3873,"squeeze":3874,"ggreg":3875,"same":3876,"product":3877,"ues":3878,"strib":3879,"Ġflux":3880,"ATION":3881,"callback":3882,"History":3883,"register":3884,"Cur":3885,"ology":3886,"Ġreal":3887,"DEFINE":3888,"89":3889,"={'":3890,"pixels":3891,"orizont":3892,",\\":3893,"delete":3894,"([])":3895,"clf":3896,"ticles":3897,"MAX":3898,"fetch":3899,"Ġwas":3900,"Arg":3901,"IL":3902,"arm":3903,"Ġrespon":3904,")\"":3905,"ution":3906,"Ġhe":3907,"ROM":3908,"=.":3909,"Ġscalar":3910,"ynamic":3911,"ks":3912,"Ġevalu":3913,"Ġsearch":3914,"pickle":3915,"auth":3916,"Ġdictionary":3917,"111":3918,"Ġbounds":3919,"Ġsupported":3920,"TR":3921,"urst":3922,"Ġmass":3923,"extract":3924,"Ġorigin":3925,"tributeError":3926,"ared":3927,"tact":3928,"denti":3929,":',":3930,"Layout":3931,"subplots":3932,"dc":3933,"alt":3934,"Ġdis":3935,"Ġcols":3936,"ĊĠĠĠĠĠĠĠĠĠĠĠĠĠĠĠĠĠĠĠĠĠĠĠĠĠĠĠĠĠĠĠĠĠĠĠĠĠĠĠĠĠĠĠĠĠĠĠ":3937,"masked":3938,"angles":3939,"pixel":3940,"softmax":3941,"49":3942,"_[":3943,"Ġscores":3944,"ĠRuntimeError":3945,"Ġargument":3946,"500":3947,"sive":3948,"compat":3949,"Ġbias":3950,"Ġinteger":3951,"Ġleg":3952,"CL":3953,"tice":3954,"Ġsw":3955,"assertAllClose":3956,"decoder":3957,"Ġcos":3958,"Ġchain":3959,"feed":3960,"Pos":3961,"dig":3962,"Ġglob":3963,"ĠTensor":3964,"Ġ60":3965,"crop":3966,"Ġcap":3967,"tection":3968,"elihood":3969,"Ġcs":3970,"([],":3971,"requi":3972,"stim":3973,"spy":3974,"IGHT":3975,"Scal":3976,"perio":3977,"newaxis":3978,"Ġnoise":3979,"Block":3980,"Sy":3981,"Ġthen":3982,"Ġsystem":3983,"300":3984,"Ġiris":3985,"))]":3986,"px":3987,"zation":3988,"Cell":3989,"Ġforce":3990,"Ġrtol":3991,"([(":3992,"clusters":3993,"safe":3994,"He":3995,"VE":3996,"Post":3997,"reindex":3998,"analysis":3999,"istic":4000,"aco":4001,"river":4002,"Ġhy":4003,"duration":4004,"PATH":4005,"Ġpost":4006,"gz":4007,"tool":4008,"ages":4009,"Ġarea":4010,"orizontal":4011,"wb":4012,"ctx":4013,"Ġbody":4014,"ĊĠĠĠĠĠĠĠĠĠĠĠĠĠĠĠĠĠĠĠĠĠĠĠĠĠĠĠĠĠĠĠĠĠĠĠĠĠĠĠĠĠĠĠĠĠ":4015,"Ġarrays":4016,"ective":4017,"}$":4018,"Ġequal":4019,"Ġmissing":4020,"ots":4021,"Ġimp":4022,"assertIs":4023,"Ġphi":4024,"Ġsql":4025,"br":4026,"adr":4027,"Ġfigure":4028,"Ġupdates":4029,"Ġbbox":4030,"Ġxs":4031,"Ġground":4032,"Ġattention":4033,"Ġneg":4034,"ollow":4035,"/'":4036,"bbox":4037,"atype":4038,"ileup":4039,"ĊĠĠĠĠĠĠĠĠĠĠĠĠĠĠĠĠĠĠĠĠĠĠĠĠĠĠĠĠĠĠĠĠĠĠĠĠĠĠĠĠĠĠĠĠĠĠ":4040,"jectory":4041,"Ġenv":4042,"Ġcontaining":4043,"ged":4044,"maximum":4045,"actual":4046,"mem":4047,"roi":4048,"']),":4049,"calculate":4050,"surface":4051,"direction":4052,"batches":4053,"Ġarguments":4054,"Ġunittest":4055,"Ne":4056,"mbols":4057,"blue":4058,"white":4059,"mit":4060,"volume":4061,"invalid":4062,"geometry":4063,"igen":4064,"Ġrs":4065,"roller":4066,"seline":4067,"replic":4068,"Ġenergy":4069,"__()":4070,"contrib":4071,"iterator":4072,"Code":4073,"Ġ'+":4074,"sired":4075,"Ġsym":4076,"]/":4077,"tex":4078,"Ġbl":4079,"Ġdensity":4080,"Gradient":4081,"spectrum":4082,"strategy":4083,"fixed":4084,"limits":4085,"tence":4086,"Ġevents":4087,"logging":4088,"ĠSee":4089,"buf":4090,"ĠNum":4091,"Fit":4092,"Pri":4093,"Weight":4094,"camera":4095,"wfn":4096,"getitem":4097,"elec":4098,"Ġobjects":4099,"Ġcond":4100,"...,":4101,"cells":4102,"(',')":4103,"09":4104,"Ġii":4105,"ĠVariable":4106,"lities":4107,"ATE":4108,"imp":4109,"sf":4110,"Ġcmd":4111,"Ġdrop":4112,"ready":4113,"ĠDi":4114,"Medi":4115,":\",":4116,"Ġcommand":4117,"Ġestim":4118,"erance":4119,"Ġcut":4120,"Ġpoly":4121,"gon":4122,"encies":4123,"validate":4124,"records":4125,"Ġ\"--":4126,"Ġresponse":4127,"Batch":4128,"win":4129,"inst":4130,"Ġpylab":4131,"Ġcolors":4132,"=='":4133,"Ġcoef":4134,"Do":4135,"uting":4136,"velocity":4137,")].":4138,"Rate":4139,"ĠImport":4140,"identity":4141,"warnings":4142,"Ġcr":4143,"Ġalign":4144,"spin":4145,"acity":4146,"78":4147,"ndims":4148,"Ġauto":4149,"omial":4150,"unittest":4151,"ĠQtGui":4152,"Ġstructure":4153,"jobs":4154,"wav":4155,"Ġflag":4156,"ading":4157,"short":4158,"hyper":4159,"Ġnc":4160,"Ġface":4161,"Ġcm":4162,"fied":4163,"percent":4164,"Ġlong":4165,"Ġneed":4166,"Ġdimensions":4167,"Ġpart":4168,"silon":4169,"expect":4170,"Names":4171,"histogram":4172,"second":4173,"after":4174,"structor":4175,"andler":4176,"/%":4177,"inds":4178,"Ġdirectory":4179,"stride":4180,"={}":4181,"ros":4182,"Ċĉĉĉĉĉ":4183,"orb":4184,"Ġsin":4185,"Ġreturned":4186,"Ġoriginal":4187,"inplace":4188,"Ġcho":4189,"Ġ(%":4190,"pli":4191,"arti":4192,"Ġsix":4193,"Ġterm":4194,"II":4195,"delay":4196,"Ġtrack":4197,"180":4198,"Ġcalcul":4199,"DB":4200,"hour":4201,"Ġstyle":4202,"Ġempty":4203,"luid":4204,"origin":4205,"fold":4206,"ditional":4207,"elements":4208,"Ġzeros":4209,"Ġ\"-":4210,"Ġview":4211,"prediction":4212,"])))":4213,"estimators":4214,"Field":4215,"ession":4216,"mapping":4217,"Ġ64":4218,"Ġfix":4219,"Transform":4220,"repeat":4221,"999":4222,"cessed":4223,"Ġchild":4224,"!!":4225,"Ġtran":4226,"leep":4227,"ells":4228,"chi":4229,"epcopy":4230,"ĠPo":4231,"relation":4232,"alignment":4233,"pdb":4234,"tokens":4235,"Ġelements":4236,"Ġndimage":4237,"ulse":4238,"Ġvis":4239,"syn":4240,"Regex":4241,"nm":4242,"ĠDataset":4243,"Ġcube":4244,"Ġrho":4245,"Ġå":4246,"Ġdx":4247,"phase":4248,"================":4249,"cmap":4250,"ĠĠĠĠĠĠĠĠĠĠ":4251,"fmt":4252,"Ġ})":4253,"Ġival":4254,"Ġpp":4255,"plant":4256,"execute":4257,"Ġembedding":4258,"partial":4259,"egin":4260,"Ġprev":4261,"argin":4262,"world":4263,"vtk":4264,"Ġta":4265,"probs":4266,"Ġcorrect":4267,"Ġls":4268,"theano":4269,"omentum":4270,"Ġradius":4271,"Ġmetadata":4272,")'":4273,"cached":4274,"Ġpt":4275,"Ġsav":4276,"const":4277,"Ġtrace":4278,"Ġinitializer":4279,"AULT":4280,"Ġexist":4281,"figsize":4282,"2013":4283,"Ġcombin":4284,"ĠImportError":4285,"69":4286,"padding":4287,"derr":4288,"ML":4289,"Ġ::":4290,"subject":4291,"lecule":4292,"Ġvec":4293,"Ġdebug":4294,"numeric":4295,"Ġthread":4296,"rest":4297,"anged":4298,"expr":4299,"dof":4300,"ools":4301,"Ġsamp":4302,"Ġ\"+":4303,"profile":4304,"square":4305,"ned":4306,"Ġnx":4307,"Ġstream":4308,"functions":4309,"Ġmodels":4310,"nov":4311,"********":4312,"epsilon":4313,"precision":4314,"Ġshuffle":4315,"smooth":4316,"Ġpassed":4317,"Ġafter":4318,"Ġitertools":4319,"Func":4320,"otential":4321,"means":4322,"+=":4323,"tan":4324,"Ġgre":4325,"Linear":4326,"New":4327,"leaf":4328,"fil":4329,"([-":4330,"PRO":4331,"ters":4332,"agent":4333,"latform":4334,"normalize":4335,"fontsize":4336,"big":4337,"curve":4338,"Ġverify":4339,"Ġcomponent":4340,"psilon":4341,"Length":4342,"UB":4343,"Wh":4344,"tm":4345,"Ġmaximum":4346,"prev":4347,"Ġans":4348,"Ġlinewidth":4349,"Ġignore":4350,"ination":4351,"cii":4352,")}":4353,"Can":4354,"NUM":4355,"framework":4356,"Ġ$":4357,"vious":4358,"Ġte":4359,"utf":4360,"wp":4361,"divid":4362,"AA":4363,"geo":4364,"proc":4365,"rotation":4366,"basis":4367,"ulary":4368,"COLOR":4369,"category":4370,"Ġids":4371,"mega":4372,"Ġflags":4373,"circ":4374,"rence":4375,"background":4376,"tainer":4377,"FILE":4378,"Ġproblem":4379,"Ġprovided":4380,"limiter":4381,"ferences":4382,"dimensions":4383,"CS":4384,"TRA":4385,"XY":4386,"Ġgamma":4387,"Ġchannel":4388,"63":4389,"Ġ([":4390,"Ġsettings":4391,"Ġvalidation":4392,"oked":4393,"Obj":4394,"losses":4395,"Ġphj":4396,"Ġwords":4397,"tension":4398,"ĠAttributeError":4399,"bg":4400,"Ġcorrespon":4401,"Event":4402,"ances":4403,"Ġreturns":4404,"ĠList":4405,"ĠOptional":4406,"while":4407,"Cannot":4408,"enter":4409,"iteritems":4410,"Ġshift":4411,"floor":4412,"Ġedges":4413,"Ġ19":4414,"apter":4415,"Ġeither":4416,"handler":4417,"periods":4418,"UP":4419,"Ġren":4420,"ĊĠĠĠĠĠĠĠĠĠĠĠĠĠĠĠĠĠĠĠĠĠĠĠĠĠĠĠĠĠĠĠĠĠĠĠĠĠĠĠĠĠĠĠĠĠĠĠĠĠ":4421,"End":4422,"bb":4423,"Ġapply":4424,"PAR":4425,"Ġet":4426,"Ġspeci":4427,"Ġrep":4428,"operator":4429,"mn":4430,"Ġrect":4431,"modes":4432,"NP":4433,"centi":4434,"çļ":4435,"Ġconcat":4436,"ĠModel":4437,"Ġupper":4438,"çļĦ":4439,"Meta":4440,"marker":4441,"rer":4442,"Ġpeak":4443,"Values":4444,"ressor":4445,"mx":4446,".),":4447,"chor":4448,"Ġspace":4449,"ners":4450,"rem":4451,"Ġfp":4452,"Ġtargets":4453,"Ġunique":4454,"Ġtk":4455,"Ġdy":4456,"NS":4457,"Ġcat":4458,"filepath":4459,"Ġerrors":4460,"Level":4461,"licates":4462,"imread":4463,"Ġchrom":4464,"small":4465,"occ":4466,"mixed":4467,"send":4468,"sampling":4469,"Ġannot":4470,"fact":4471,"Ġcoordinates":4472,"Filter":4473,"Ke":4474,"cam":4475,"isode":4476,"Ġeq":4477,"traj":4478,"ĊĠĠĠĠĠĠĠĠĠĠĠĠĠĠĠĠĠĠĠĠĠĠĠĠĠĠĠĠĠĠĠĠĠĠĠĠĠĠĠĠĠĠĠĠĠĠĠĠĠĠĠ":4479,"ĠKeyError":4480,"mes":4481,"ĠTEST":4482,"ensure":4483,"vg":4484,"Ġremove":4485,"Ġxp":4486,"}{":4487,"Medical":4488,"bn":4489,"mer":4490,"utation":4491,"Ġcounts":4492,"Wor":4493,"{'":4494,"[:,:,":4495,"Ġclasses":4496,"Ġæ":4497,"Coord":4498,"Ġfmt":4499,"lookup":4500,"atible":4501,"ric":4502,"vecs":4503,"csr":4504,"elem":4505,"Ġcalc":4506,"gui":4507,"Ġinp":4508,"velength":4509,"ĠComp":4510,"inverse":4511,"Ġencoder":4512,"Parameter":4513,"vid":4514,"distribution":4515,"Ġrepresent":4516,"Ġsep":4517,"diffe":4518,"Ġattrs":4519,"cycle":4520,"Ġinterval":4521,"asis":4522,"moved":4523,"ĠLine":4524,"({\"":4525,"Ġnormalize":4526,"Module":4527,"Bu":4528,"extension":4529,"render":4530,"tables":4531,"Ġstrides":4532,"choice":4533,"nitude":4534,"rees":4535,"gger":4536,"asic":4537,"Ġextract":4538,"ĠString":4539,"Ġcalculate":4540,"MPLE":4541,"GR":4542,"Ġsn":4543,"Ġresource":4544,"precated":4545,"256":4546,"otor":4547,"program":4548,"ĠID":4549,"Ġutil":4550,"cloud":4551,"rich":4552,"56":4553,"dp":4554,"master":4555,"AM":4556,"kelihood":4557,"raise":4558,"Ġlinear":4559,"79":4560,"CI":4561,"vstack":4562,"Ġfields":4563,"Timestamp":4564,"AND":4565,"Ġrecord":4566,"ulator":4567,"Instance":4568,"Ġsegment":4569,"ientation":4570,"Cor":4571,"dataframe":4572,"hase":4573,"plots":4574,"worker":4575,"solver":4576,"Session":4577,"Ġast":4578,"Ġmeasure":4579,"Ġlocation":4580,"Ġepsilon":4581,"addWidget":4582,"Ġclf":4583,"Ġdropout":4584,"park":4585,"Ġvs":4586,"NE":4587,"URE":4588,"ending":4589,"ERS":4590,"Ġlink":4591,"rl":4592,"Ġlw":4593,"Ġdescription":4594,"Ġsupport":4595,"ulate":4596,"lication":4597,"basic":4598,"=_":4599,"instr":4600,"parallel":4601,"INPUT":4602,"mplete":4603,"eye":4604,"Space":4605,"Action":4606,"PH":4607,"Row":4608,"speed":4609,"loads":4610,"Ġindexer":4611,"Ġtick":4612,"))))":4613,"Ġdims":4614,"basename":4615,"SELECT":4616,"Ġdifferent":4617,"Ġalgorithm":4618,"ĠOrderedDict":4619,")\")":4620,"MIN":4621,"mail":4622,"Cache":4623,"Ġhandle":4624,"matmul":4625,"Ġprecision":4626,"ĠsetUp":4627,"'%":4628,"^{":4629,")*(":4630,"plantcv":4631,"feat":4632,"Def":4633,"Det":4634,"pc":4635,"Ġselect":4636,"Ġpack":4637,"Ġdesc":4638,"Ġcommon":4639,"Atom":4640,"methods":4641,"oss":4642,"76":4643,"cn":4644,"Ġplace":4645,"codes":4646,"ench":4647,"ctypes":4648,"Ġencoding":4649,"Ġshapes":4650,"audio":4651,"del":4652,"Ġfs":4653,"updates":4654,"builder":4655,"Ġes":4656,"Ġfollow":4657,"Ġbar":4658,"Ġchannels":4659,"Off":4660,"pk":4661,"Ġmark":4662,"rices":4663,"Property":4664,"bed":4665,"cluded":4666,"Argument":4667,"actor":4668,"lish":4669,"Ġbefore":4670,"Ġbinary":4671,",(":4672,"SO":4673,"tw":4674,"Ġmol":4675,"signature":4676,"Open":4677,"MODE":4678,"ĠĠĠĠĠĠĠĠĠĠĠĠ":4679,"Ġlr":4680,"formed":4681,"faces":4682,"Sim":4683,"Ġna":4684,"way":4685,"met":4686,"Ġcov":4687,"Stat":4688,"Ġacc":4689,"\"%":4690,"46":4691,"Sign":4692,"question":4693,"subset":4694,"ĠInput":4695,"slot":4696,"iteri":4697,"Ġexit":4698,"ighbor":4699,"xp":4700,"mal":4701,"acing":4702,"Step":4703,"internal":4704,"Ġsubject":4705,"wards":4706,"Ġctypes":4707,"shuffle":4708,"59":4709,"Mon":4710,"pole":4711,"aml":4712,"book":4713,"iteration":4714,"multiply":4715,"ein":4716,"asfreq":4717,"Ġwrap":4718,"tails":4719,"Ġbottom":4720,"car":4721,"lg":4722,"land":4723,"Ġestimator":4724,"Ġmapping":4725,"ĠSe":4726,"Ġcheckpoint":4727,"View":4728,"Ġinv":4729,"Ġ18":4730,"ĠAS":4731,"docs":4732,"Ġinstead":4733,"aggreg":4734,"yy":4735,"masks":4736,"offsets":4737,"fraction":4738,"Ġsqrt":4739,"encoding":4740,"Ġio":4741,"Ġdense":4742,"deriv":4743,"Ġpyplot":4744,"gene":4745,"Region":4746,"Ġcallback":4747,"TF":4748,"osity":4749,"This":4750,"hstack":4751,"Ġpower":4752,"ges":4753,"elif":4754,"schema":4755,"Ġri":4756,"tight":4757,"Ġcir":4758,"centers":4759,"Ġdomain":4760,"ike":4761,"inu":4762,"lour":4763,"Ġ')":4764,"Ġ17":4765,"centile":4766,"mix":4767,"Ġfast":4768,"abi":4769,"Ġprediction":4770,"green":4771,"helper":4772,"lam":4773,"CR":4774,"CV":4775,"tp":4776,"Ġut":4777,"ilarity":4778,"'\\":4779,"lits":4780,"Ġstates":4781,"(\"-":4782,"Ġexpr":4783,"TIME":4784,"%%":4785,"Loc":4786,"cnt":4787,"neighbors":4788,"Features":4789,"SM":4790,"Ġopts":4791,"ĠCol":4792,"sigmoid":4793,"before":4794,"classification":4795,"Dense":4796,"Total":4797,"custom":4798,"alty":4799,"chan":4800,"Ġdesired":4801,"Ġlearn":4802,"ERR":4803,"Read":4804,"400":4805,"gies":4806,"derer":4807,"fier":4808,"initialize":4809,"good":4810,"ored":4811,"Ġtab":4812,"Ġsmooth":4813,"olve":4814,"Ġconstra":4815,"chunks":4816,"DEFAULT":4817,"Ġspecify":4818,"duct":4819,"ĠĠĠĠĠĠĠĠĠĠĠ":4820,"Ġpatch":4821,"adjust":4822,"Ġconf":4823,"Types":4824,"SION":4825,"children":4826,"Ġfo":4827,"ason":4828,"Ġexpect":4829,"Ġ>>":4830,"mock":4831,"Position":4832,"ĊĠĠĠĠĠĠĠĠĠĠĠĠĠĠĠĠĠĠĠĠĠĠĠĠĠĠĠĠĠĠĠĠĠĠĠĠĠĠĠĠĠĠĠĠĠĠĠĠĠĠĠĠĠĠĠ":4833,"plus":4834,"negative":4835,"allow":4836,"igure":4837,"Ġaccuracy":4838,"Keys":4839,"Handler":4840,"lw":4841,"Ġderi":4842,")/(":4843,"ĠMultiIndex":4844,"Sta":4845,"bus":4846,"rr":4847,"iting":4848,"Ġbad":4849,"osome":4850,"Ġsmall":4851,"classifier":4852,"ym":4853,"rename":4854,"Ġengine":4855,"Ġdatasets":4856,"radio":4857,"solve":4858,"Width":4859,"ural":4860,"npy":4861,"Mean":4862,"grads":4863,"[...,":4864,"bind":4865,"Ġ))":4866,"Ġentry":4867,"floatX":4868,"Ġsubprocess":4869,"KEY":4870,"rou":4871,"Ġsite":4872,"grees":4873,"Results":4874,"ileups":4875,"ky":4876,"xc":4877,"Ġform":4878,"ĠInter":4879,"ficient":4880,"Ġndim":4881,"Ġdone":4882,"Ġpython":4883,"quential":4884,"storage":4885,"Ġitems":4886,"Ġthresh":4887,"least":4888,"absolute":4889,"72":4890,"glob":4891,"}/":4892,"Ġbranch":4893,"abc":4894,"izes":4895,"Ġfrequency":4896,"Process":4897,"estimates":4898,"Ġstatus":4899,"Len":4900,"sched":4901,"Ġden":4902,"Ġassign":4903,"Height":4904,"Met":4905,"Source":4906,"UE":4907,"stderr":4908,"Ġ28":4909,"Ġboolean":4910,"Ġloop":4911,"Ġwriter":4912,"www":4913,"Dep":4914,"Ġwave":4915,"grams":4916,"tensors":4917,"Ġoperation":4918,"Ġprior":4919,"seconds":4920,"Ġdd":4921,"policy":4922,"FO":4923,"qt":4924,"scipy":4925,"resource":4926,"Ġep":4927,"Ġproperty":4928,"rolling":4929,"HER":4930,"sl":4931,"Ġfl":4932,"unlen":4933,"Ġborder":4934,"board":4935,"acobi":4936,"10000":4937,"TA":4938,"}}":4939,"minimum":4940,"embeddings":4941,"ields":4942,"Grad":4943,"Ġavailable":4944,"adrature":4945,"HI":4946,"ceil":4947,"atistics":4948,"clicked":4949,"Ġgot":4950,"spa":4951,"gent":4952,"Ġps":4953,"sertion":4954,"phot":4955,"ĠDE":4956,"57":4957,"PL":4958,"tur":4959,"medi":4960,"Ġcg":4961,"conti":4962,"ĠIN":4963,"ĊĠĠĠĠĠĠĠĠĠĠĠĠĠĠĠĠĠĠĠĠĠĠĠĠĠĠĠĠĠĠĠĠĠĠĠĠĠĠĠĠĠĠĠĠĠĠĠĠĠĠĠĠ":4964,"stract":4965,"vironment":4966,"interpolate":4967,"PRE":4968,"constants":4969,"approx":4970,"comment":4971,"Ġreader":4972,"ebqe":4973,"Binary":4974,"Doc":4975,"vl":4976,"calib":4977,"appa":4978,"indexes":4979,"infer":4980,"Sample":4981,"argsort":4982,"**(":4983,"{}'.":4984,"slices":4985,"false":4986,"Ġ\"{":4987,"Ġdetermin":4988,"Buffer":4989,"outdir":4990,"Ġratio":4991,"support":4992,"dependencies":4993,"Ġba":4994,"Ġdc":4995,"Ġalso":4996,"overlap":4997,"Ġpixel":4998,"Ġgroundtruth":4999,"__.":5000,"gain":5001,"Default":5002,"wl":5003,"conver":5004,".',":5005,"Ġys":5006,"Ġvmin":5007,"Ġtesting":5008,"fillna":5009,"Ġquanti":5010,"Ġbackend":5011,"Ang":5012,"Ge":5013,"Ġnu":5014,"ressed":5015,"visible":5016,"AGE":5017,"Ġregulari":5018,"requencies":5019,"pkl":5020,"va":5021,"ĠRes":5022,"symbols":5023,"begin":5024,"sleep":5025,"Ġkw":5026,"\"]:":5027,"ĠargsDict":5028,"Dimension":5029,".\",":5030,"Ġcamera":5031,"isson":5032,"categories":5033,"play":5034,"Ġest":5035,"Ġrhs":5036,"assertRaisesRegex":5037,"kwds":5038,"IC":5039,"xaxis":5040,"iso":5041,"']=":5042,"eforth":5043,"Chunk":5044,"Context":5045,"regions":5046,"swap":5047,"dnn":5048,"attribute":5049,"Ġits":5050,"Ġrepr":5051,"chr":5052,"])[":5053,"nearest":5054,"lugin":5055,"LS":5056,"Ġ'<":5057,"Ġoutfile":5058,"Ġattribute":5059,"ould":5060,"Ġcc":5061,"Ġvi":5062,"trun":5063,"Ġbuilder":5064,"station":5065,"edu":5066,"(\"--":5067,"mutation":5068,"Del":5069,"Ġwa":5070,"2011":5071,"2016":5072,"Ġdays":5073,"Ġlb":5074,"compo":5075,"relative":5076,"TS":5077,"Ġpeforth":5078,"maps":5079,"Changed":5080,"Ġoperator":5081,"Ġsli":5082,"outfile":5083,"litude":5084,"Network":5085,"Tri":5086,"help":5087,"hem":5088,"ĠFROM":5089,"package":5090,"suffix":5091,"And":5092,"Tag":5093,"aut":5094,"alk":5095,"Ġflow":5096,"Ġrec":5097,"assification":5098,"degree":5099,"*.":5100,"tuples":5101,"roid":5102,"summ":5103,"2007":5104,"iki":5105,"Ġinterpolation":5106,"43":5107,"Ġattributes":5108,"Ġgradient":5109,"zoom":5110,"distrib":5111,"constructor":5112,"Ġdirection":5113,"experimental":5114,"Ġray":5115,"Ġlayout":5116,"Ġgt":5117,"Ġpositive":5118,"ptions":5119,"spectral":5120,"aris":5121,"Ġproject":5122,"backward":5123,"(\\":5124,"FA":5125,"sz":5126,"Ġlevels":5127,"Pa":5128,"direct":5129,"Ġproto":5130,"Ġ128":5131,"mkdir":5132,"sphere":5133,"Err":5134,"ĠAs":5135,"readline":5136,"Ġvalidate":5137,"scaling":5138,"Ġcounter":5139,"Ġdefined":5140,"eagerly":5141,"Axis":5142,"pub":5143,"props":5144,"tif":5145,"(\"/":5146,"erical":5147,"ALL":5148,"bands":5149,"rouped":5150,"OUT":5151,"til":5152,"Factor":5153,"ĠNumber":5154,"reward":5155,"ended":5156,"Ġtgt":5157,"anager":5158,"Ġsqu":5159,"optional":5160,"['_":5161,"2015":5162,"omega":5163,"Ġsurface":5164,"Gaussian":5165,"stype":5166,"ries":5167,"linewidth":5168,"ny":5169,"zz":5170,"Ġinner":5171,"Ġ24":5172,"Ġ500":5173,"Target":5174,"Ġclip":5175,"Ġsaved":5176,"]')":5177,"broadcast":5178,"ias":5179,"ctools":5180,"vertices":5181,"irror":5182,"ayes":5183,"ier":5184,"Ġ00":5185,"defaults":5186,"gaussian":5187,"BO":5188,"ni":5189,"Ġrepe":5190,"Ġboth":5191,"imer":5192,"Ġln":5193,"Scale":5194,"Sparse":5195,"ilt":5196,"Ġ{},":5197,"2012":5198,"fid":5199,"])]":5200,"ĠĠĠĠĠĠĠĠĠĠĠĠĠĠĠĠĠĠĠĠĠĠĠĠĠĠĠĠĠĠĠĠ":5201,"Ġcontent":5202,"estyle":5203,"spath":5204,"Down":5205,"pn":5206,"unpack":5207,"])),":5208,"strict":5209,"Ġperform":5210,"finite":5211,"ĠPython":5212,"Ġlegend":5213,"Idx":5214,"devices":5215,"ĠCh":5216,"ĠName":5217,"buckets":5218,"Ġreduce":5219,"vmin":5220,"Âł":5221,"Ġmeans":5222,"entity":5223,"Ġselected":5224,"ĠSet":5225,"ĠCal":5226,"mg":5227,"datatype":5228,"Ġcallable":5229,"filtered":5230,"-\\":5231,"yaxis":5232,"asnumpy":5233,"Ġvtk":5234,"cip":5235,"NG":5236,"gest":5237,"ditions":5238,"005":5239,"endswith":5240,"iff":5241,"curr":5242,"Ġmultiple":5243,"\"%(":5244,"GA":5245,"regex":5246,"uler":5247,"Ġcontains":5248,"ĠLo":5249,"+'_":5250,"Ġrotation":5251,"Sol":5252,"Ġom":5253,"')]":5254,"squared":5255,"MM":5256,"semble":5257,"ars":5258,"Ġinformation":5259,"argmin":5260,"strides":5261,"filled":5262,"xticks":5263,"Fields":5264,"Boundary":5265,"mor":5266,"divide":5267,"isfile":5268,"ĊĠĠĠĠĠĠĠĠĠĠĠĠĠĠĠĠĠĠĠĠĠĠĠĠĠĠĠĠĠĠĠĠĠĠĠĠĠĠĠĠĠĠĠĠĠĠĠĠĠĠ":5269,"stry":5270,"agne":5271,"dividual":5272,"pare":5273,"problem":5274,"trial":5275,"fixture":5276,"wrapper":5277,"spectra":5278,"Lim":5279,"arrow":5280,"Ġcomputed":5281,"Ġcurr":5282,"ticklabels":5283,"author":5284,"DS":5285,"DER":5286,"setter":5287,"86":5288,"Ġlab":5289,"ascii":5290,"Ġspectrum":5291,"Inte":5292,"Ġtimedelta":5293,"Ġgenerator":5294,"IR":5295,"ĠĠĠĠĠĠĠĠĠĠĠĠĠ":5296,"Ġfh":5297,"analy":5298,"lied":5299,"__.__":5300,"ket":5301,"vers":5302,"ORM":5303,"auss":5304,"Python":5305,"einsum":5306,"Right":5307,"ov":5308,"page":5309,"Ġfluid":5310,"Ġclassifier":5311,"jpg":5312,"Logger":5313,"NaT":5314,"aux":5315,"Ġgroups":5316,"geom":5317,"Ġside":5318,"Ġdot":5319,"Ġdeg":5320,"ĠRa":5321,"Ġbeen":5322,"Ġlogfile":5323,"Coun":5324,"ished":5325,"Bar":5326,"pm":5327,"Ġduration":5328,"aper":5329,"mic":5330,"iters":5331,"exist":5332,"exception":5333,"Ġelem":5334,"Method":5335,"Ġfailed":5336,"!\")":5337,"tl":5338,"Ġcrop":5339,"didate":5340,"likelihood":5341,"Ġdelimiter":5342,"temperature":5343,"82":5344,"platform":5345,"}'":5346,"rea":5347,"tity":5348,"Ġdpi":5349,"segments":5350,"gap":5351,"Ġmpl":5352,"entries":5353,"imize":5354,"Ġdecoder":5355,"scene":5356,"ĠBase":5357,"Ġfits":5358,"samp":5359,"Ġiterations":5360,"(('":5361,"remote":5362,"Flow":5363,"Lat":5364,"Tr":5365,"gment":5366,"Ġrand":5367,"Ġfc":5368,"flush":5369,"rdd":5370,"Ġvmax":5371,"preprocess":5372,"modules":5373,"projection":5374,"QU":5375,"bf":5376,"large":5377,"Ġpattern":5378,"Stream":5379,"workers":5380,"Options":5381,"Be":5382,"Rect":5383,"bm":5384,"ftime":5385,"sheet":5386,"Ġidenti":5387,"lex":5388,"().__":5389,"Flux":5390,"nz":5391,"alo":5392,"metry":5393,"found":5394,"heads":5395,"plan":5396,"manual":5397,"Sequence":5398,"AX":5399,"Job":5400,"ĠCl":5401,"Exp":5402,"Ġsimulation":5403,"az":5404,"imple":5405,"Ġnest":5406,"cons":5407,"ulated":5408,"minor":5409,"]]),":5410,"FileName":5411,"makedirs":5412,"oi":5413,"loader":5414,"HE":5415,"Ġpartial":5416,"54":5417,"ital":5418,"Ġdm":5419,"Ġgr":5420,"00000000":5421,"Ġdecimal":5422,"acobian":5423,"Ġ{:":5424,"activ":5425,"pipeline":5426,"ensemble":5427,"Ġgradients":5428,"CF":5429,"Cre":5430,"VI":5431,"Ġrelay":5432,"Ġamp":5433,"rick":5434,"cording":5435,"ĠIO":5436,"Ġcorresponding":5437,">=":5438,"Pix":5439,"ĠDe":5440,"Ġleast":5441,"Ġexport":5442,"ugh":5443,".\\":5444,"Create":5445,"Evalu":5446,"Ġscan":5447,"distances":5448,"coring":5449,"matplotlib":5450,"plane":5451,"Ġ-->":5452,"Left":5453,"replica":5454,"Ref":5455,"]})":5456,"cx":5457,"cla":5458,"sat":5459,"water":5460,"Ġaut":5461,"Ġaggreg":5462,"resolution":5463,"ird":5464,"ĠFun":5465,"Reader":5466,"ima":5467,"separ":5468,"dia":5469,"atives":5470,"ogle":5471,"\"\\":5472,"))[":5473,"Ġdisc":5474,"weighted":5475,"Distance":5476,"Proto":5477,"62":5478,"GRA":5479,"inch":5480,"innov":5481,"disc":5482,"Ġ\")":5483,"configuration":5484,"Ġinterp":5485,"ĠPre":5486,"HERE":5487,"93":5488,"]}":5489,"mar":5490,"Ġtp":5491,"lear":5492,"Ġconver":5493,"dummy":5494,"catter":5495,"rates":5496,"ants":5497,"ĠFile":5498,"Ġchange":5499,"2017":5500,"algorithm":5501,"ĠTimestamp":5502,"RandomState":5503,"fd":5504,"lection":5505,"Ġcannot":5506,"terms":5507,"Regression":5508,"tasks":5509,"+(":5510,"emb":5511,"Ġtd":5512,"Ġms":5513,"posure":5514,"Optimizer":5515,"Ġatoms":5516,"enchmark":5517,"RGB":5518,"dated":5519,"Ġyour":5520,"Ġoption":5521,"ways":5522,"600":5523,"pv":5524,"xmin":5525,"thing":5526,"ette":5527,"spatial":5528,"Ġcomplex":5529,"sensor":5530,"vertex":5531,"controller":5532,"Ġworld":5533,"Ġcreated":5534,"74":5535,"MB":5536,"Sig":5537,"how":5538,"velo":5539,"Ġdiag":5540,"osite":5541,"Ġlogits":5542,"ĠGra":5543,"cing":5544,"Ġ180":5545,"conj":5546,"condition":5547,"ONE":5548,"Ġframes":5549,"Ġfalse":5550,"Ġ[('":5551,"Ġsens":5552,"STM":5553,"biases":5554,"Ġrelative":5555,"Ġpairs":5556,"\"]),":5557,"population":5558,"Ġchunks":5559,"species":5560,"+'.":5561,"Ġfft":5562,"particles":5563,"ĊĠĠĠĠĠĠĠĠĠĠĠĠĠĠĠĠĠĠĠĠĠĠĠĠĠĠĠĠĠĠĠĠĠĠĠĠĠĠĠĠĠĠĠĠĠĠĠĠĠĠĠĠĠĠ":5564,"Ġdouble":5565,"rong":5566,"sites":5567,"Ġpr":5568,"unstack":5569,"positive":5570,"Ġtokens":5571,"{}_":5572,"Device":5573,"58":5574,"FE":5575,"ãĢ":5576,"rev":5577,"saved":5578,"timer":5579,"Ġhash":5580,"ynomial":5581,"between":5582,"exact":5583,"iler":5584,"Ġresolution":5585,"earch":5586,"SD":5587,"lc":5588,"Ġwant":5589,"Ġgpu":5590,"strings":5591,"trast":5592,"Ġdocument":5593,"LL":5594,"Ġ).":5595,"Ġdst":5596,"arguments":5597,"Ġminimum":5598,"Ġfunctions":5599,"Ġgrads":5600,"sentence":5601,"Ġshutil":5602,"92":5603,"PP":5604,"resent":5605,"Ġ[])":5606,"Analysis":5607,"Pi":5608,"âĢ":5609,"ality":5610,"Ġresidual":5611,"fic":5612,"ĠMat":5613,"compatible":5614,"licit":5615,"Widgets":5616,"Ġsome":5617,"Ġpdb":5618,"blob":5619,"nested":5620,"imation":5621,"surf":5622,"gate":5623,"ices":5624,"('_":5625,"logfile":5626,"jector":5627,"Ġchainer":5628,",:,":5629,"Ġ~":5630,"residual":5631,"Operator":5632,"73":5633,"}_":5634,"sequences":5635,"Ġphase":5636,"Ġsolution":5637,"Ġ10000":5638,"fiden":5639,"rend":5640,"pping":5641,"unknown":5642,"rink":5643,"Ġinfer":5644,"Ġdummy":5645,"Ġpositions":5646,"att":5647,"memb":5648,"()])":5649,"0001":5650,"Ġstore":5651,"Ġxmax":5652,"lates":5653,"Ġanalysis":5654,"tanh":5655,"')))":5656,"pca":5657,"ĠRE":5658,"stributions":5659,"accum":5660,"screte":5661,"52":5662,"CM":5663,"æľ":5664,"ised":5665,"Init":5666,"ĠBo":5667,"Ġsolver":5668,"Signal":5669,"LU":5670,"Top":5671,"preds":5672,"=[[":5673,"returns":5674,"Ġboxes":5675,"Message":5676,":\"":5677,"iris":5678,"lens":5679,"abspath":5680,"ĠUse":5681,"Mass":5682,"Pick":5683,"reverse":5684,"Ġreq":5685,"keypoint":5686,"Ġalready":5687,"Ġ256":5688,"So":5689,"lims":5690,"Ġ22":5691,"ĠIt":5692,"greater":5693,"ï¼Į":5694,"Ġclient":5695,"])/":5696,"named":5697,"trip":5698,"ĠCategorical":5699,"dicator":5700,"sertionError":5701,"++":5702,"Estim":5703,"Zero":5704,"qr":5705,"Ġomega":5706,"configure":5707,"Ġfunctools":5708,"tives":5709,"<=":5710,"Loss":5711,"='',":5712,"Ġexc":5713,"Ġprogram":5714,"Ġiteration":5715,"predictor":5716,"TER":5717,"ores":5718,"trainable":5719,"guous":5720,"Ġgood":5721,"avi":5722,"kg":5723,"ln":5724,"Ġrgb":5725,"Ġactive":5726,"Ġvars":5727,"Track":5728,"BUG":5729,"ArgumentParser":5730,"TION":5731,"]',":5732,"cate":5733,"jac":5734,"wind":5735,"detection":5736,"Ġtake":5737,"percentile":5738,"Ġrospy":5739,"gence":5740,"Format":5741,"eded":5742,"tle":5743,"Ġser":5744,"tower":5745,"ĊĉĠĠĠ":5746,"boolean":5747,"colorbar":5748,"TensorArray":5749,"Ġrender":5750,"imag":5751,"rx":5752,"Ġserial":5753,"Ġ'[":5754,"Initial":5755,"optimize":5756,"Poly":5757,"Work":5758,"Status":5759,"done":5760,"Ġfid":5761,"strftime":5762,"fake":5763,"Ġcoordinate":5764,"Labels":5765,"longitude":5766,"('.":5767,"vertical":5768,"energies":5769,"assertEquals":5770,"iterion":5771,"Ser":5772,"break":5773,"gather":5774,"mult":5775,"itter":5776,"ATCH":5777,"Ġiterator":5778,"Fn":5779,"Gen":5780,"Mix":5781,"ordered":5782,"heat":5783,"library":5784,"half":5785,"Ġss":5786,"timestep":5787,"ĠDate":5788,"Ġfixed":5789,"199":5790,"OS":5791,"deepcopy":5792,"uring":5793,"NaN":5794,"PY":5795,"ste":5796,"Ġpv":5797,"Ġreverse":5798,"Ġbg":5799,"construct":5800,"scf":5801,"intercept":5802,"ARN":5803,"licate":5804,"Ġ90":5805,"Ġpossible":5806,"Call":5807,"mse":5808,"Ġ'\"":5809,"Ġcoeff":5810,"angu":5811,"+'/":5812,"Ġhyper":5813,"),(":5814,"Ġhour":5815,"Ġ{:.":5816,"plier":5817,"150":5818,"Ġreward":5819,"Ġexclude":5820,"_'":5821,"cros":5822,"Ġ23":5823,"writ":5824,"Ġdefaultdict":5825,"Ġadded":5826,"-',":5827,":].":5828,"If":5829,"(\"\"\"":5830,"Ġconst":5831,"sky":5832,"Ġfail":5833,"ĠNote":5834,"MAG":5835,"Ġdistances":5836,"ĠRandom":5837,"Ġcomponents":5838,"freqs":5839,"scaled":5840,"proba":5841,"ideo":5842,"Flag":5843,"IST":5844,"bet":5845,"las":5846,"mr":5847,"listdir":5848,"former":5849,"Ġwithin":5850,"ĠWhether":5851,"ometri":5852,"Ġmatches":5853,"Ġfilters":5854,"GE":5855,"Ġns":5856,"Ġhdu":5857,"Ġlhs":5858,"Ġtrainable":5859,"Ġlos":5860,"super":5861,"ale":5862,"Ġplo":5863,"Ġdump":5864,"ternal":5865,"Ġ\\\\":5866,"Ġroi":5867,"Ġblocks":5868,"Version":5869,"spe":5870,"Ġcells":5871,"getattr":5872,"container":5873,"Ġ21":5874,"Ġexamples":5875,"Ġdirect":5876,"ĠLog":5877,"Ġunder":5878,"monitor":5879,"Ġfigsize":5880,"CTION":5881,"cutoff":5882,"coefficients":5883,")\",":5884,"/\"":5885,"](":5886,"Ġll":5887,"ĠOn":5888,"ĠQtCore":5889,"Ġpartition":5890,"[['":5891,"cles":5892,"lan":5893,"specifi":5894,"Ġnow":5895,"cogn":5896,"perm":5897,"Ġparallel":5898,"modi":5899,"lstm":5900,"Back":5901,"gh":5902,"Ġtak":5903,"Ġip":5904,"lated":5905,"Settings":5906,"Ġshared":5907,"Mesh":5908,")==":5909,"RNN":5910,"Ġreset":5911,"Ġseconds":5912,"Win":5913,"dynamic":5914,"loaded":5915,"contact":5916,"acy":5917,"erior":5918,"stacked":5919,"ĠConv":5920,"assertRaisesRegexp":5921,"Ġfolder":5922,"Ġless":5923,"byte":5924,"Ġtags":5925,"observation":5926,".])":5927,"zen":5928,"äº":5929,"Ġcustom":5930,"Prob":5931,"contents":5932,"Regressor":5933,"cumsum":5934,"zone":5935,"Ġpow":5936,"Ġthese":5937,"Ġ42":5938,"ĠNa":5939,"Ġprevious":5940,"tences":5941,"Ġcursor":5942,"{}.":5943,"guess":5944,")\\":5945,"Hz":5946,"lhs":5947,"ucli":5948,"ueue":5949,"liers":5950,"consist":5951,"qualifi":5952,"cesses":5953,"readlines":5954,"ARY":5955,"week":5956,"Ġsimple":5957,"driver":5958,"xm":5959,"Ġreplace":5960,"inger":5961,"Ġloaded":5962,"svd":5963,"Ġbiases":5964,"threads":5965,"bility":5966,"exc":5967,"Ġstrategy":5968,"Param":5969,"snr":5970,"ĠTimedelta":5971,"ĠIndexError":5972,"Axes":5973,"ãĢĤ":5974,"``.":5975,"uel":5976,"may":5977,"strs":5978,"Ġcurve":5979,"Ġdepend":5980,"Ġsoft":5981,"DU":5982,"ĠĠĠĠĠĠĠĠĠĠĠĠĠĠĠ":5983,"Ġpotential":5984,"serve":5985,"ĠMask":5986,"cudnn":5987,"Ġcycle":5988,"turb":5989,"gd":5990,"ival":5991,"lm":5992,"setitem":5993,"rough":5994,"Ġmid":5995,"beam":5996,"crete":5997,"~~~~~~~~":5998,"dset":5999,"Ġgame":6000,"Ġcontour":6001,"Ġpaths":6002,"Ġbuf":6003,"peaks":6004,"Distri":6005,"Users":6006,"each":6007,"Ġann":6008,"Ġreport":6009,"database":6010,"weep":6011,"infos":6012,"collect":6013,"inition":6014,"special":6015,"Ġnegative":6016,"ĠStringIO":6017,"Ġastropy":6018,">'":6019,"LA":6020,"flip":6021,"}\"":6022,"alette":6023,"connection":6024,"pectra":6025,"accept":6026,"indx":6027,"Ġsee":6028,"graphy":6029,"Tool":6030,"boundary":6031,"Ġsuffix":6032,"dumps":6033,"[::":6034,"Ġlst":6035,"loadtxt":6036,"interface":6037,"normalized":6038,"multiple":6039,"Ġsymbol":6040,"Ġbackground":6041,"Ġembeddings":6042,"fidence":6043,"Area":6044,"burst":6045,"fine":6046,"Ġmd":6047,"calcul":6048,"trajectory":6049,"idxs":6050,"sync":6051,"CD":6052,"WOR":6053,"]].":6054,"mav":6055,"npz":6056,"LEFT":6057,"acter":6058,"sole":6059,"combin":6060,"Wrap":6061,"ortion":6062,"restore":6063,"represent":6064,"Ġix":6065,"three":6066,"Ġexperiment":6067,"Ġvertical":6068,"probability":6069,"penalty":6070,")][":6071,"amily":6072,"produ":6073,"shot":6074,"rowth":6075,"ĠNo":6076,"Ġalong":6077,"Ċĉĉĉĉĉĉĉĉ":6078,"Represent":6079,"Fixed":6080,"PER":6081,"ancy":6082,"Ġinf":6083,"download":6084,"Scalar":6085,"Rel":6086,"SY":6087,"Ġselection":6088,"Register":6089,"oxel":6090,"atistic":6091,"constraint":6092,"Ġfollowing":6093,"XX":6094,"wt":6095,"Ġcp":6096,"getLogger":6097,"Ġhalf":6098,"coeffs":6099,"Edit":6100,"Ab":6101,"fac":6102,"yr":6103,"Ġcli":6104,"oto":6105,"Ġxx":6106,"Ġeff":6107,"Ġbegin":6108,"latitude":6109,"emit":6110,"anguage":6111,"Power":6112,"Vec":6113,"slope":6114,"intervals":6115,"Ġtempfile":6116,"POINT":6117,"Writer":6118,"Price":6119,"cases":6120,"fg":6121,"ie":6122,"']):":6123,"prime":6124,"matches":6125,"Ġtl":6126,"Ġfree":6127,"anchor":6128,"('{":6129,"ĠTh":6130,"ĠTrans":6131,"Ġnumbers":6132,"Ġobservation":6133,"Ġvariance":6134,"Client":6135,"both":6136,"onian":6137,"Ġinvalid":6138,"equals":6139,"bution":6140,"ĠNe":6141,"available":6142,"REF":6143,"Ġderiv":6144,"nor":6145,"ctan":6146,"edit":6147,"molecule":6148,"ĠMe":6149,"coded":6150,"Ġcompat":6151,"ĊĠĠĠĠĠĠĠĠĠĠĠĠĠĠĠĠĠĠĠĠĠĠĠĠĠĠĠĠĠĠĠĠĠĠĠĠĠĠĠĠĠĠĠĠĠĠĠĠĠĠĠĠĠ":6152,"success":6153,"patches":6154,"dst":6155,"Ġsel":6156,"erm":6157,"enabled":6158,"Ġbeam":6159,"running":6160,"ĠQu":6161,"nonlinear":6162,"Ġbucket":6163,"Delta":6164,"rv":6165,"vity":6166,"altern":6167,"hex":6168,"quad":6169,"amo":6170,"ĠSE":6171,"numbers":6172,"Entry":6173,"ĠFunction":6174,"Ġtmax":6175,"ĠAND":6176,"Ġsepar":6177,"Ġcorr":6178,"Ġoffsets":6179,"Control":6180,"arison":6181,"Sli":6182,"hic":6183,"resid":6184,"=[],":6185,"Ġconfiguration":6186,"integr":6187,"dependent":6188,"EV":6189,"Mag":6190,"Manager":6191,"]},":6192,"card":6193,"eig":6194,"kit":6195,"tax":6196,"seek":6197,"Ġbuffer":6198,"tach":6199,"Ġtemplate":6200,"assertIsInstance":6201,"]\")":6202,"margin":6203,"ĠĠĠĠĠĠĠĠĠĠĠĠĠĠ":6204,"otype":6205,"Ġrx":6206,"extent":6207,"motion":6208,"...')":6209,"blk":6210,"Ġinitialize":6211,"Ġgene":6212,"Ġnormalized":6213,"=('":6214,"gca":6215,"Ġcamb":6216,"phas":6217,"ĠLe":6218,"genome":6219,"hit":6220,"quant":6221,"processed":6222,"corpus":6223,"ATT":6224,"Loader":6225,"video":6226,"inches":6227,"Gre":6228,"bond":6229,"Ġft":6230,"pes":6231,"timeIndex":6232,"125":6233,"Ġkeyword":6234,"Formatter":6235,"Ġcutoff":6236,"CG":6237,"SER":6238,"mgr":6239,"pitch":6240,"Ġlike":6241,"deprecated":6242,"setText":6243,"phy":6244,"READ":6245,"Ġsubset":6246,"Ġmodi":6247,"ĠArray":6248,"Ġdecay":6249,"instrument":6250,"Mis":6251,"[_":6252,"ske":6253,"Ġeta":6254,"Ġbit":6255,"ĠTo":6256,"Ġdataframe":6257,"cription":6258,"contiguous":6259,"CDF":6260,"GS":6261,"Save":6262,"onic":6263,"Ġasarray":6264,"ĠAd":6265,"Ġmet":6266,"scribe":6267,"cause":6268,"Categorical":6269,"rece":6270,"ely":6271,"Ġthere":6272,"lyph":6273,"locations":6274,"annotations":6275,"Match":6276,"void":6277,"}:\\":6278,"}-\\":6279,"rime":6280,"Ġrnn":6281,"phj":6282,"moving":6283,"daily":6284,"Ġfeat":6285,"ORT":6286,"Ġbaseline":6287,"OB":6288,"Search":6289,"menu":6290,"asset":6291,"Ġ'',":6292,"access":6293,"ickness":6294,"URL":6295,"screen":6296,"'%(":6297,"RIGHT":6298,"iti":6299,"snp":6300,"see":6301,"tein":6302,"Ġproperties":6303,"Ġtensors":6304,"factory":6305,"nergy":6306,"combined":6307,"Write":6308,"unlencl":6309,"Angle":6310,"CAL":6311,"Ġnom":6312,"Ġcategories":6313,"adapter":6314,"123":6315,"Ġfraction":6316,"Ġ\"'":6317,"Ġaff":6318,"upy":6319,"splits":6320,"ngine":6321,"dists":6322,"parameterized":6323,"vider":6324,"%.":6325,"eeg":6326,"rhs":6327,"Ġwho":6328,"trained":6329,"dropna":6330,"eigen":6331,"hift":6332,"Ġbond":6333,"Ġcondition":6334,"Reference":6335,"roots":6336,"Generator":6337,"Sur":6338,"border":6339,"recall":6340,"Ġsources":6341,"Ġymax":6342,"catalog":6343,"aggregate":6344,"Pickle":6345,"One":6346,"TT":6347,"uv":6348,"Ġcb":6349,"Ġ'')":6350,"Ġred":6351,"Ġ2000":6352,"Ġ:],":6353,"mini":6354,"][-":6355,"itemsize":6356,"DATE":6357,"Ġscri":6358,"fully":6359,"constraints":6360,"ERROR":6361,"composition":6362,"Dec":6363,"Ori":6364,"fh":6365,"hold":6366,"edArray":6367,"laces":6368,"rcParams":6369,"Auto":6370,"ql":6371,"Ġdetection":6372,"formatter":6373,"Constant":6374,"STAR":6375,"ĠExamples":6376,"Cluster":6377,"SR":6378,"native":6379,"infile":6380,"':[":6381,"Ġextension":6382,"Ġproduct":6383,"Ġ80":6384,"predicted":6385,"While":6386,",**":6387,"Draw":6388,"btn":6389,"meg":6390,"Ġfr":6391,"Ġincre":6392,"Ġbs":6393,"Files":6394,"Ġbased":6395,"Ġarti":6396,"Update":6397,"TRAIN":6398,"âĢķ":6399,"81":6400,":(":6401,"RAN":6402,"]**":6403,"Ġcategorical":6404,"Ġexists":6405,"Ġtables":6406,"LOG":6407,"Ġunicode":6408,"abilities":6409,":\")":6410,"Np":6411,"kappa":6412,"ä»":6413,"Ġhtml":6414,"')])":6415,"Ġdig":6416,"Ġ300":6417,"Ġdelay":6418,"Stats":6419,"InputData":6420,"Local":6421,"picks":6422,"difference":6423,"ARNING":6424,".\"\"\"":6425,"Ġ;":6426,"arctan":6427,"Ġct":6428,"astic":6429,"120":6430,"headers":6431,"topo":6432,"visual":6433,"Ġevaluate":6434,",[":6435,"Average":6436,"Copy":6437,"fx":6438,"Ġarange":6439,"Ġoc":6440,"ables":6441,"Ġtool":6442,"ĠPlot":6443,"ĠReg":6444,"Ġ1024":6445,"translate":6446,"Ġgenerated":6447,"Ġprojection":6448,"System":6449,")>":6450,"cub":6451,"sical":6452,"ets":6453,"Ġrc":6454,"viation":6455,"renderer":6456,"Ġshort":6457,"dictionary":6458,"switch":6459,"Command":6460,"bw":6461,"city":6462,"pct":6463,"Ġfd":6464,"Ġweighted":6465,"Expected":6466,"Ġcomm":6467,"below":6468,"Ġtemperature":6469,"ĠArg":6470,"partitions":6471,"Ġsuccess":6472,"Ġpixels":6473,"Order":6474,"pressure":6475,"ĠIOError":6476,"'})":6477,"Ġtbl":6478,"union":6479,"abel":6480,"sport":6481,"spots":6482,"prec":6483,"sampled":6484,"dentical":6485,"MENT":6486,"Ġlinestyle":6487,"fccs":6488,"Quadrature":6489,"âĢķâĢķ":6490,"HO":6491,"Long":6492,"pid":6493,"qdm":6494,"Ġnt":6495,"Ġfil":6496,"asc":6497,"Ġpars":6498,"lattice":6499,"122":6500,"elev":6501,"Resource":6502,"Training":6503,"Ġsampling":6504,"every":6505,"slow":6506,"enum":6507,"Ġnelec":6508,"added":6509,"boot":6510,"Ġexpand":6511,"magnitude":6512,"MAP":6513,"diagonal":6514,"ambda":6515,"Offset":6516,"inuous":6517,"GD":6518,"Ġqueue":6519,"Ġ({":6520,"Ġxm":6521,"ĠMax":6522,"STR":6523,"need":6524,"COD":6525,"61":6526,"rule":6527,"wcs":6528,"Ġca":6529,"typ":6530,"Ġcompare":6531,"ponse":6532,"Sk":6533,"Ġindi":6534,"ride":6535,"apsed":6536,"Ġsequences":6537,"Ġtimestamp":6538,"Ġperm":6539,"Ġobserved":6540,"Ġaux":6541,"XT":6542,"gfile":6543,"Ġ()":6544,"Ġsetattr":6545,"Ġprobability":6546,"Header":6547,"OD":6548,"]]))":6549,"uda":6550,"mach":6551,"('.')":6552,"contains":6553,"bove":6554,"should":6555,"Unknown":6556,"Ġ-----":6557,"struction":6558,"Font":6559,"hdu":6560,"oral":6561,"Ġcategory":6562,"Ġbig":6563,"simulation":6564,"Struct":6565,"Ġgeo":6566,"Sele":6567,"enable":6568,"Ġfoo":6569,"Ġhost":6570,"using":6571,"Ġprogress":6572,"ĠEn":6573,"ĠGener":6574,"cursor":6575,"53":6576,"TL":6577,"pf":6578,"didates":6579,"Ġmc":6580,"Ġwhether":6581,"Ġvol":6582,"Ġhorizontal":6583,"Ġsection":6584,"soci":6585,"LOB":6586,"ĠNotes":6587,"Thread":6588,"Non":6589,"bosity":6590,"ior":6591,"iver":6592,"Ġsizes":6593,"Ġactions":6594,"perf":6595,"ĠAc":6596,"Validation":6597,"ĠDense":6598,"signals":6599,"sampler":6600,"Ġinterpolate":6601,"Postcode":6602,"Metadata":6603,"512":6604,"Year":6605,"Ġtrun":6606,"Ġcum":6607,"complete":6608,"material":6609,"changed":6610,"360":6611,"VAR":6612,"horizontal":6613,"xdata":6614,"testBinary":6615,"Ġkl":6616,"Ġmedian":6617,"based":6618,"Parameters":6619,"scales":6620,"radians":6621,"41":6622,"QL":6623,"Sty":6624,"dum":6625,"rms":6626,"Ġpts":6627,"eled":6628,"Ġclassification":6629,"Ġcomment":6630,"warp":6631,"PT":6632,"bon":6633,"rg":6634,"Ġstar":6635,"foot":6636,"cular":6637,"Ġinstall":6638,"Current":6639,"Tran":6640,"ej":6641,"Ġspe":6642,"Ġ150":6643,"ived":6644,"tolerance":6645,"Ġoverlap":6646,"ULL":6647,"particle":6648,"detector":6649,"Ġrequires":6650,"Ġtolerance":6651,"'{":6652,"CU":6653,"Te":6654,"kes":6655,"Ġhdf":6656,"effect":6657,"Ġxyz":6658,".))":6659,"ASE":6660,"Band":6661,"momentum":6662,"Ġensure":6663,"Ġtmin":6664,"Ġimplemented":6665,"Ġpf":6666,"Ġport":6667,"Ġremoved":6668,"Ġaa":6669,"1024":6670,"funcs":6671,"']).":6672,"views":6673,"Ġappend":6674,"polygon":6675,"OM":6676,"Pop":6677,"folds":6678,"hel":6679,"km":6680,"ards":6681,"degrees":6682,"sify":6683,"havi":6684,"quality":6685,"seqs":6686,"UNT":6687,"vocabulary":6688,"Ġhistory":6689,"ĠDict":6690,"Canvas":6691,"Detection":6692,"irrored":6693,"'$":6694,"wn":6695,"rag":6696,"defined":6697,"Ġactor":6698,"Ġabove":6699,"ism":6700,"vection":6701,"subclass":6702,"Ġanaly":6703,"Ġpercent":6704,"baseline":6705,"Select":6706,"dv":6707,"Ġpen":6708,"Ġreuse":6709,"conversion":6710,"Ġlarge":6711,"processor":6712,"Ġmetavar":6713,">\\":6714,"ymin":6715,"Ġmaster":6716,"Ġdatabase":6717,"titude":6718,"dtuple":6719,"blank":6720,"Ġny":6721,"Ġclean":6722,"cha":6723,"Ġyy":6724,"Ġevery":6725,"Ġordered":6726,"markers":6727,"Ġlengths":6728,"variant":6729,"Only":6730,"Ġtvm":6731,"lists":6732,"ario":6733,"vie":6734,"ĠPeriodIndex":6735,"hours":6736,"summaries":6737,"amount":6738,"Tuple":6739,"hdr":6740,"tures":6741,"xmax":6742,"Ġserver":6743,"inity":6744,"Ġxml":6745,"Ġspin":6746,"connected":6747,"Ġapprox":6748,"Ġvisual":6749,"moment":6750,"ceptions":6751,"come":6752,"('<":6753,"tage":6754,"rength":6755,"aves":6756,"20130":6757,"TED":6758,"Ġoverwrite":6759,"groundtruth":6760,"ĠPoint":6761,"Print":6762,"SF":6763,"fend":6764,"ia":6765,"trees":6766,"Ġur":6767,"Ġcases":6768,"ellip":6769,"ranges":6770,"ressure":6771,"retch":6772,"Agg":6773,"Over":6774,"Title":6775,"bp":6776,"bq":6777,"sect":6778,"Ġcast":6779,"Ġsec":6780,"1234":6781,"regression":6782,"Ġones":6783,"pochs":6784,"Real":6785,"Ġpredicted":6786,"nom":6787,"push":6788,"ĠNet":6789,"ĠOR":6790,"searchsorted":6791,"Ġsaver":6792,"Ġgreater":6793,"Ġsensor":6794,"Wrapper":6795,"Cap":6796,"Sc":6797,"Volume":6798,"];":6799,"hum":6800,"uuid":6801,"stage":6802,"intensity":6803,"Ġvolume":6804,"corner":6805,"\":\"":6806,"lons":6807,"UTC":6808,"Ġspecies":6809,"hes":6810,"vmax":6811,"Ġfetch":6812,"ortho":6813,"')],":6814,"Ġdev":6815,"...]":6816,"Ġpicks":6817,"ĠConfig":6818,"Ġpolicy":6819,"LAB":6820,"SK":6821,"ention":6822,"()).":6823,"Ġmany":6824,"Ġthem":6825,"Ġenvironment":6826,"annotation":6827,"QtGui":6828,"EXP":6829,"spaces":6830,"Camera":6831,"LSTM":6832,"Seg":6833,"Ġdic":6834,"Ġtests":6835,"episode":6836,"neighbor":6837,"ĠOb":6838,"ĠOp":6839,"DEBUG":6840,"charge":6841,"Ġcollection":6842,"ĠDefaults":6843,"Done":6844,"Ġord":6845,"Ġsent":6846,"Ġdefaults":6847,"SIG":6848,"quantile":6849,"83":6850,"TCOD":6851,"fw":6852,"wi":6853,"ename":6854,"Ġpsi":6855,"prog":6856,"rents":6857,"Ġatm":6858,"Cond":6859,"runs":6860,"Ġvectors":6861,"observed":6862,"CLAS":6863,"Atoms":6864,"Limit":6865,"Dtype":6866,"Ġè":6867,"Ġregex":6868,"ĠCreate":6869,"lug":6870,"...\")":6871,"END":6872,"ufunc":6873,"Ġç":6874,"Ġimplement":6875,"lax":6876,"Ġwarn":6877,"('[":6878,"')(":6879,"Ġxi":6880,"imate":6881,"Ġorientation":6882,"------------":6883,"near":6884,"Ġgeometry":6885,"Ġlam":6886,"Ġsentence":6887,"hyperparams":6888,"Global":6889,"PR":6890,"hard":6891,"orary":6892,"Ġtt":6893,"Ġmne":6894,"oments":6895,"Ġrv":6896,"pylab":6897,"mins":6898,"Ġwithout":6899,"ĠABC":6900,"splitext":6901,"note":6902,"milt":6903,"WE":6904,"bra":6905,"bid":6906,"js":6907,"pulse":6908,"ula":6909,"Ġxmin":6910,"addle":6911,"transformer":6912,"unicode":6913,"cript":6914,"Ġheaders":6915,"Import":6916,"remain":6917,"rozen":6918,"Ġ\"\",":6919,"para":6920,"Ġdetails":6921,"Conn":6922,"earth":6923,"../../":6924,"Mixin":6925,"!')":6926,"Rot":6927,"Ġdates":6928,"orientation":6929,"release":6930,"spacing":6931,"indptr":6932,"shp":6933,"ĠFe":6934,"ATURE":6935,"Ġschema":6936,"duplicates":6937,"Sa":6938,"incre":6939,"enc":6940,"decor":6941,"lect":6942,"='%":6943,"linder":6944,"DataCache":6945,"factors":6946,"users":6947,"ĠQtWidgets":6948,"ific":6949,".%":6950,"EP":6951,"pileups":6952,"zs":6953,"omin":6954,"Ġeigen":6955,"ĠAll":6956,"udy":6957,"Ġapplied":6958,"Images":6959,"GRO":6960,"LINE":6961,"dle":6962,"([('":6963,"asso":6964,"Ġstrings":6965,"ava":6966,"{}\".":6967,"ĠReturn":6968,"3333":6969,"Ġdegree":6970,"mfccs":6971,"æĺ":6972,"sic":6973,"Ġwin":6974,"team":6975,"Ġtimestep":6976,"Ġterms":6977,"miltonian":6978,"Su":6979,"ao":6980,"hd":6981,"stock":6982,"Ġman":6983,"sprime":6984,"ĠSim":6985,"fitness":6986,":')":6987,"AC":6988,"GET":6989,"MD":6990,"åĪ":6991,"Ġfold":6992,"Ġspeed":6993,"])):":6994,"ulations":6995,"outs":6996,"Ġdeepcopy":6997,"Ġmem":6998,"Ġ`[":6999,"Dialog":7000,"signed":7001,"IDs":7002,"Ġinteg":7003,"slider":7004,"Ġcombined":7005,"XYZ":7006,"ĠNaN":7007,"HM":7008,"hom":7009,"van":7010,"Ġnm":7011,"aspect":7012,"utc":7013,"],'":7014,"Ġvel":7015,"translation":7016,"Vertex":7017,"Ġpopulation":7018,"[~":7019,"dpi":7020,"istry":7021,"Ġads":7022,"Ġ512":7023,"misc":7024,"Ġsurf":7025,"Ġflatten":7026,"requires":7027,"maybe":7028,"Ratio":7029,"\\\"":7030,"player":7031,"dilation":7032,"Ġmomentum":7033,"isation":7034,"Ġgd":7035,"ĠST":7036,"ITY":7037,"Ġevoked":7038,"StringIO":7039,"Ġspecial":7040,"InputDataFields":7041,"Energy":7042,"Port":7043,"usage":7044,"Ġtot":7045,"Ġrest":7046,"imuth":7047,"ĠMon":7048,"Ġfilepath":7049,"Ġcomb":7050,"Seq":7051,"Ġtermin":7052,"Ġtyp":7053,"ĠLinear":7054,")})":7055,".'.":7056,"110":7057,"ied":7058,"Ġpc":7059,"abo":7060,"ĠCom":7061,"subtract":7062,"ĠOut":7063,"transition":7064,"fm":7065,"Ġrece":7066,"trials":7067,"Ġprofile":7068,"hook":7069,"svm":7070,"Ġmultiprocessing":7071,"parsity":7072,"----------------------------------------------------------------":7073,"Ġaudio":7074,"ĠAssertionError":7075,"['_'.":7076,"Low":7077,"Place":7078,"Ġpq":7079,"rout":7080,"Ġ'(":7081,"Ġ\"(":7082,"fidf":7083,"logs":7084,"Ġmethods":7085,"locator":7086,"genes":7087,"Load":7088,"Ġdownload":7089,"Integr":7090,"FD":7091,"Wa":7092,"ware":7093,"getter":7094,"poisson":7095,"versed":7096,"Ġrval":7097,"minimize":7098,"mouse":7099,"reads":7100,"scriptor":7101,"mnist":7102,"Light":7103,"utor":7104,"iss":7105,"dag":7106,"built":7107,"Ġprodu":7108,"ĠBy":7109,"neur":7110,"Coeff":7111,"filenames":7112,"Ġangles":7113,"mutations":7114,"FLO":7115,"Opt":7116,"catch":7117,"dark":7118,"jacobian":7119,"sal":7120,"Ġslim":7121,"Ġ\"<":7122,"address":7123,"((-":7124,"ĠFloat":7125,"Ġentity":7126,"Ġtimeout":7127,"exponent":7128,"mbedding":7129,"many":7130,"Ġdetected":7131,"Queue":7132,"cwd":7133,"solution":7134,"Ġclear":7135,"Ġdistrib":7136,"Ġunknown":7137,"ĊĠĠĠĠĠĠĠĠĠĠĠĠĠĠĠĠĠĠĠĠĠĠĠĠĠĠĠĠĠĠĠĠĠĠĠĠĠĠĠĠĠĠĠĠĠĠĠĠĠĠĠĠĠĠĠĠĠĠ":7138,"Ġshare":7139,"Stack":7140,".]":7141,"=',":7142,"SON":7143,"fol":7144,"nrows":7145,"pic":7146,"Ġum":7147,"arse":7148,"Ġcam":7149,"roy":7150,"sph":7151,"ĠRO":7152,"ĠNode":7153,"INFO":7154,"Collection":7155,"Ġ'_'":7156,"Ġconverted":7157,"Ġtx":7158,"Ġpg":7159,"Ġsd":7160,"Ġslope":7161,"Ġ35":7162,"corners":7163,"trim":7164,"lso":7165,"=[('":7166,"Ġaccept":7167,"Measure":7168,"sentropy":7169,"VarName":7170,".\".":7171,"BV":7172,"HF":7173,"bc":7174,"slic":7175,"Ġresid":7176,"law":7177,"Ġhparams":7178,"ĠPath":7179,"SET":7180,"multiplier":7181,"executing":7182,"waveform":7183,"Ġboundary":7184,"Ġneeds":7185,"800":7186,"ECT":7187,"Period":7188,"amax":7189,"hid":7190,"ki":7191,"Ġtw":7192,"itation":7193,"Ġmn":7194,"Ġ(`":7195,"Ġauth":7196,"Ġbr":7197,"Ġdp":7198,"spline":7199,"Ġ31":7200,"nections":7201,"tensorflow":7202,"sents":7203,"amplitude":7204,"Parti":7205,"ĠInt":7206,"goal":7207,"Ġsuch":7208,"Basic":7209,"Day":7210,"Vari":7211,"hen":7212,"Ġplayer":7213,"chart":7214,"Ġassu":7215,"vey":7216,"Ġmatrices":7217,"ĠGet":7218,"250":7219,"capture":7220,"Ġkeepdims":7221,"Diff":7222,"]==":7223,"rd":7224,"spark":7225,"Ġcd":7226,"adj":7227,"Ġwidget":7228,"andar":7229,"todense":7230,"trigger":7231,"Ġpresent":7232,"ĠWHERE":7233,"Ġfreqs":7234,"dicate":7235,"Ġstdout":7236,"existing":7237,"GPU":7238,"Peak":7239,"Ġve":7240,"))+":7241,"Ġbasis":7242,"ads":7243,"endar":7244,"Ġhand":7245,"ĠAx":7246,"240":7247,"2001":7248,"Response":7249,"Pooling":7250,"Ġtqdm":7251,"Ġmf":7252,"resp":7253,"Ġef":7254,"Ġarc":7255,"capacity":7256,"$',":7257,"Mol":7258,"Score":7259,"ymax":7260,"Ġ99":7261,"Ġnorb":7262,"Ġsnp":7263,"lazy":7264,"ĠTemp":7265,"imgs":7266,"moves":7267,"Ġpygame":7268,"topic":7269,"servo":7270,"Chann":7271,"Unit":7272,"Ġmonitor":7273,"alternate":7274,"Style":7275,"wra":7276,"sections":7277,"atleast":7278,"Ġsf":7279,"Ġwd":7280,"Ġgzip":7281,"ĠFigure":7282,"Ġensemble":7283,"Ġalt":7284,"Could":7285,"archy":7286,"document":7287,"contours":7288,"subjects":7289,"Has":7290,"OK":7291,"]\"":7292,"fv":7293,"mas":7294,"udo":7295,"Ġjoint":7296,"sto":7297,"deep":7298,"exclude":7299,"('')":7300,"expression":7301,"Ġfiltered":7302,"Use":7303,"bul":7304,"Ġgu":7305,"Ġcalled":7306,"chars":7307,"Application":7308,"Ġthreading":7309,"51":7310,"_\"":7311,"sics":7312,"chip":7313,"Ġymin":7314,"taint":7315,"ased":7316,"forest":7317,"Uni":7318,"Ġscaling":7319,"merged":7320,"front":7321,"Estimator":7322,"Ġscript":7323,"LOBAL":7324,"BE":7325,"Ro":7326,"orage":7327,"Ġdon":7328,"ĠPol":7329,"RAME":7330,"Ġexecution":7331,"$')":7332,"Freq":7333,"Samp":7334,"clock":7335,"åı":7336,"Ġtb":7337,"rols":7338,"Ġsns":7339,"ifts":7340,"compress":7341,"mathrm":7342,"strap":7343,"similarity":7344,"CHE":7345,"ELS":7346,"ĠAny":7347,"Ġlosses":7348,"gpus":7349,"rvs":7350,"walk":7351,"wiki":7352,"Ġpdf":7353,"pear":7354,"locate":7355,"Stop":7356,"quival":7357,"annotate":7358,"cosmo":7359,"Ġadjust":7360,"baz":7361,"schedule":7362,"andardi":7363,"FIG":7364,"frequencies":7365,"hed":7366,"Ġed":7367,"une":7368,"ithub":7369,"Indices":7370,"boost":7371,"liter":7372,"ĠGL":7373,"wavelength":7374,"operation":7375,"hier":7376,"Ġextent":7377,"Ġrequests":7378,"Ġvocabulary":7379,")[:,":7380,"hh":7381,"jd":7382,"yticks":7383,"Ġhttp":7384,"Ġtxt":7385,"Ġnull":7386,"posed":7387,"\")[":7388,"saver":7389,"ĠSy":7390,"Cost":7391,"graphs":7392,"Ġfilenames":7393,"variate":7394,"MultiIndex":7395,"Ġanswer":7396,"Ġconstraints":7397,",%":7398,"91":7399,"NU":7400,"TC":7401,"cmp":7402,"cart":7403,"forth":7404,"enario":7405,"details":7406,"ĠTra":7407,"Ġylabel":7408,"keypoints":7409,"preprocessing":7410,"ITS":7411,"Split":7412,"Calcul":7413,"Ġfinally":7414,"ingerprint":7415,"Found":7416,"bal":7417,"dn":7418,"ĠcPickle":7419,"distributions":7420,"Ġok":7421,"Ġgc":7422,"Ġgui":7423,"Ġ{})":7424,"Ġaccum":7425,"Ġtopo":7426,"interpolation":7427,"Ġclosed":7428,"Option":7429,"ares":7430,"gi":7431,"information":7432,"reams":7433,"delt":7434,"robot":7435,"terior":7436,"ĠAPI":7437,"Ġbytes":7438,"Ġscaled":7439,"Checked":7440,"SCF":7441,"tainty":7442,"Engine":7443,"Frequency":7444,"mies":7445,"uch":7446,"ven":7447,"atten":7448,"ert":7449,"ited":7450,"Ġagg":7451,"chastic":7452,"timesteps":7453,"Ġtools":7454,"Ġvertices":7455,"Forest":7456,"entials":7457,"PA":7458,"vx":7459,"Ġinspect":7460,"Ġmm":7461,"Ġburst":7462,"rift":7463,"aps":7464,"Coef":7465,"web":7466,"ticker":7467,"combine":7468,"Ġchromosome":7469,"Figure":7470,"Scan":7471,"]][":7472,"_'+":7473,"hr":7474,"nii":7475,"tlen":7476,"secs":7477,"decision":7478,"Ġ'{}":7479,"Ġsl":7480,"()-":7481,"\")]":7482,"redentials":7483,"objs":7484,"Ġrunning":7485,"matched":7486,"Interval":7487,"artist":7488,"ĠMatrix":7489,"BB":7490,"Jo":7491,"brid":7492,"dg":7493,"eck":7494,"lane":7495,"Ġvelocity":7496,"ersion":7497,"arter":7498,"Ġinverse":7499,"isfinite":7500,"Ġyields":7501,"clone":7502,"extre":7503,"Ġouter":7504,"Ġbecause":7505,"subsample":7506,"reduction":7507,"Access":7508,"Adam":7509,"Menu":7510,"Sav":7511,"email":7512,"vt":7513,"Ġpage":7514,"isq":7515,"Ġ45":7516,"Station":7517,"2010":7518,"ROI":7519,"TensorShape":7520,"={\"":7521,":`~":7522,"AV":7523,"Fin":7524,"OF":7525,"kn":7526,"rules":7527,"recv":7528,"under":7529,"Ġvt":7530,"mapper":7531,"127":7532,"graphic":7533,"execution":7534,"hyp":7535,"Ġintegr":7536,"Ġallowed":7537,"Operation":7538,"Ġnomask":7539,"Ġremain":7540,"ctrl":7541,"()}":7542,"))),":7543,"Ġstatic":7544,"bour":7545,"cities":7546,"ĠDis":7547,"Ġsyn":7548,"Ġadsr":7549,"+',":7550,"cnn":7551,"xf":7552,"armon":7553,"uns":7554,"Ġuses":7555,"Ġ```":7556,"evaluator":7557,"boundaries":7558,"Ġexisting":7559,"`)":7560,"design":7561,"Ġml":7562,"unch":7563,"Ġchr":7564,"kern":7565,"Directory":7566,"Ġspatial":7567,"emory":7568,"SIS":7569,"chem":7570,"GBM":7571,"expectations":7572,"flu":7573,"reject":7574,"cebq":7575,"cally":7576,"trl":7577,"ĠGaussian":7578,"IGH":7579,"Ġlibrary":7580,"representation":7581,"\"}":7582,"Ker":7583,"OFF":7584,"Redu":7585,"bre":7586,"Ġir":7587,"Ġpe":7588,"Ġpanel":7589,"')[-":7590,"Ġmeas":7591,"ĠIter":7592,"olden":7593,"avig":7594,"Ġstatement":7595,"Alpha":7596,"affine":7597,"Evaluate":7598,"Ids":7599,"hf":7600,"mpy":7601,"();":7602,"mac":7603,"coverage":7604,"tsv":7605,"achine":7606,"Ġintervals":7607,"Ġlook":7608,"TYPES":7609,"distribute":7610,"Serial":7611,"clo":7612,"given":7613,"erce":7614,"Ġslic":7615,"Ġconstruct":7616,"Ġld":7617,"mount":7618,"Ġprocessed":7619,"sentences":7620,"Ġsphere":7621,"ivari":7622,"Ġmolecule":7623,"richlet":7624,"Metric":7625,"ĠRaises":7626,"EE":7627,"ball":7628,"her":7629,"yaml":7630,"semb":7631,"seudo":7632,"Ġ''.":7633,"Ġspectra":7634,"',\\":7635,"exog":7636,"Ġgrouped":7637,"Ġtoo":7638,"Ind":7639,"Ġdeprecated":7640,"Ġnumeric":7641,"Ġbelow":7642,"lats":7643,"Returns":7644,"Elements":7645,"snap":7646,"Selection":7647,"==\"":7648,"BIN":7649,"Cross":7650,"CPU":7651,"Dropout":7652,"Part":7653,"TP":7654,"nl":7655,"was":7656,"{:":7657,"arp":7658,"eno":7659,"Ġresize":7660,"Ġbn":7661,"002":7662,"Ġeig":7663,"assertNot":7664,"Ġsumm":7665,"certainty":7666,"Normalization":7667,"environment":7668,"Ġcalculated":7669,"Ġepisode":7670,"Lambda":7671,"RL":7672,"buted":7673,"resi":7674,"Ġrecall":7675,"adow":7676,"isdir":7677,"keywords":7678,"csc":7679,"fem":7680,"ĠMin":7681,"Ġclusters":7682,"Program":7683,"Ġphot":7684,"observations":7685,"Ġteam":7686,"gp":7687,"lor":7688,"tmin":7689,"ye":7690,"mpi":7691,"comple":7692,"endog":7693,"ĠPlease":7694,"ĠCO":7695,"(((":7696,"Ġ<<":7697,"Ġexpression":7698,"Example":7699,"Ġtranspose":7700,"Depth":7701,"Ġregularizer":7702,"\"{":7703,"Identical":7704,"Nh":7705,"``,":7706,"ece":7707,"sr":7708,"sun":7709,"ĠError":7710,"rac":7711,"Ġpprint":7712,"Ġblob":7713,"cover":7714,"iles":7715,"foc":7716,"starts":7717,"ighbour":7718,"supported":7719,"Ġplane":7720,"Ġurllib":7721,"Ġoptimization":7722,"circle":7723,"Cent":7724,"Make":7725,"jit":7726,"rup":7727,"{\\":7728,"leton":7729,"Ġcnt":7730,"))*":7731,"lies":7732,"parts":7733,"apt":7734,"central":7735,"ync":7736,"'}}":7737,"Ġmerged":7738,"Locator":7739,"ĠGraph":7740,"\\'":7741,"Ġsv":7742,"Ġaz":7743,"verify":7744,"ĠFI":7745,"orders":7746,"Exec":7747,"={},":7748,"Ġtrial":7749,"Ġ'/'":7750,"Ġgeom":7751,"BASE":7752,"crossentropy":7753,"pat":7754,"Ġary":7755,"rections":7756,"Ġindependent":7757,"esian":7758,"exposure":7759,"Ġexact":7760,"assertDataset":7761,"Ġenc":7762,"Clust":7763,"Ġsignature":7764,"')),":7765,"TMP":7766,"mos":7767,"pay":7768,"Ġassoci":7769,"ckpt":7770,"Ġdes":7771,"ĠIM":7772,"Ġpose":7773,"whm":7774,"links":7775,"identical":7776,"serialize":7777,"****************":7778,"morph":7779,"Surface":7780,"Simple":7781,"UI":7782,"WARNING":7783,"aid":7784,"Ġreaction":7785,"Ġwp":7786,"ĠAlso":7787,"matrices":7788,"Container":7789,"Args":7790,"required":7791,"Ġmarkers":7792,"uclide":7793,"havior":7794,"??":7795,"Hy":7796,"WS":7797,"glyph":7798,"uses":7799,"Ġ!":7800,"arith":7801,"__))":7802,"setdefault":7803,"Ġgp":7804,"Ġexception":7805,"Ġyaml":7806,"Ġujson":7807,"viz":7808,"trig":7809,"\"]))":7810,"straint":7811,"transforms":7812,"facecolor":7813,"fasta":7814,"VALID":7815,"slots":7816,"FP":7817,"cas":7818,"tty":7819,"Ġcx":7820,"Ġspectral":7821,"sities":7822,"(\"_":7823,"Ġlda":7824,"Ġleaf":7825,"Ġmini":7826,"ibration":7827,"descr":7828,"LenFeature":7829,"ivariate":7830,"fre":7831,"lda":7832,"vot":7833,"Ġindividual":7834,"fromtxt":7835,"Connection":7836,"fns":7837,"algo":7838,"creen":7839,"Ġcoefficients":7840,"uclidean":7841,"71":7842,"Aggreg":7843,"tb":7844,"Ġ\"{}":7845,"Ġ(_":7846,"Ġagent":7847,"Ġyet":7848,"minute":7849,"correlation":7850,"Ġuniform":7851,"DEC":7852,"topology":7853,"Ġwrit":7854,"VERSION":7855,"ificant":7856,"æĺ¯":7857,"tleneck":7858,">\"":7859,">`":7860,"Gate":7861,"jection":7862,"tify":7863,"']],":7864,"ulative":7865,"Ġjac":7866,"STAT":7867,"psf":7868,"Ġbyte":7869,"Ġfoot":7870,"314":7871,"Ġlight":7872,"orbit":7873,"Ġscatter":7874,"Ġduring":7875,"____":7876,"Ġgray":7877,"Ġring":7878,"extended":7879,"Ġthree":7880,"cursive":7881,"ecast":7882,"Ġmasks":7883,"Ġplots":7884,"ĊĠĠĠĠĠĠĠĠĠĠĠĠĠĠĠĠĠĠĠĠĠĠĠĠĠĠĠĠĠĠĠĠĠĠĠĠĠĠĠĠĠĠĠĠĠĠĠĠĠĠĠĠĠĠĠĠĠĠĠ":7885,"grp":7886,"Ġadditional":7887,"Active":7888,"Ġignored":7889,"Ġrepresenting":7890,"234":7891,"DT":7892,"kpt":7893,"mps":7894,"ellow":7895,"mapped":7896,"texts":7897,"within":7898,"savetxt":7899,"Tests":7900,"ĠVector":7901,"placement":7902,"Raw":7903,"äºĨ":7904,"above":7905,"Full":7906,"NR":7907,"rstrip":7908,"Ġpub":7909,"Ġins":7910,"Ġ[(\"":7911,"intp":7912,"resnet":7913,"Ġstype":7914,"='--":7915,"minus":7916,"Ġorient":7917,"latent":7918,"ĊĠĠĠĠĠĠĠĠĠĠĠĠĠĠĠĠĠĠĠĠĠĠĠĠĠĠĠĠĠĠĠĠĠĠĠĠĠĠĠĠĠĠĠĠĠĠĠĠĠĠĠĠĠĠĠĠĠĠĠĠ":7919,"POS":7920,"Attr":7921,"SAME":7922,"Temperature":7923,"Ġparticle":7924,"Ġsince":7925,"Ġwrapper":7926,"Cloud":7927,"Like":7928,"Uti":7929,"fmin":7930,"wf":7931,"Ġfout":7932,"six":7933,"sitives":7934,"ceed":7935,"__),":7936,"Ġnote":7937,"ĠSp":7938,"Ġlas":7939,"Ġtfr":7940,"ĠDes":7941,"Ġenabled":7942,"ERG":7943,"norms":7944,"Frames":7945,"Arr":7946,"RES":7947,"viewer":7948,"Ġmove":7949,"UND":7950,"Predict":7951,"combinations":7952,"(\",":7953,"CP":7954,"Hour":7955,"tia":7956,"Ġinstr":7957,"lier":7958,"Ġho":7959,"vely":7960,"replicates":7961,"Return":7962,"Ġintercept":7963,"share":7964,":]:":7965,"Uw":7966,"clim":7967,"}_{":7968,"Ġhttps":7969,"arded":7970,"Ġreshape":7971,"lision":7972,"Ġgal":7973,"indexed":7974,"Ġoutdir":7975,"tsframe":7976,"shell":7977,"ĠDummy":7978,"centration":7979,"2005":7980,"ĠParameter":7981,"powers":7982,"Weights":7983,"NGTH":7984,"consistency":7985,"\">":7986,"Raster":7987,"gm":7988,"gauss":7989,"anded":7990,"mpli":7991,"Ġcuda":7992,"Ġinline":7993,"])+":7994,"Ġasset":7995,"ĠText":7996,"toarray":7997,"pipe":7998,"errs":7999,"Boost":8000,"Loading":8001,"Ġworker":8002,"years":8003,"Domain":8004,"=\",":8005,"LY":8006,"Pack":8007,"raction":8008,"Ġnor":8009,"abstract":8010,"assertIn":8011,"Ġbeing":8012,"Ġjobs":8013,"without":8014,"ONT":8015,"objective":8016,"tmpdir":8017,"QtCore":8018,"Ġestimate":8019,"\")),":8020,"RuntimeError":8021,"TAG":8022,"_\\":8023,"vc":8024,"Ġage":8025,"Ġbroadcast":8026,"qubits":8027,"ational":8028,"Ġcontrast":8029,"Ġmemb":8030,"ĠDep":8031,"svg":8032,"detect":8033,"Ġwere":8034,"Ġdatatype":8035,"SubElement":8036,"Ġmaybe":8037,".'''":8038,"Ġlag":8039,"Ġpm":8040,"fication":8041,"exe":8042,"previous":8043,"izing":8044,"ellar":8045,"Ġshell":8046,"Ġoptimize":8047,"20130101":8048,"784":8049,"bd":8050,"evals":8051,"github":8052,"Ġindexes":8053,"evoked":8054,"EXT":8055,"((\"":8056,"Av":8057,"Avg":8058,"dlg":8059,"pw":8060,"zard":8061,"peforth":8062,"Ġinsert":8063,"ĠTuple":8064,"intersection":8065,"Ġspan":8066,"utureWarning":8067,"tained":8068,"MPL":8069,":`\\":8070,"measurement":8071,",:],":8072,"MC":8073,"dur":8074,"Ġmb":8075,"Ġstation":8076,"Ġgain":8077,"Ġdevices":8078,"ĠSV":8079,"nums":8080,"compiler":8081,"varname":8082,"Ġsetting":8083,"netic":8084,"COUNT":8085,"atterns":8086,"2009":8087,"Spin":8088,"Ġestimated":8089,"Skip":8090,"Neg":8091,"Pair":8092,"Render":8093,"Sup":8094,"pper":8095,"orient":8096,"raster":8097,"))/":8098,"vered":8099,"Ġgs":8100,"timeout":8101,"permutation":8102,"binned":8103,"scripts":8104,"COMP":8105,"Ġsegments":8106,"warm":8107,"Ġprice":8108,"Failed":8109,"Ġsafe":8110,"START":8111,"hello":8112,"Ev":8113,"FORM":8114,"MI":8115,"Please":8116,"bayes":8117,"eve":8118,"mig":8119,"palette":8120,"tas":8121,"unded":8122,"Ġ27":8123,"runner":8124,"ANCE":8125,"legacy":8126,"Encoder":8127,"evaluation":8128,"Ġcodes":8129,"Quanti":8130,"Ġcriterion":8131,"percentage":8132,"quivalent":8133,"(.":8134,"You":8135,"fts":8136,"uro":8137,"çĶ":8138,"reaction":8139,"once":8140,"Ġmix":8141,"Ġag":8142,"Ġaspect":8143,"Ġthey":8144,"Ġtheir":8145,"(\"[":8146,"called":8147,"ils":8148,"four":8149,"Ġalgo":8150,"ĠGrid":8151,"Ġtrainer":8152,"failed":8153,"emis":8154,"Ġbatches":8155,"Ġcorner":8156,"rotate":8157,"OrderedDict":8158,"ĠUnion":8159,"callbacks":8160,"FEATURE":8161,"Ġplotitem":8162,"wraps":8163,"965":8164,"API":8165,"Cir":8166,"rode":8167,"Ġspi":8168,"Ġdup":8169,"Ġxlabel":8170,"coll":8171,"Ġlp":8172,"Ġproc":8173,"Ġjnp":8174,"ARCH":8175,"scrimin":8176,"ĊĠĠĠĠĠĠĠĠĠĠĠĠĠĠĠĠĠĠĠĠĠĠĠĠĠĠĠĠĠĠĠĠĠĠĠĠĠĠĠĠĠĠĠĠĠĠĠĠĠĠĠĠĠĠĠĠĠ":8177,"Char":8178,"suite":8179,"meshgrid":8180,"6666":8181,"ä¸į":8182,"Ġfacecolor":8183,"ometric":8184,">',":8185,"Cube":8186,"Eval":8187,"Fact":8188,"Identi":8189,"Phot":8190,"Ġnr":8191,"Ġnested":8192,"asing":8193,"Ġmsprime":8194,"verbosity":8195,"ĠSA":8196,"plotting":8197,"=\"\",":8198,"activity":8199,"Ġ</":8200,"subs":8201,"Star":8202,"Ġcomputation":8203,"Ġcorrection":8204,"google":8205,"combination":8206,"Ġbranchwise":8207,"mediate":8208,".:":8209,"Branch":8210,"Pen":8211,"Panel":8212,"USE":8213,"ä¹":8214,"Ġ?":8215,"Ġens":8216,"Ġentries":8217,"instances":8218,"Ġfrequencies":8219,"discrete":8220,"exceptions":8221,"ida":8222,"setValue":8223,"Ġhs":8224,"Ġrg":8225,"Ġ400":8226,"texture":8227,"Ġanchor":8228,"Ġwhat":8229,"SIM":8230,"myg":8231,"Factory":8232,"INTER":8233,"Ġtasks":8234,"Ġconnected":8235,"Ġmagnitude":8236,"Ġsquare":8237,"micro":8238,"Au":8239,"Bind":8240,"nat":8241,"tor":8242,"ydata":8243,"dial":8244,"()],":8245,"Ġdz":8246,"Ġwrong":8247,"isy":8248,"ship":8249,"eground":8250,"angular":8251,"ĠInte":8252,"disable":8253,"Query":8254,"oxels":8255,"priority":8256,"_:":8257,"gan":8258,"Ġer":8259,"Ġ'*":8260,"aptive":8261,"ĠCan":8262,"LENGTH":8263,"Ġwhite":8264,"ITER":8265,"eek":8266,"FloatOutput":8267,"Ġswap":8268,"Ġchoices":8269,"Month":8270,"calibration":8271,"Ġwavelength":8272,"Ġfilled":8273,"DD":8274,"RS":8275,"Sizer":8276,"Tab":8277,"lf":8278,"removed":8279,"Ġimpl":8280,"Ġput":8281,"Ġinds":8282,"chdir":8283,"),'":8284,"Ġyi":8285,"latest":8286,"continue":8287,"bads":8288,"Policy":8289,"æľī":8290,"ĠDatetimeIndex":8291,"Ġwhose":8292,"dummies":8293,"ERGY":8294,".*(":8295,"Body":8296,"Empty":8297,"Img":8298,"LP":8299,"xticklabels":8300,"recation":8301,"roke":8302,"hear":8303,"Ġapi":8304,"ĠTrain":8305,"clust":8306,"Ġhit":8307,"compressed":8308,"composite":8309,"izable":8310,"Ġsampled":8311,"seeds":8312,"Attribute":8313,"require":8314,"!\"":8315,"IP":8316,"Items":8317,"motor":8318,"qq":8319,"rite":8320,"slim":8321,"tmax":8322,"rase":8323,"meth":8324,"resources":8325,"arize":8326,"correl":8327,"Ġcharge":8328,"Std":8329,"generic":8330,"Ġruntime":8331,"Ġmost":8332,"Ġneighbors":8333,"parsers":8334,"Component":8335,"timestamps":8336,"thresholds":8337,"Soft":8338,"'\"":8339,"FRAME":8340,"GP":8341,"High":8342,"IB":8343,"sb":8344,"some":8345,"Ã©":8346,"Ġcz":8347,"Ġdv":8348,"')):":8349,"ifar":8350,"timeseries":8351,"Ġpreds":8352,"Ġcorrelation":8353,"Ġdiffusion":8354,"bounding":8355,"chemy":8356,"Display":8357,"ResourceVariable":8358,"Folder":8359,"Mu":8360,"]'":8361,"but":8362,"Ġhere":8363,"Ġgbm":8364,"Ġear":8365,"Ġconstants":8366,"Ġ34":8367,"Ġnamed":8368,"ĠMAX":8369,"sums":8370,"Ġaltern":8371,"Ġlocals":8372,"ÂłÂł":8373,"Agent":8374,"SUM":8375,"raries":8376,"Ġcnn":8377,"traces":8378,"Ġdelete":8379,"Ġdegrees":8380,"Ġknown":8381,"Ġprepare":8382,"ĠWhen":8383,"Ġaccess":8384,"optimal":8385,"Ġdifference":8386,"Single":8387,"éĢ":8388,"Ġncols":8389,"heme":8390,"external":8391,"Ġdr":8392,"Ġformu":8393,"])**":8394,"quation":8395,"Ġ250":8396,"formula":8397,"dicts":8398,"pointer":8399,"icro":8400,"Ġchi":8401,"ĠOther":8402,"ivsd":8403,"plate":8404,"Ġneighbor":8405,"which":8406,"findall":8407,"ough":8408,"KeyError":8409,"MODEL":8410,"Monitor":8411,"assertDatasetIdentical":8412,"recationWarning":8413,"Ġformula":8414,"224":8415,":]))":8416,"cmb":8417,"fen":8418,"por":8419,"Ġnz":8420,"Ġinc":8421,"cts":8422,"Ġcomplete":8423,"\"\"\")":8424,"ĠNorm":8425,"Ġactiv":8426,"157":8427,"Functions":8428,"Ġreduction":8429,"Merge":8430,"candle":8431,"pur":8432,"tup":8433,"yi":8434,"strand":8435,"alled":8436,"Ġsz":8437,"lips":8438,"])*":8439,"prepare":8440,"Ġ<-":8441,"Valid":8442,"Ġ700":8443,"RAW":8444,"Ġnormalizer":8445,"answer":8446,"Solver":8447,"Head":8448,"cannot":8449,"spike":8450,"formats":8451,"Vals":8452,"\"]],":8453,"ĠOK":8454,"Request":8455,"initialized":8456,"...'":8457,"IGN":8458,"Filename":8459,"PARA":8460,"Ġwritten":8461,"His":8462,"Task":8463,"rew":8464,"Ġbasic":8465,"ado":8466,"=\"%":8467,"....":8468,"Ġlists":8469,"Ġpreprocessing":8470,"ĠLay":8471,"=(-":8472,"dispatch":8473,"mitive":8474,"encoded":8475,"missions":8476,"ĠSequence":8477,"Geo":8478,"Ġpowers":8479,"machine":8480,"Ġlasagne":8481,"(%":8482,"PC":8483,"fpath":8484,"got":8485,"plugin":8486,"rin":8487,"åħ":8488,"Ġeri":8489,"Ġtimer":8490,"))])":8491,"ends":8492,"Ġvideo":8493,"Ġjust":8494,"netcdf":8495,"Ġevaluation":8496,"Documents":8497,"Slices":8498,"Ġhorizontalalignment":8499,"'$\\":8500,"dash":8501,"ndimage":8502,"around":8503,"Ġpys":8504,"Ġincluded":8505,"('../":8506,"Ġ:])":8507,"cir":8508,"=[])":8509,"topics":8510,"magic":8511,"Ġcandidate":8512,"grey":8513,"operations":8514,"Missing":8515,"Ent":8516,"Main":8517,"OCC":8518,"bx":8519,"gc":8520,"Ġent":8521,"tics":8522,"Ġmtf":8523,"Ġva":8524,"Ġthrough":8525,"irt":8526,"Ġstarting":8527,"...\"":8528,"Ġmotion":8529,"Iteration":8530,"otopes":8531,"GG":8532,"grouped":8533,"qs":8534,"scoring":8535,"invert":8536,"Ġnargs":8537,"']])":8538,"Ġylim":8539,"probe":8540,"ĠSparse":8541,"ĠAb":8542,"Complex":8543,"Indexed":8544,"quantity":8545,"Ġcar":8546,"lign":8547,"imf":8548,"ĠMO":8549,"ĠMy":8550,"yscale":8551,"Ġstddev":8552,"Ġsolve":8553,"Ċĉĉĉĉĉĉĉ":8554,"Curve":8555,"BATCH":8556,"FN":8557,"][:,":8558,"ume":8559,"online":8560,"statistics":8561,"strength":8562,"peg":8563,"Ġsheet":8564,"isnull":8565,"quat":8566,"quare":8567,"Ġ360":8568,"Ġcould":8569,"ĠOS":8570,"sens":8571,"auc":8572,"linearity":8573,"frag":8574,"=%.":8575,"Convolution":8576,"optimization":8577,")+'":8578,"Dele":8579,"JECT":8580,"Slice":8581,"olved":8582,"Ġmt":8583,"Ġmar":8584,"unused":8585,"otonic":8586,"('''":8587,"ĠAl":8588,"Ġrad":8589,"Ġ43":8590,"erials":8591,"loadmat":8592,"country":8593,"PECT":8594,"widgets":8595,"discount":8596,"chromosome":8597,"Ġdoesn":8598,"Ġobservations":8599,"plied":8600,"ĠOnly":8601,"nobs":8602,"potential":8603,"Ġcpu":8604,"Ġbc":8605,"Ġws":8606,"isin":8607,"Ġminor":8608,"Static":8609,"Ġcompression":8610,"templates":8611,"ĠHe":8612,"Ġmajor":8613,">>>":8614,"Ġmatching":8615,"clusive":8616,"Ġregions":8617,"Ġtruth":8618,"Ġtyping":8619,"affe":8620,"Ġcalculation":8621,"hierarchy":8622,"AUT":8623,"Nx":8624,"brick":8625,"qc":8626,"onical":8627,"Ġocc":8628,"(\".":8629,"person":8630,"shrink":8631,"Ġupdated":8632,"FFT":8633,"Iterator":8634,"bursts":8635,"Segment":8636,".]])":8637,"Hub":8638,"Last":8639,"YP":8640,"aic":8641,"nion":8642,"Ġlt":8643,"alphas":8644,"roids":8645,"dies":8646,"Ġrecords":8647,"uri":8648,"Ġ[_":8649,"Ġweb":8650,"ĠSub":8651,"ĠSNP":8652,"ĠEach":8653,"Ġneeded":8654,"dimensional":8655,"ĠState":8656,"Threshold":8657,"Show":8658,"Summary":8659,"richment":8660,"members":8661,"TMPDIR":8662,"FS":8663,"Fig":8664,"LD":8665,"Lib":8666,"Sto":8667,"ually":8668,"stable":8669,"Ġinfile":8670,"Ġsat":8671,"esis":8672,"Ġbw":8673,"Ġstored":8674,"verts":8675,"outh":8676,"spileups":8677,"Ġraster":8678,"Ġnamedtuple":8679,"ĠPer":8680,"anner":8681,"ĠBin":8682,"orithms":8683,"Sums":8684,"================================":8685,"Ġsampler":8686,"Ġcirq":8687,"GRAY":8688,"Fill":8689,"¡Į":8690,"asy":8691,"Ġsr":8692,"Ġsx":8693,"Ġbb":8694,"omatic":8695,"Ġhelper":8696,"tech":8697,"rences":8698,")]:":8699,"([[[":8700,"Ġotherwise":8701,"primary":8702,"eved":8703,"stems":8704,"Ġfootprint":8705,"Cy":8706,"Go":8707,"NC":8708,"hp":8709,"nam":8710,"tre":8711,"attn":8712,"ertia":8713,"))):":8714,"lain":8715,"Ġair":8716,"rier":8717,"('$":8718,"togg":8719,"Ġry":8720,"maxs":8721,"ĠMet":8722,"pivot":8723,"anning":8724,"Ġpyfits":8725,"Ġminute":8726,"cvt":8727,"ĠvarMap":8728,"uilt":8729,"Ġlattice":8730,"Ġbackward":8731,"symmetry":8732,"SAMPLE":8733,"^{-":8734,"OUTPUT":8735,"blobs":8736,"Callback":8737,"specs":8738,"ĠArguments":8739,"-(":8740,"BER":8741,"NET":8742,"^\\":8743,"lbl":8744,"wv":8745,"xff":8746,"inference":8747,"Ġtstart":8748,"disk":8749,"life":8750,"ham":8751,"Ġwell":8752,"('{}":8753,"upp":8754,"Ġstatistics":8755,"vergence":8756,"indexing":8757,"Ġdesign":8758,"mosphere":8759,"ĠCheck":8760,"refs":8761,"Ġplotting":8762,"ORY":8763,"Extra":8764,"digits":8765,"Ġchildren":8766,"Ġtransition":8767,"RegisterGradient":8768,"Ġeffect":8769,"Cli":8770,"Less":8771,"Tick":8772,"fuel":8773,"Ġti":8774,"Ġplease":8775,"Ġscoring":8776,"anda":8777,"Ġeeg":8778,"Ġconnection":8779,"formance":8780,"icense":8781,"ĠEpochs":8782,"Optim":8783,"general":8784,"Ġlinalg":8785,"structions":8786,"Ġrequire":8787,"Ġthresholds":8788,"Ġrepeat":8789,"ĠNetwork":8790,"folio":8791,"Nd":8792,"Sw":8793,"mw":8794,"nside":8795,"Ġub":8796,"iny":8797,"recogn":8798,"dele":8799,"describe":8800,"ada":8801,"Ġasc":8802,"ĠDo":8803,"ĠDist":8804,"iterable":8805,"LES":8806,"ARD":8807,"selector":8808,"integrate":8809,"combo":8810,"Ġhistogram":8811,"identifier":8812,"terminal":8813,"stars":8814,"Ġtraceback":8815,"Sigma":8816,"Represented":8817,"cvtColor":8818,")`":8819,")()":8820,"5000":8821,"Embedding":8822,"HDU":8823,"Ks":8824,"Mock":8825,"RAL":8826,"RMS":8827,"SQL":8828,"ea":8829,"udf":8830,"¦ģ":8831,"Ġ^":8832,"Ġ120":8833,"Ġ[{":8834,"chron":8835,"adam":8836,"Ġway":8837,"rays":8838,"trainer":8839,"Ġzorder":8840,"Ġunpack":8841,"Ġsets":8842,"regular":8843,"Dictionary":8844,"Ġ70":8845,"coordinate":8846,"Ġregression":8847,"Ġcenters":8848,"Sequential":8849,"FIEL":8850,"Description":8851,"APER":8852,"Ġpackage":8853,")},":8854,"-'":8855,"235":8856,"gam":8857,"must":8858,"nos":8859,"ä½":8860,"Ġentropy":8861,"Ġtuples":8862,"Ġib":8863,"Ġplate":8864,"ctxt":8865,"Ġmargin":8866,"heel":8867,"fileName":8868,"Ġdeep":8869,"Ġdescri":8870,"Datab":8871,"bio":8872,"ENCE":8873,"marks":8874,"Ġspecifying":8875,"qualifier":8876,"EVT":8877,",:])":8878,"fall":8879,"kk":8880,"lexi":8881,"Ġpast":8882,"Ġpaddle":8883,"Ġ'':":8884,"Ġgaussian":8885,"Ġimported":8886,"Ġrates":8887,"ĠMo":8888,"centroid":8889,"MEAN":8890,"decimal":8891,"Ġnormalization":8892,"ĊĠĠĠĠĠĠĠĠĠĠĠĠĠĠĠĠĠĠĠĠĠĠĠĠĠĠĠĠĠĠĠĠĠĠĠĠĠĠĠĠĠĠĠĠĠĠĠĠĠĠĠĠĠĠĠĠĠĠĠĠĠĠĠĠĠĠĠĠĠĠĠĠĠĠĠĠĠĠĠĠĠĠĠĠĠĠĠĠ":8893,"Ġappro":8894,"replicas":8895,"Counts":8896,"Enum":8897,"Spectrum":8898,"fwd":8899,"wall":8900,"rector":8901,"Ġ26":8902,"Ġrule":8903,"ĠRange":8904,"ĠEX":8905,"polation":8906,"DEN":8907,"ĠUser":8908,"Setting":8909,"TEXT":8910,"CHAN":8911,"Ġrepresentation":8912,"converter":8913,"human":8914,"focus":8915,"Prop":8916,"]`.":8917,"bank":8918,"huffle":8919,"tbl":8920,"rewards":8921,"datas":8922,"Ġmi":8923,"sibility":8924,"']*":8925,"([]),":8926,"**(-":8927,"Ġzs":8928,"Profile":8929,"Ġendpoint":8930,"Ġnose":8931,"suptitle":8932,"digit":8933,"Ġgdal":8934,"ARE":8935,"JSON":8936,"Ph":8937,"Tile":8938,"UV":8939,"dh":8940,"fluid":8941,"yles":8942,"Ġflip":8943,"Ġscf":8944,"console":8945,"Ġconversion":8946,"Ġhard":8947,"Ġdid":8948,"loading":8949,"estimate":8950,"histo":8951,"Times":8952,"magnetic":8953,"Ġhamiltonian":8954,"Ġtrigger":8955,"Ġindent":8956,"PIPE":8957,"choose":8958,"Ġpipeline":8959,"Ġconcatenate":8960,"Ġsubjects":8961,"ĠInterval":8962,"Orig":8963,"Database":8964,"700":8965,"EPS":8966,"jj":8967,"jump":8968,"nest":8969,"plo":8970,"always":8971,"Ġdriver":8972,"thr":8973,"'][:,":8974,"ĠPIL":8975,"Ġlev":8976,"closed":8977,"Ġvertex":8978,"packages":8979,"Ġcontainer":8980,"integrity":8981,"CNN":8982,"brain":8983,"don":8984,"sex":8985,"lis":8986,"Ġddof":8987,"amin":8988,"Ġym":8989,"Ġshrink":8990,"======":8991,"wrapped":8992,"Ġconnect":8993,"Ġexpectation":8994,"truncated":8995,"---------------":8996,",.":8997,"FROM":8998,"IV":8999,"Memory":9000,"Padding":9001,"][:":9002,"tc":9003,"reuse":9004,"sitivity":9005,"unic":9006,"defs":9007,"ident":9008,"Ġdti":9009,"']].":9010,"Ġdiscrete":9011,"stration":9012,"ĠEvent":9013,"=[-":9014,"tended":9015,"bases":9016,"ppf":9017,"Ġcolorbar":9018,"quisition":9019,"served":9020,"Ġsimilarity":9021,"finder":9022,"Edge":9023,"LR":9024,"Leg":9025,"hip":9026,"kpts":9027,"moments":9028,"vline":9029,"Ġquestion":9030,"stit":9031,"determin":9032,"descriptor":9033,"Ġcloud":9034,"route":9035,"Ġslot":9036,"datum":9037,"Ġstock":9038,"calar":9039,"labeled":9040,"Ġdiv":9041,"Ġrr":9042,"ĠPanel":9043,"Ġprovide":9044,"]]],":9045,"2018":9046,"normalization":9047,"straints":9048,"measures":9049,"CAMB":9050,"ĠCoun":9051,"DOW":9052,"mitted":9053,"Ġthreads":9054,"Ġslices":9055,"Bot":9056,"DR":9057,"Icon":9058,"Site":9059,"dz":9060,"pan":9061,"statistic":9062,"alman":9063,"Ġinside":9064,"imals":9065,"Ġlats":9066,"cython":9067,"cuit":9068,"servation":9069,"lapse":9070,"RIBU":9071,"cluding":9072,"Shift":9073,"ĠSELECT":9074,"Ġassociated":9075,"lh":9076,"sx":9077,"vor":9078,"yield":9079,"fif":9080,"oms":9081,"prof":9082,"Ġcolour":9083,"Ġprobs":9084,"subprocess":9085,"Ġtraj":9086,"ĠXY":9087,"posal":9088,"Ġtransformed":9089,"Ġcanvas":9090,"Ġlookup":9091,"Ġquad":9092,"ABC":9093,"aternion":9094,"857":9095,"ĊĠĠĠĠĠĠĠĠĠĠĠĠĠĠĠĠĠĠĠĠĠĠĠĠĠĠĠĠĠĠĠĠĠĠĠĠĠĠĠĠĠĠĠĠĠĠĠĠĠĠĠĠĠĠĠĠĠĠĠĠĠĠĠĠĠĠĠĠĠĠĠĠĠĠĠĠ":9096,"Ġplacement":9097,"ĠColumn":9098,"Distributed":9099,"Two":9100,"blen":9101,"lations":9102,"mdot":9103,"åĲ":9104,"Ġni":9105,"sider":9106,"pert":9107,"ĠSimple":9108,"ĠME":9109,"ĠNUM":9110,"ocus":9111,")]),":9112,"graphics":9113,"workspace":9114,"dues":9115,"padded":9116,"andardize":9117,"RIBUTE":9118,"CUR":9119,"prun":9120,"entions":9121,"role":9122,"Ġrecomm":9123,"Ġreason":9124,"fire":9125,"Ġwl":9126,"atis":9127,"atios":9128,"geta":9129,"Ġcovariance":9130,"tries":9131,"ĠCF":9132,"computed":9133,"ĠDAT":9134,"Ġuseful":9135,"Ġinternal":9136,"candidate":9137,"cape":9138,"idator":9139,"Ġ``'":9140,"regularization":9141,"publish":9142,"hessian":9143,"ĠPoly":9144,"femSpace":9145,"1101":9146,"CSV":9147,"Wrong":9148,"bro":9149,"æķ":9150,"attrib":9151,"atmosphere":9152,"ali":9153,"Ġimag":9154,"Ġfuture":9155,"assets":9156,"Ġsil":9157,"covariance":9158,"])])":9159,"Ġyerr":9160,"\");":9161,"Ġcontact":9162,"ĠSo":9163,"Ġ48":9164,"ellite":9165,"Ġkeypoints":9166,"bytree":9167,"IndexError":9168,"commit":9169,"Ġexecute":9170,"expectation":9171,"FLOAT":9172,"cosmology":9173,",_":9174,"NB":9175,"RR":9176,"]`":9177,"gons":9178,"kp":9179,"utable":9180,"construction":9181,"\"]]":9182,"transformed":9183,"nnot":9184,"Ġmoving":9185,"cade":9186,"Ġobjective":9187,"duplicate":9188,"Ġblue":9189,"!!!!":9190,"VARI":9191,"ellipse":9192,"432":9193,"BGR":9194,"Epoch":9195,"FOR":9196,"GT":9197,"Optional":9198,"TON":9199,"Ve":9200,"icon":9201,"Ġindx":9202,"division":9203,"()(":9204,"quit":9205,"confidence":9206,"ands":9207,"endpoint":9208,"calls":9209,"Ġhic":9210,"Ġparticles":9211,"ĠNew":9212,"Ġmaxval":9213,"ĠGen":9214,"owner":9215,"genfromtxt":9216,"Ġinterface":9217,"IDTH":9218,"ĊĠĠĠĠĠĠĠĠĠĠĠĠĠĠĠĠĠĠĠĠĠĠĠĠĠĠĠĠĠĠĠĠĠĠĠĠĠĠĠĠĠĠĠĠĠĠĠĠĠĠĠĠĠĠĠĠĠĠĠĠĠĠĠĠĠ":9219,"Radius":9220,"variants":9221,"electron":9222,"Ġvisible":9223,"byteorder":9224,"CENT":9225,"Timer":9226,"dout":9227,"family":9228,"gas":9229,"Ġptr":9230,"Ġwarning":9231,"trade":9232,"ĠCur":9233,"Ġjax":9234,"ĠET":9235,"Contact":9236,"dtree":9237,"augment":9238,"Ġnearest":9239,"Material":9240,"Enabled":9241,"pooling":9242,"ĠUni":9243,"Ġdirname":9244,"Ġprotocol":9245,"ĠMaskedArray":9246,"ATTRIBUTE":9247,"Greater":9248,"Ġoccur":9249,"Ġresidue":9250,"avigation":9251,"Fl":9252,"Flat":9253,"Pass":9254,"[...]":9255,"}},":9256,"Ġdynamic":9257,"getcwd":9258,"(\"{":9259,"addings":9260,"ĠCont":9261,"Colour":9262,"nnet":9263,"Ġ75":9264,"candidates":9265,"Ġabsl":9266,"mics":9267,"Env":9268,"LIB":9269,"Generate":9270,"Ġpeaks":9271,"ĠResult":9272,"distributed":9273,"Ġklass":9274,"ĠOutput":9275,")]))":9276,"Bit":9277,"LT":9278,"LON":9279,"TABLE":9280,"dask":9281,"ffic":9282,"ji":9283,"Ġlimits":9284,"Ġbet":9285,"Ġbenchmark":9286,"verter":9287,"ulli":9288,"perturb":9289,"tections":9290,"Ġpreprocess":9291,"archive":9292,"Ġsigmoid":9293,"erosion":9294,"PHA":9295,"analyze":9296,"Coefficients":9297,"Dif":9298,"Samples":9299,"hor":9300,"lue":9301,"}\")":9302,"ÃŃ":9303,"å¾":9304,"ales":9305,"tip":9306,"laps":9307,"ĠTH":9308,"Ġdeviation":9309,"ĠSample":9310,"Ġther":9311,"DEX":9312,"100000":9313,"windows":9314,"variances":9315,"sink":9316,"COLUM":9317,"tokenizer":9318,"ringer":9319,"Content":9320,"BASIS":9321,"acob":9322,"DM":9323,"cen":9324,"halo":9325,"uli":9326,"indicator":9327,"orn":9328,"Ġtup":9329,"Ġff":9330,"Ġreject":9331,"('./":9332,"Ġelapsed":9333,"Ġrj":9334,"ĠCA":9335,"comparison":9336,"Ġenable":9337,"ĠWe":9338,"TensorSpec":9339,"Unable":9340,")+\"":9341,"GraphKeys":9342,"Ġfrac":9343,"Ġalignment":9344,"Ġconstraint":9345,"specific":9346,"skew":9347,"SUB":9348,"dro":9349,"hrf":9350,"ĠçļĦ":9351,"Ġbp":9352,"coo":9353,"__',":9354,"004":9355,"Ġissubclass":9356,"Ġrm":9357,"ĠMod":9358,"Ġindexing":9359,"ĠLO":9360,"REG":9361,"insulated":9362,"socket":9363,"Child":9364,"Ġfake":9365,"creation":9366,"delayed":9367,"Ġmeasurement":9368,"unlensed":9369,"Utils":9370,".)),":9371,"Vi":9372,"Vol":9373,"gid":9374,"kf":9375,"ography":9376,"pq":9377,"pot":9378,"references":9379,"pet":9380,"Ġbuilt":9381,"Ġgate":9382,"Ġaxs":9383,"=\"\\":9384,"Ġtrajectory":9385,"DEP":9386,"convolve":9387,"quilib":9388,"Ġbinned":9389,"sume":9390,"overwrite":9391,"CALE":9392,"segmentation":9393,"CONFIG":9394,"Masked":9395,"scheduler":9396,"Ġamplitude":9397,"Ġtakes":9398,"Ġcontours":9399,"scriminator":9400,"CY":9401,"Cols":9402,"HOR":9403,"Numpy":9404,"Rec":9405,"benchmark":9406,"dens":9407,"}')":9408,"desired":9409,"rics":9410,"setting":9411,"Ġconsist":9412,"Ġdecode":9413,"Ġchart":9414,"Ġrout":9415,"ROOT":9416,"_{\\":9417,"Ġ\"_\"":9418,"truncate":9419,"Ġverticalalignment":9420,"Fold":9421,"Sha":9422,"bam":9423,"oh":9424,"rp":9425,"tvm":9426,"ura":9427,"yields":9428,"Ġenter":9429,"sil":9430,"fiers":9431,"Ġwould":9432,"mbh":9433,"ĠOpen":9434,"Ġsplits":9435,"033":9436,"Ġcentral":9437,"URCE":9438,"IMAGE":9439,"ä¸Ģ":9440,"}.\\":9441,"Coeffs":9442,"'``":9443,")[:":9444,"+\".":9445,"><":9446,"CZ":9447,"burn":9448,"sci":9449,"xls":9450,"Ġpn":9451,"Ġsg":9452,"Ġmnu":9453,"Ġomk":9454,"Ġombh":9455,"Ġwav":9456,"isual":9457,"Ġ-(":9458,"=[(":9459,"ĠGpu":9460,"Ġactivity":9461,"convolution":9462,"Ġadvection":9463,":,:]":9464,"PIX":9465,"structured":9466,"Percent":9467,"99999999":9468,"Double":9469,"Ġomch":9470,"InitPower":9471,"Ġguess":9472,"CAMBparams":9473,"LM":9474,"_))":9475,"tgt":9476,"ori":9477,"oring":9478,"loy":9479,"colour":9480,"']}":9481,"processes":9482,"Ġdisk":9483,"Ġthird":9484,"ĠBatch":9485,"LEV":9486,"Ġcompatible":9487,"coefs":9488,"Compute":9489,"finished":9490,"Ġrequested":9491,"simplefilter":9492,"levant":9493,"ĠSequential":9494,"swapaxes":9495,"Channel":9496,"Ġascending":9497,")._":9498,"Best":9499,"RF":9500,"WD":9501,"ffill":9502,"gun":9503,"leak":9504,"Ġcart":9505,"Ġascii":9506,"lencl":9507,"='\\":9508,"Ġem":9509,"Ġusage":9510,"DataType":9511,"sca":9512,"Ġzoom":9513,"ĠEle":9514,"Ġunlencl":9515,"denom":9516,"stddev":9517,"]]).":9518,"Ġmodes":9519,"DIST":9520,"periments":9521,"aligned":9522,"Ġplan":9523,"Ġedgecolor":9524,"PSF":9525,"Ġutt":9526,"Ġdetermine":9527,"Ġslider":9528,"+'_'+":9529,"Tru":9530,"Beam":9531,"SIGN":9532,"neurons":9533,"çĶ¨":9534,"NI":9535,"hsv":9536,"Ġpressure":9537,"roc":9538,"Ġ':":9539,"covered":9540,"Ġstage":9541,"arger":9542,"Ġgap":9543,"Ġrnd":9544,"Ġpara":9545,"intersect":9546,"Ġroll":9547,"ĊĠĠĠĠĠĠĠĠĠĠĠĠĠĠĠĠĠĠĠĠĠĠĠĠĠĠĠĠĠĠĠĠĠĠĠĠĠĠĠĠĠĠĠĠĠĠĠĠĠĠĠĠĠĠĠĠĠĠĠĠĠĠĠĠĠĠĠĠ":9548,"Ġarrow":9549,"Ġstrip":9550,"downcast":9551,"bitrary":9552,"lapsed":9553,"posterior":9554,"Minimum":9555,"Move":9556,"Ġcharacter":9557,"occup":9558,"Ġcombine":9559,"literals":9560,"Push":9561,"WIN":9562,"sfreq":9563,"ĠValue":9564,"inside":9565,"individual":9566,"Ġcaffe":9567,"Ġexe":9568,"Ġvx":9569,"Ġrl":9570,"Ġparsed":9571,"feats":9572,"ĠMes":9573,"Coords":9574,"Ġspecific":9575,"Ġdetect":9576,"Ġbands":9577,"Ġstacked":9578,"Ġheat":9579,"Ġtail":9580,"ĠCalculate":9581,"Relu":9582,"Ġmetal":9583,")[-":9584,"Dev":9585,"Link":9586,"Sm":9587,"fps":9588,"kt":9589,"pul":9590,"rdm":9591,"sit":9592,"æĪ":9593,"æĸ":9594,"alloc":9595,"Ġnone":9596,"Ġpitch":9597,"Ġplugin":9598,"define":9599,"chors":9600,"Ġdue":9601,"Ġdset":9602,"isclose":9603,"spines":9604,"Ġdemo":9605,"civec":9606,"indent":9607,"ĠCy":9608,"Ġseen":9609,"ĠNu":9610,"Ġ56":9611,"Conf":9612,"ĠWD":9613,"early":9614,"locals":9615,"------------------------":9616,"sized":9617,",*":9618,".`":9619,"bj":9620,"equ":9621,"atol":9622,"atings":9623,"alias":9624,"metic":9625,"Ġsites":9626,"ctype":9627,"Ġmtd":9628,"connections":9629,"Ġrms":9630,"ĠApp":9631,"103":9632,"movie":9633,"Contour":9634,"]]]":9635,"inspect":9636,"Bool":9637,"DIM":9638,"Ġeven":9639,"kws":9640,"Ġabout":9641,"Ġcapacity":9642,"Ġcsr":9643,"Ġblk":9644,"Ġparts":9645,"Ġchosen":9646,"Processing":9647,"GAME":9648,"Counter":9649,"Workspace":9650,"Ġsoftmax":9651,"ĠOSError":9652,"DEPTH":9653,"El":9654,"hub":9655,"lers":9656,"qn":9657,"voxel":9658,"Ġplatform":9659,"Ġ'$":9660,"service":9661,"chisq":9662,"ĠNOT":9663,"hole":9664,"Ġelect":9665,"created":9666,"LOCK":9667,"anyarray":9668,"organ":9669,"Running":9670,"heatmap":9671,"cirq":9672,"COR":9673,"Kind":9674,"LGBM":9675,"Phi":9676,"UC":9677,"WIDTH":9678,"ctivity":9679,"fmax":9680,"xds":9681,"}]":9682,"ani":9683,"Ġcop":9684,"104":9685,"latex":9686,"ĠLicense":9687,"offs":9688,"refresh":9689,"ivot":9690,"ĠExtension":9691,"quired":9692,"Strategy":9693,"Ġphy":9694,"generated":9695,"override":9696,"crnr":9697,"Ġsocket":9698,"rgba":9699,"Append":9700,"Ġcmds":9701,"abstractmethod":9702,"(?":9703,"Bad":9704,"NORM":9705,"ections":9706,"kv":9707,"vb":9708,"detail":9709,"Ġnat":9710,"rod":9711,"Ġscreen":9712,"Ġ\"\")":9713,"cepts":9714,"Ġ(['":9715,"Ġconfidence":9716,"perc":9717,"ĠSP":9718,"ĠSort":9719,"Ġsend":9720,"ĠRun":9721,"scr":9722,"Ġalways":9723,"ĠEN":9724,"ĠLabel":9725,"Ġpyscf":9726,"ĠGPU":9727,"functional":9728,"parents":9729,"ORS":9730,"Ext":9731,"oken":9732,"aug":9733,"IGC":9734,"Ġpolynomial":9735,"Appender":9736,"ĠColor":9737,"}/{":9738,"Service":9739,"irtual":9740,".+":9741,"FR":9742,"kd":9743,"()*":9744,"Ġmachine":9745,"urnal":9746,"vect":9747,"ĠTO":9748,"dshift":9749,"Ġ5000":9750,"ĠDropout":9751,"Ġencoded":9752,"libs":9753,"angent":9754,"Ġqt":9755,"aching":9756,"olutional":9757,"ĠRead":9758,"ĠExample":9759,"Ġsympy":9760,"Means":9761,"RAY":9762,"Ġconvolution":9763,"Ġprocessing":9764,"Ġcapture":9765,"Ġsmoothing":9766,"ominator":9767,"IndexedSlices":9768,"065":9769,"Lik":9770,"RNA":9771,"Word":9772,"WHM":9773,"hits":9774,"ire":9775,"iTru":9776,"jk":9777,"trend":9778,"ä¾":9779,"è¦ģ":9780,"alive":9781,"Ġmor":9782,"))],":9783,"Ġ\"[":9784,"Ġ[{'":9785,"Ġdu":9786,"getvalue":9787,"Ġstrand":9788,"Ġemb":9789,"Ġrf":9790,"ĊĉĉĠĠĠ":9791,"computation":9792,"utilities":9793,"working":9794,"pecies":9795,"Timedelta":9796,"Ġcorners":9797,"Ġ123":9798,"ENABLE":9799,"Ġ|=":9800,"integers":9801,"Maximum":9802,"choices":9803,"finalize":9804,"ï¼ļ":9805,"different":9806,"~~~~~~~~~~~~~~~~":9807,"Ġderivative":9808,"*',":9809,"Motor":9810,"NONE":9811,"Section":9812,"dget":9813,"pres":9814,"zp":9815,"åĢ":9816,"Ġke":9817,"ana":9818,"Ġpx":9819,"Ġplaces":9820,"Ġcatch":9821,"Ġsure":9822,"Ġrelease":9823,"()[-":9824,"__[":9825,"colsample":9826,"ĠtestWhile":9827,"sions":9828,"Testing":9829,"ĠHDF":9830,"Ġmatched":9831,"extractor":9832,"Precision":9833,"Ġlocations":9834,"astern":9835,"Controller":9836,"isticRegression":9837,"avier":9838,"ĠFeature":9839,"DTree":9840,"Rest":9841,"gps":9842,"kb":9843,"vv":9844,"vcf":9845,"attach":9846,"depre":9847,"tid":9848,"()['":9849,"Ġmak":9850,"excel":9851,"logit":9852,"prep":9853,"ĠOne":9854,"creator":9855,"Ġcollect":9856,"cmc":9857,"Components":9858,"ETA":9859,"Ġetc":9860,"Ġperformance":9861,"taxon":9862,"âĢķâĢķâĢķâĢķ":9863,"Saver":9864,"BINARY":9865,"lexible":9866,".)*(":9867,"Bi":9868,"SW":9869,"crs":9870,"hl":9871,"places":9872,"devs":9873,"Ġcmp":9874,"Ġcached":9875,"datafile":9876,"into":9877,"Ġblack":9878,"Ġdh":9879,"Ġuint":9880,"105":9881,"ĠCON":9882,"Ġchanged":9883,"psd":9884,"ĠGe":9885,"thermo":9886,"Properties":9887,"ĠYou":9888,"naive":9889,"entities":9890,"Ġtransformation":9891,"peaker":9892,"Transformer":9893,"residuals":9894,"ĠObject":9895,"Ġimplementation":9896,"extremes":9897,"675":9898,"Align":9899,"^^":9900,"hint":9901,"lut":9902,"ming":9903,"stretch":9904,"asi":9905,"Ġ'|":9906,"Ġresi":9907,"umb":9908,"Ġdj":9909,"consol":9910,"Ġgam":9911,"Ġgiv":9912,"Ġland":9913,"acro":9914,"ĠPi":9915,"ĠMock":9916,"ĠNumpy":9917,"Ġskimage":9918,"Ġ127":9919,"Alg":9920,"detected":9921,"Activation":9922,"ĠProcess":9923,"article":9924,"HEAD":9925,"ĠBoolean":9926,"Ġterminal":9927,"567":9928,"Acc":9929,"Center":9930,"Jobs":9931,"Using":9932,"YY":9933,"_['":9934,"fct":9935,"mv":9936,"åĬ":9937,"ering":9938,"itHub":9939,"',),":9940,"maker":9941,"contract":9942,"conformer":9943,"Ġxlim":9944,"(\"\")":9945,"assertLess":9946,"Ġoutside":9947,"figs":9948,"iterN":9949,"interactive":9950,"reflect":9951,"Ġimgs":9952,"vectorizer":9953,"Ġacross":9954,"matching":9955,"CESS":9956,"Learn":9957,"Based":9958,"Ġnonlinearity":9959,"Forward":9960,"quantize":9961,"VALUE":9962,"azimuth":9963,"Pixel":9964,"bootstrap":9965,"armonic":9966,"(([":9967,"/*":9968,"Actor":9969,"Omega":9970,"hg":9971,"hal":9972,"kits":9973,"marg":9974,"ujson":9975,"season":9976,"delimiter":9977,"Ġtc":9978,"Ġima":9979,"Ġpw":9980,"Ġcandle":9981,"Ġinstances":9982,"ortran":9983,"Ġaug":9984,"Ġdg":9985,"thickness":9986,"Ġ240":9987,"'][-":9988,"Ġvoxel":9989,"Ġhold":9990,"ĠRNN":9991,"ĠNO":9992,"Record":9993,"SES":9994,"acters":9995,"quire":9996,"Grain":9997,"depthwise":9998,"Ġadj":9999,"Ġmapped":10000,"Ġlatest":10001,"NumberOf":10002,"artifact":10003,"Ġreplic":10004,"STRING":10005,"('.')[":10006,"PARAMS":10007,"025":10008,"Act":10009,"Beta":10010,"DNN":10011,"FUN":10012,"IZ":10013,"Tex":10014,"Wave":10015,"_\"+":10016,"flo":10017,"ĥ½":10018,"inct":10019,"Ġsci":10020,"hazard":10021,"Ġ29":10022,"npts":10023,"Ġ33":10024,"Ġ36":10025,"ĠPri":10026,"Ġ55":10027,"Ġprod":10028,"Ġalle":10029,"ridge":10030,"centre":10031,"Change":10032,"Ġtokenizer":10033,"Scaler":10034,"bigquery":10035,"Ġsnak":10036,"ĠIDs":10037,"ĠDEF":10038,"Ġdiagonal":10039,"jacency":10040,"EXPAND":10041,"PECTRAL":10042,"+')":10043,":>":10044,"Rank":10045,"hz":10046,"tilt":10047,"Ġrem":10048,"Ġ101":10049,"umath":10050,"contrast":10051,"Ġstim":10052,"Ġxf":10053,"ĠAdd":10054,"ĠCor":10055,"Equals":10056,"statement":10057,"Provider":10058,"ĠKer":10059,"Ġtranslate":10060,"ĊĠĠĠĠĠĠĠĠĠĠĠĠĠĠĠĠĠĠĠĠĠĠĠĠĠĠĠĠĠĠĠĠĠĠĠĠĠĠĠĠĠĠĠĠĠĠĠĠĠĠĠĠĠĠĠĠĠĠĠĠĠĠĠĠĠĠ":10061,"nots":10062,"reduced":10063,"Ġcurrently":10064,"Symbol":10065,"Ġcombinations":10066,"Ġcallbacks":10067,"Ġderived":10068,"Ġtaken":10069,"Structure":10070,"Kernel":10071,"macro":10072,"ACE":10073,"Rd":10074,"din":10075,"éĩ":10076,"ram":10077,"Ġlons":10078,"ĠDT":10079,"DEL":10080,"sgd":10081,"Ġcorpus":10082,"Ġregister":10083,"Ġsymbols":10084,"propag":10085,"Ġ...,":10086,"Maps":10087,"Attention":10088,"('/')[-":10089,"ĠUnit":10090,"Ġetree":10091,",:":10092,":<":10093,"AW":10094,"DC":10095,"Must":10096,"MIT":10097,"SL":10098,"hline":10099,"pops":10100,"tar":10101,"uids":10102,"retri":10103,"stn":10104,"Ġclo":10105,"olver":10106,"Ġmlab":10107,"Ġdsk":10108,"upported":10109,"pyx":10110,"Ġprintt":10111,"DataSet":10112,"Ġdftmp":10113,"Ġprocesses":10114,"forecast":10115,"ango":10116,"vectorize":10117,"SIMPLE":10118,"192":10119,"Learning":10120,"klass":10121,"LIENT":10122,"ynamics":10123,"iteria":10124,"Chunks":10125,"manualOpt":10126,"LAY":10127,"ĠCounter":10128,"Eastern":10129,"Imp":10130,"Vect":10131,"hide":10132,"north":10133,"ru":10134,"inx":10135,"Ġncol":10136,"rounds":10137,"ctest":10138,"het":10139,"coerce":10140,"Ġwf":10141,"Ġstds":10142,"ife":10143,"ubit":10144,"correction":10145,"dft":10146,"buy":10147,"ĠFrame":10148,"noulli":10149,"widths":10150,"ĠReferences":10151,"Ġreading":10152,"generation":10153,"udnn":10154,"ĠStruct":10155,"elemwise":10156,"ĠAxes":10157,"Events":10158,"Begin":10159,"Category":10160,"GO":10161,"]*(":10162,"flight":10163,"ipython":10164,"åĩ":10165,"orange":10166,"Ġnrows":10167,"Ġpers":10168,"elf":10169,"Ġmotor":10170,"Ġnpt":10171,"hable":10172,"resamp":10173,"endpoints":10174,"ĠThere":10175,"comps":10176,"ĠDec":10177,"ĠmodelList":10178,"similar":10179,"Units":10180,"Ġsignificant":10181,"UNK":10182,"Ġtransforms":10183,"Ġ1500":10184,"metal":10185,"stricted":10186,"market":10187,"Distribution":10188,"catalogue":10189,"Ġdistributed":10190,"Quantity":10191,"-')":10192,"Uns":10193,"mX":10194,"sst":10195,"wal":10196,"reci":10197,"ltag":10198,"[':":10199,"Ġgy":10200,"ĠMap":10201,"RED":10202,"dimshuffle":10203,"Noise":10204,"Ġusers":10205,"392":10206,"Boundaries":10207,"Ġcoefficient":10208,"metas":10209,"Ġaffine":10210,"correlate":10211,")<":10212,"RN":10213,"agram":10214,"lrange":10215,"nob":10216,"semi":10217,"inh":10218,"orrow":10219,"rois":10220,"Ġaf":10221,"ully":10222,"outside":10223,"Ġhp":10224,"Ġprops":10225,"wrong":10226,"Convert":10227,"Export":10228,"Bounds":10229,"Ġbinsize":10230,"POST":10231,"Accuracy":10232,"LIST":10233,"Weighted":10234,"install":10235,"Ġwait":10236,"WORK":10237,"Sampler":10238,"Ġsilent":10239,"CATION":10240,"GPS":10241,"Host":10242,"bone":10243,"fwhm":10244,"ired":10245,"lant":10246,"nelec":10247,"uds":10248,"};":10249,"Ġsing":10250,"Ġreferences":10251,"urations":10252,"],\\":10253,"Ġbrick":10254,"codings":10255,"':-":10256,"Ġhandler":10257,"Ġui":10258,"Ġcoll":10259,"iral":10260,"starting":10261,"Ġlet":10262,"Conditions":10263,"ALPHA":10264,"allest":10265,"POSI":10266,"clustering":10267,"Ġ'-'":10268,"Mostra":10269,"Ġcycles":10270,"directional":10271,"Ġticks":10272,"Integer":10273,"Ġaggregate":10274,"Saving":10275,"$'":10276,"BIT":10277,"Gpu":10278,"HW":10279,"Obs":10280,"Red":10281,"gle":10282,"sparsity":10283,"uz":10284,"uit":10285,"xb":10286,"}',":10287,"}))":10288,"inex":10289,"alchemy":10290,"Ġpid":10291,"ople":10292,"omati":10293,"Ġrp":10294,"indexers":10295,"Ġlc":10296,"equality":10297,"agents":10298,"Ġjj":10299,"Const":10300,"STA":10301,"temporal":10302,"documents":10303,"caff":10304,"CTOR":10305,"ensemb":10306,"Entity":10307,"FIX":10308,"Ġinstalled":10309,"Ġmismatch":10310,"freeze":10311,"destroy":10312,"%%%%":10313,"Ġsmaller":10314,"builtin":10315,"---------------+":10316,"sweep":10317,"seas":10318,"ino":10319,"reach":10320,"onential":10321,"stds":10322,"elist":10323,"));":10324,"Ġ[%":10325,"inte":10326,"idy":10327,"atient":10328,"Ġass":10329,"positives":10330,"amber":10331,"Ġhue":10332,"illi":10333,"Ġksize":10334,"shifts":10335,"ĠRep":10336,"foreground":10337,"ceptor":10338,"comments":10339,"ARGET":10340,"rectangle":10341,"ANG":10342,"bldg":10343,"Inputs":10344,"Histogram":10345,"ĠPyQt":10346,"HTML":10347,"Ġmpi":10348,"Ġswitch":10349,"adratic":10350,"COLORS":10351,"Ġshifted":10352,"SparseTensor":10353,"qualifiers":10354,"POINTS":10355,"skeleton":10356,"morphology":10357,"211":10358,"Gamma":10359,"RG":10360,"SCALE":10361,"Ta":10362,"istration":10363,"oct":10364,"qa":10365,"yellow":10366,"onset":10367,"Ġtar":10368,"tiles":10369,"Ġpulse":10370,"');":10371,"Ġxr":10372,"dfs":10373,"Ġencode":10374,"INS":10375,"errorbar":10376,"Ġsubplot":10377,"license":10378,"LOW":10379,"POCH":10380,"criterion":10381,"monthly":10382,"Temporary":10383,"BCast":10384,"Ġregularization":10385,"lasagne":10386,"quilibri":10387,"Cho":10388,"IVE":10389,"RATE":10390,"SB":10391,"ipro":10392,"iqr":10393,"arity":10394,"Ġfre":10395,"queries":10396,"Ġellip":10397,"Ġdistributions":10398,"tack":10399,"maxlen":10400,"ĠSum":10401,"Ġcoco":10402,"irth":10403,"compiled":10404,"Ġkeywords":10405,"Direct":10406,"160":10407,"Ġcolormap":10408,"theme":10409,"{}/":10410,"histor":10411,"weather":10412,"blas":10413,"Ġiterable":10414,"ASS":10415,"FFER":10416,"bandwidth":10417,"ĠStandard":10418,"Checkpoint":10419,"Ġworking":10420,"Ġabc":10421,"Normalize":10422,"ERSPECTRAL":10423,"separation":10424,"accumulator":10425,"ValidationError":10426,"Ġintegers":10427,"teriorElement":10428,"YPERSPECTRAL":10429,"Next":10430,"We":10431,"ddof":10432,"nlevels":10433,"pmf":10434,"vof":10435,"voxels":10436,"yes":10437,"yticklabels":10438,"Ġtre":10439,"tis":10440,"Ġce":10441,"Ġche":10442,"gered":10443,"elapsed":10444,"Ġwv":10445,"setUp":10446,"namespace":10447,"ques":10448,"traction":10449,"corer":10450,"Ġthose":10451,"Ġprog":10452,"lacement":10453,"grouper":10454,"(-(":10455,"Ġreads":10456,"Ġloader":10457,"Ġ'.'":10458,"quantized":10459,"Ġreduced":10460,"Ġbounding":10461,"Ġdiscount":10462,"Ġdenom":10463,"Ġcropped":10464,"deltas":10465,"kernels":10466,"ĠNormal":10467,"=',')":10468,"FC":10469,"Now":10470,"RC":10471,"]+'":10472,"oints":10473,"ptime":10474,"past":10475,"tun":10476,"âĶ":10477,"å®":10478,"Ķ¹":10479,"titions":10480,"atibility":10481,"Ġus":10482,"gravity":10483,"102":10484,"ĠPO":10485,"ĠPAR":10486,"ags":10487,"Ġ[]:":10488,"possible":10489,"REL":10490,"Ġsupplied":10491,"Experiment":10492,"Product":10493,"continuous":10494,"ĠInstance":10495,"pairwise":10496,"Loop":10497,"drawing":10498,"allele":10499,"ĠStart":10500,"corrected":10501,"Ġdaily":10502,"optimizers":10503,"Multiple":10504,"stored":10505,"BatchNorm":10506,"SOURCE":10507,"Ġvia":10508,"BoundaryQuadrature":10509,"FORMAT":10510,"iprows":10511,"\"'":10512,"IAL":10513,"Nested":10514,"PM":10515,"Pandas":10516,"UES":10517,"YPE":10518,"cpp":10519,"rust":10520,"rating":10521,"san":10522,"demo":10523,"Ġiv":10524,"Ġ','":10525,"uter":10526,"Ġinnov":10527,"dify":10528,"Ġreversed":10529,"Ġmgr":10530,"eder":10531,"']})":10532,"Ġec":10533,"logg":10534,"Ġconditions":10535,"Ġoutliers":10536,"ĠMust":10537,"Ġprec":10538,"replay":10539,"Ġstarts":10540,"Ġcomments":10541,"sklearn":10542,"Decoder":10543,"Ġtransformer":10544,"messages":10545,"Ġgoal":10546,"Ġannotation":10547,"Geometry":10548,"activations":10549,"FixedLenFeature":10550,"FIELD":10551,"COLUMN":10552,"375":10553,"Cut":10554,"Che":10555,"Deg":10556,"Scatter":10557,"lang":10558,"more":10559,"sas":10560,"vary":10561,"ysize":10562,"atan":10563,"erred":10564,"Ġmut":10565,"simpli":10566,"Ġ(:":10567,"than":10568,"login":10569,"Ġcomple":10570,"rency":10571,"Ġ44":10572,"''')":10573,"INDEX":10574,"ĠON":10575,"roundtrip":10576,"')).":10577,"Spatial":10578,"Ġrotate":10579,"ttp":10580,"Ġindicates":10581,"ĠDistri":10582,"Ġibis":10583,"Chain":10584,"Fast":10585,"GEN":10586,"Mapping":10587,"SPE":10588,"bow":10589,"gzip":10590,"sfr":10591,"Ġol":10592,"Ġquality":10593,"Ġrecogn":10594,"lig":10595,"quarter":10596,"(\"'":10597,"proxy":10598,"protein":10599,"colls":10600,"Ġ{!":10601,"Ġdelt":10602,"Ġkappa":10603,"ĠPandas":10604,"Ġprotein":10605,"ĠBY":10606,"1111":10607,"Ġaccording":10608,"Parse":10609,"Ġargv":10610,"mathbf":10611,"Ġ100000":10612,"Ġdists":10613,"Ġtopic":10614,"Ġmaps":10615,"squares":10616,"Short":10617,"Ġvariant":10618,"BatchNormalization":10619,"chieved":10620,"ayesian":10621,"Created":10622,"ä»¥":10623,"ĠDescription":10624,"Ġinstrument":10625,"'m":10626,"First":10627,"Other":10628,"Pow":10629,"WW":10630,"jet":10631,"rh":10632,"eng":10633,"lopen":10634,"cean":10635,"rive":10636,"Ġwarm":10637,"igu":10638,"conc":10639,"Ġ:-":10640,"ĠFoo":10641,"())[":10642,"Ġ600":10643,"ĠOption":10644,"Ġspacing":10645,"0000000":10646,"Ġ800":10647,"ĊĠĠĠĠĠĠĠĠĠĠĠĠĠĠĠĠĠĠĠĠĠĠĠĠĠĠĠĠĠĠĠĠĠĠĠĠĠĠĠĠĠĠĠĠĠĠĠĠĠĠĠĠĠĠĠĠĠĠĠĠĠ":10648,"ĠInitial":10649,"Ġ[[[":10650,"Ġloading":10651,"mtree":10652,"ITH":10653,"expanding":10654,"Ġyears":10655,"writerow":10656,"Ġjoblib":10657,"backends":10658,"cleaned":10659,"III":10660,"Ġwrapped":10661,"lanes":10662,"Ċĉĉĉĉĉĉĉĉĉĉ":10663,"Reduce":10664,"lipsoid":10665,"3000":10666,"Pt":10667,"SNP":10668,"]\",":10669,"ctive":10670,"sam":10671,"ux":10672,"race":10673,"lenet":10674,"Ġisna":10675,"cals":10676,"Ġexpec":10677,"axvline":10678,"logdir":10679,"cial":10680,"bert":10681,"ĠfileName":10682,"ĠGLOBAL":10683,"Ġcompress":10684,"closest":10685,"avy":10686,"ARRAY":10687,"ORDER":10688,"ALIGN":10689,"Classes":10690,"Ġ'./":10691,"Loaded":10692,"Ġstrict":10693,"-----------------------------------------------+":10694,"Ġ\"/\"":10695,"ĠPool":10696,"ĠRandomForest":10697,"Ġdigits":10698,"Ġmnist":10699,"Entropy":10700,"VARIABLE":10701,"Both":10702,"EBV":10703,"TV":10704,"Video":10705,"fly":10706,"lvl":10707,"rn":10708,"segs":10709,"rogram":10710,"dialog":10711,"urity":10712,"Ġmult":10713,"uncertainty":10714,"Ġdefinition":10715,"003":10716,"Ġ-.":10717,"sso":10718,"ĠPa":10719,"readonly":10720,"ĠIPython":10721,"registry":10722,"ppage":10723,"2019":10724,"offi":10725,"Positive":10726,"137":10727,"even":10728,"handles":10729,"Ġgenome":10730,"guar":10731,"NAMES":10732,"Ġversionadded":10733,"Interpol":10734,"Ġlikelihood":10735,"Ġcreation":10736,"Ġannotations":10737,"Detector":10738,"autos":10739,"produces":10740,"normed":10741,"increment":10742,"ĠROOT":10743,"ĠLayer":10744,"CUB":10745,"MUL":10746,"RH":10747,"gender":10748,"implement":10749,"Ġ$\\":10750,"Ġfour":10751,"lout":10752,"Ġ(('":10753,"setattr":10754,"concrete":10755,"Ġstorage":10756,"'][:":10757,"Ġgym":10758,"(\"<":10759,"ĠTF":10760,"Ġexcluded":10761,"ĠĠĠĠĠĠĠĠĠĠĠĠĠĠĠĠĠĠĠĠĠĠĠĠ":10762,"virt":10763,"Ġnumerical":10764,"bust":10765,"***":10766,"ysql":10767,"Ġanother":10768,"Ġusecols":10769,"normalizer":10770,"Enable":10771,"SCP":10772,"destination":10773,"ĠTensorFlow":10774,"toolbar":10775,"Buy":10776,"helpers":10777,"Metrics":10778,"modified":10779,"orbitals":10780,"-+":10781,".**(":10782,"BS":10783,"Stim":10784,"bol":10785,"credentials":10786,"finfo":10787,"ko":10788,"mirrored":10789,"uc":10790,"seen":10791,"leave":10792,"Ġfx":10793,"Ġcdf":10794,"omo":10795,"fromstring":10796,"Ġvbox":10797,"pers":10798,"assertGreater":10799,"ilds":10800,"floating":10801,"readout":10802,"ĠDel":10803,"curves":10804,"ĠWindow":10805,"monotonic":10806,"ĠURL":10807,"licity":10808,"Ġ&=":10809,"shifted":10810,"snow":10811,"ugate":10812,"Ġprobabilities":10813,"Build":10814,"derivative":10815,"ĠGeneral":10816,"Transition":10817,"Likelihood":10818,"Clear":10819,"EY":10820,"HIGH":10821,"Ter":10822,"gri":10823,"hn":10824,"xe":10825,"å¤":10826,"Ġlamb":10827,"Ġortho":10828,"atts":10829,"stress":10830,"allt":10831,"Ġcn":10832,"Ġcla":10833,"Ġcval":10834,"itect":10835,"qubit":10836,"ĠTri":10837,"Ġeye":10838,"ĠSign":10839,"usr":10840,"shots":10841,"Ġintensity":10842,"cating":10843,"STD":10844,"pause":10845,"othesis":10846,"radii":10847,"Uniform":10848,"Spline":10849,"fcn":10850,"Nodes":10851,"Ġworkspace":10852,"Vectorizer":10853,"LABEL":10854,"ĠIterable":10855,"Identity":10856,"FRE":10857,"FutureWarning":10858,"NY":10859,"Specifi":10860,"WFN":10861,"nes":10862,"vy":10863,"Ġpat":10864,"Ġclaw":10865,"Ġcudnn":10866,"Ġsleep":10867,"diameter":10868,"Ġbed":10869,"Ġdefine":10870,"zeta":10871,"([[-":10872,"Ġhf":10873,"iling":10874,"Inds":10875,"trading":10876,"ĠSelect":10877,"figures":10878,"cessary":10879,"Ġverts":10880,"checks":10881,"rtol":10882,"monkey":10883,"Ġfaces":10884,"Ġgenes":10885,"Environment":10886,"Ġlatitude":10887,"operators":10888,"SAVE":10889,"USER":10890,"middle":10891,"Ġrenderer":10892,"Regions":10893,"consistent":10894,"chains":10895,"Ġbursts":10896,"guardian":10897,"220":10898,"BW":10899,"Br":10900,"My":10901,"MSE":10902,"WHERE":10903,"ples":10904,"Ġ)),":10905,"ately":10906,"stash":10907,"conditions":10908,"Ġgolden":10909,"floats":10910,"Ġraises":10911,"Ġproba":10912,"ĠLat":10913,"Contain":10914,")]['":10915,"ĠGRO":10916,"refine":10917,"Ġcvx":10918,"notes":10919,"Unless":10920,"Ġlinspace":10921,"Ġfitness":10922,"Ġaround":10923,"Ġoperations":10924,"+\"/":10925,"Blocks":10926,"toolkits":10927,"chanism":10928,"Ġpatches":10929,"Ġresiduals":10930,"RNNCell":10931,"hicle":10932,"WEIGHT":10933,"Ġearly":10934,"officer":10935,"\"},":10936,"\"})":10937,"HD":10938,"Ho":10939,"IF":10940,"IX":10941,"TD":10942,"rst":10943,"tfidf":10944,"Ġfamily":10945,"escape":10946,"Ġao":10947,"getenv":10948,"Ġstderr":10949,"'][:]":10950,"ulus":10951,"linestyle":10952,"strptime":10953,"stanti":10954,"pherical":10955,"DataArray":10956,"moon":10957,"pretty":10958,"__(**":10959,"ĠIS":10960,"ĠFO":10961,"Ġ\\\"":10962,"118":10963,"Ġcomparison":10964,"fitted":10965,"Reading":10966,"Project":10967,"140":10968,"filler":10969,"priv":10970,"atomic":10971,"costs":10972,"BoxLayout":10973,"tracks":10974,"Ġmarkersize":10975,"Targets":10976,"physical":10977,"Ġpenalty":10978,"Ġremaining":10979,"Ġsummaries":10980,"toggle":10981,"!'":10982,"1000000":10983,"CRE":10984,"]\\":10985,"gonal":10986,"kde":10987,"norb":10988,"pages":10989,"tv":10990,"tst":10991,"xsize":10992,"sem":10993,"ences":10994,"Ġtear":10995,"Ġpip":10996,"spud":10997,"testTensorArray":10998,"Ġoutf":10999,"Ġcoinc":11000,"Ġlogs":11001,"Ġenti":11002,"iterrows":11003,"subelement":11004,"Constraint":11005,"boxplot":11006,"theguardian":11007,"manif":11008,"fragment":11009,"THRE":11010,"Mapper":11011,"Ġcalls":11012,"Ġuniverse":11013,"Ġhigher":11014,"TOP":11015,"Configuration":11016,"bonds":11017,"Ġassumed":11018,"CHECK":11019,"Click":11020,"interest":11021,"Ap":11022,"MF":11023,"SN":11024,"_):":11025,"fam":11026,"gw":11027,"growth":11028,"han":11029,"west":11030,"Ġcj":11031,"Ġintr":11032,"Ġsit":11033,"Ġrepre":11034,"sims":11035,"='')":11036,"Ġhdr":11037,"minutes":11038,"shader":11039,"subgraph":11040,"Ġalphas":11041,"Diag":11042,"Remove":11043,"ĠUN":11044,"architect":11045,"Ġruns":11046,"probabilities":11047,"Variables":11048,"CHW":11049,"ibbs":11050,"LOT":11051,"ĠNotA":11052,")**(":11053,"confusion":11054,"Ġ\"\"\",":11055,"constrained":11056,"OLD":11057,"chainer":11058,"NSOR":11059,"Ġsupports":11060,"Rows":11061,"innovations":11062,"Ġbuckets":11063,"Serialize":11064,"/',":11065,"130":11066,"></":11067,"Ops":11068,"pace":11069,"tpu":11070,"vin":11071,"°±":11072,"steri":11073,"sell":11074,"Ġtdi":11075,"Ġcri":11076,"idence":11077,"argwhere":11078,"today":11079,"lots":11080,"Ġconstructor":11081,"Ġrt":11082,"Ġlarger":11083,"colormap":11084,"does":11085,"ĠThese":11086,"localize":11087,"docstring":11088,"unitcell":11089,"handlers":11090,"Ġsimilar":11091,"Ġmyfile":11092,"Ġmisc":11093,"specie":11094,"Neighbors":11095,"CannotContain":11096,"Simulation":11097,"WORD":11098,"cubic":11099,"perfect":11100,"bulk":11101,"ĠindependentData":11102,"omatically":11103,"900":11104,"GUI":11105,"cj":11106,"rations":11107,"twe":11108,"è¡Į":11109,"Ġflo":11110,"anom":11111,"Ġincorrect":11112,"Ġ[['":11113,"Ġgb":11114,"Ġexposure":11115,"ifti":11116,"iface":11117,"osm":11118,"trait":11119,"ĠSize":11120,"Ġkd":11121,"Ġresulting":11122,"ĠNon":11123,"compose":11124,"ARG":11125,"quiet":11126,"Ġtexture":11127,"Ġformatter":11128,"alleli":11129,"FFFF":11130,"Ġroots":11131,"Calc":11132,"Bytes":11133,"failure":11134,"Ġinferred":11135,"itize":11136,"Decay":11137,"ĠSystem":11138,"ivsdin":11139,"ĠGLOBALutils":11140,"/')":11141,"404":11142,"BUT":11143,"Density":11144,"EPOCH":11145,"NCHW":11146,"Pl":11147,"QApplication":11148,"TRI":11149,"`:":11150,"oot":11151,"vo":11152,"}(":11153,"along":11154,"Ġfrozen":11155,"ĠinCoeffs":11156,"Ġ\"*":11157,"hest":11158,"laced":11159,"admin":11160,"Ġhi":11161,"Errors":11162,"minmax":11163,"obi":11164,"ĠCell":11165,"pie":11166,"Ġtraits":11167,"Ġunused":11168,"Ġclone":11169,"neighbour":11170,"dtd":11171,"sound":11172,"Ġavoid":11173,"Ġretval":11174,"epsFact":11175,"Force":11176,"Ġrelation":11177,"Analy":11178,"Ġfactors":11179,"Ġenergies":11180,"Ġclosest":11181,"Ġgrey":11182,"Ġidentity":11183,"LUX":11184,"Ġserialized":11185,"ĠTimedeltaIndex":11186,"cubes":11187,"ĠMonitor":11188,"porosity":11189,"ĠDATA":11190,"ĠtearDown":11191,"Popen":11192,"QLabel":11193,"Tem":11194,"[[\"":11195,"]._":11196,"mot":11197,"pcolor":11198,"iness":11199,"decomposition":11200,"Ġmixed":11201,"Ġ\"`":11202,"extern":11203,"Ġamount":11204,"rical":11205,"isscalar":11206,"concentration":11207,"Ġxc":11208,"Ġvy":11209,"rown":11210,"320":11211,"ĠFi":11212,"Ġattemp":11213,"Ġ{}\\":11214,"regress":11215,"regressor":11216,"vectorization":11217,"olutions":11218,"scaler":11219,"1970":11220,"3600":11221,"DatetimeIndex":11222,"Combo":11223,"actors":11224,"Tags":11225,"hedral":11226,"ĠDeprecationWarning":11227,"(~":11228,")['":11229,"Abs":11230,"BY":11231,"Free":11232,"Lines":11233,"Sizes":11234,"UInt":11235,"bold":11236,"hc":11237,"ku":11238,"plug":11239,"è®":11240,"reversed":11241,"Ġtan":11242,"Ġfj":11243,"Ġdask":11244,"estr":11245,"isinf":11246,"ilho":11247,"ĠSF":11248,"Ġcoverage":11249,"Ġranges":11250,"cylinder":11251,"sense":11252,"classify":11253,"Ġsky":11254,"Trajectory":11255,"ASH":11256,"password":11257,"[:,:,:,":11258,"GRU":11259,"Ġconfusion":11260,"Server":11261,"residue":11262,"avail":11263,"EW":11264,"Mar":11265,"WA":11266,"WK":11267,"dR":11268,"ljust":11269,"night":11270,"vised":11271,"inset":11272,"inertia":11273,"reo":11274,"study":11275,"raft":11276,"Ġfg":11277,"pedia":11278,"loci":11279,"look":11280,"Ġsfreq":11281,"Ġrecurrent":11282,"Ġmenu":11283,"unc":11284,"live":11285,"licated":11286,"Ġwarp":11287,"setLevel":11288,"Ġ224":11289,"ulder":11290,"Ġyp":11291,"\")]),":11292,"Ġvc":11293,"application":11294,"ĠSI":11295,"teff":11296,"Ġorb":11297,"tribution":11298,"materials":11299,"runtime":11300,"Ġpyhrf":11301,"cycles":11302,"})\".":11303,"genotype":11304,"Ġtranslation":11305,"=-.":11306,"cosmics":11307,"extraction":11308,"sidered":11309,"Ġmapper":11310,"Trace":11311,"Ġworkers":11312,"Ġgoogle":11313,"ä¸Ĭ":11314,"Ġposterior":11315,"extensions":11316,"sparent":11317,"wrappers":11318,"planes":11319,"Ġmodified":11320,"DataCacheDictionary":11321,"784314":11322,"urope":11323,"Ġrepresents":11324,"365":11325,"BL":11326,"Vel":11327,"cax":11328,"hue":11329,"jitter":11330,"kur":11331,"wc":11332,"éģ":11333,"sequential":11334,"enf":11335,"enumerate":11336,"Ġsid":11337,"sib":11338,"Ġbits":11339,"Ġbutton":11340,"Ġbrain":11341,"updated":11342,"Ġxds":11343,"ĠTotal":11344,"callable":11345,"ulators":11346,"outliers":11347,"prot":11348,"Inf":11349,"Ġuid":11350,"dirty":11351,"aging":11352,"Ġmaterial":11353,"areas":11354,"rightness":11355,"Ġsuppress":11356,"ivy":11357,"prices":11358,"docvecs":11359,"Tools":11360,"Ġneur":11361,"Ġquant":11362,"bitwise":11363,"Windows":11364,"OPT":11365,"Ġtzinfo":11366,"inferred":11367,"Ġkwds":11368,"Ġdirectly":11369,"AdamOptimizer":11370,"âĶĢ":11371,"chievedException":11372,"ĠNotAchievedException":11373,"ilhoit":11374,"GC":11375,"Scope":11376,"Tk":11377,"far":11378,"rmtree":11379,"ľĭ":11380,"indi":11381,"redshift":11382,"eration":11383,"Ġtrend":11384,"Ġnib":11385,"asanyarray":11386,"Ġpca":11387,"Ġcub":11388,"utt":11389,"dirichlet":11390,"Ġot":11391,"))**":11392,"Ġcons":11393,"Ġconsidered":11394,"Ġkp":11395,"ĠPub":11396,"\"\"\",":11397,"binning":11398,"Steps":11399,"ĠWeight":11400,"pective":11401,"ĠHist":11402,"Ġintersection":11403,"Ġ2010":11404,"Ġglobals":11405,"ä¸ĭ":11406,"Ġimpact":11407,"Document":11408,"SYS":11409,"Ġclick":11410,"ĠInteger":11411,"Ġappropri":11412,"1999":11413,"GLOBAL":11414,"cq":11415,"dw":11416,"jm":11417,"jan":11418,"mjd":11419,"wnd":11420,"åĽ":11421,"recursive":11422,"Ġtex":11423,"Ġnv":11424,"Ġfm":11425,"Ġsda":11426,"))(":11427,"(':":11428,"('@":11429,"quot":11430,"ighest":11431,"Ġgrowth":11432,"Ġexog":11433,"ĠvW":11434,"Ġconti":11435,"Ġhess":11436,"Ġdele":11437,"Ġlanguage":11438,"108":11439,"shards":11440,"Ġbehavior":11441,"STEP":11442,"Standard":11443,"lesky":11444,"heading":11445,"Ġcomputing":11446,"dock":11447,"Ġkern":11448,"transformation":11449,"evt":11450,":`[":11451,"=%(":11452,"assignment":11453,"Ġsentences":11454,"Ġsymmetry":11455,"Corr":11456,"Delete":11457,"æĪĲ":11458,"ĠDEFAULT":11459,"CUBE":11460,"(',":11461,"Annot":11462,"DTYPE":11463,"Face":11464,"TARGET":11465,"][:-":11466,"ama":11467,"fout":11468,"mj":11469,"nh":11470,"Ġnw":11471,"Ġpivot":11472,"abcd":11473,"logo":11474,"Ġdecision":11475,"Ġuuid":11476,"Ġnamespace":11477,"=\"\"\"":11478,"Ġthickness":11479,"Concat":11480,"news":11481,"aker":11482,"Ġrobot":11483,"controls":11484,"Ġbyref":11485,"OpError":11486,"overlay":11487,"limited":11488,"Ġextre":11489,"]=='":11490,"electrode":11491,"cropped":11492,"UBLE":11493,"World":11494,"photo":11495,"moran":11496,"Ġaggregation":11497,"ometries":11498,"Ċĉĉĉĉĉĉĉĉĉ":11499,"Softmax":11500,"VARIABLES":11501,"-{":11502,"=(),":11503,"Bias":11504,"Speed":11505,"_=":11506,"dll":11507,"euclidean":11508,"fli":11509,"nv":11510,"ork":11511,"strom":11512,"Ġslow":11513,"idf":11514,"Ġdag":11515,"__'):":11516,"Ġstatistic":11517,"spmatrix":11518,"colnames":11519,"arities":11520,"Ġufunc":11521,"Ġly":11522,"ĠCLIENT":11523,"undle":11524,"647":11525,"parsed":11526,"bincount":11527,"Streams":11528,"nectivity":11529,"})'.":11530,"Ġexplicit":11531,"ĠHttp":11532,"142":11533,"Ġperf":11534,"ModelIndex":11535,"Ġcandidates":11536,"sessions":11537,"realpath":11538,"ĠZero":11539,"AttributeError":11540,"Ġseeds":11541,"Ġlazy":11542,"Vertices":11543,"Ġcorresponds":11544,"ProtoEquals":11545,"balance":11546,"BM":11547,"Custom":11548,"Dic":11549,"Ep":11550,"Final":11551,"La":11552,"Lower":11553,"RT":11554,"RUN":11555,"UDE":11556,"WT":11557,"bz":11558,"dual":11559,"fri":11560,"hcc":11561,"kill":11562,"nop":11563,"incorrect":11564,"included":11565,"reps":11566,"Ġtax":11567,"tiff":11568,"Ġcbar":11569,"dip":11570,"fiber":11571,"have":11572,"apers":11573,"Ġrd":11574,"Ġrespect":11575,"cats":11576,"nee":11577,"ngl":11578,"Ġtrained":11579,"ppm":11580,"rects":11581,"mlp":11582,"ANT":11583,"populations":11584,"initializers":11585,"Upper":11586,"ficiency":11587,"Ġfinished":11588,"Cursor":11589,"hyperspectral":11590,"Ġchoice":11591,"derived":11592,"Ġgrp":11593,",:,:]":11594,"TIONS":11595,"minibatch":11596,"Imports":11597,"))+((":11598,"Ġminibatch":11599,"Negative":11600,"Ġdjango":11601,"Vectors":11602,"virtual":11603,"hcche":11604,"217":11605,"Cells":11606,"Fraction":11607,"Helper":11608,"PDB":11609,"Ġ(),":11610,"leaves":11611,"Ġplay":11612,"Ġprun":11613,"Ġ'../":11614,"chk":11615,"comes":11616,"Ġga":11617,"Ġeager":11618,"Ġhbox":11619,"ffine":11620,"ĠSource":11621,"Ġkpts":11622,"ĠAB":11623,"Ġtimesteps":11624,"sigs":11625,"Ġpreload":11626,"Ġchan":11627,"Ġminval":11628,"ĠGroup":11629,"REST":11630,"Named":11631,"Ġplotted":11632,"alphabet":11633,"Ġrunner":11634,"relations":11635,"CHAR":11636,"Ġsignals":11637,"Ġplus":11638,"ATIONS":11639,"circuit":11640,"Background":11641,"receiver":11642,"Ġpercentage":11643,"ĠFigureCanvas":11644,"ĠOtherwise":11645,"Big":11646,"Lin":11647,"MT":11648,"Ms":11649,"Mul":11650,"MON":11651,"Null":11652,"PRI":11653,"Sheet":11654,"dom":11655,"hparams":11656,"pseudo":11657,"rjust":11658,"Ġnf":11659,"Ġsink":11660,"cture":11661,"Ġmicro":11662,"unsqueeze":11663,"idle":11664,"Ġsto":11665,"fromfile":11666,"logspace":11667,"Ġdilation":11668,"mole":11669,"subj":11670,"ndcg":11671,"Ġ65":11672,"]]])":11673,"polynomial":11674,"Positions":11675,"ĠVer":11676,"AGENT":11677,"Ġcentroid":11678,"Ġscales":11679,"Outputs":11680,"Ġoptimal":11681,"BUFFER":11682,"Ġstacklevel":11683,"Ġsaving":11684,"Ġcircle":11685,"Location":11686,"MessageBox":11687,"Ġsharex":11688,";\\":11689,"Ca":11690,"Car":11691,"NIST":11692,"edi":11693,"farray":11694,"ivar":11695,"ncols":11696,"uzz":11697,"Ġnlt":11698,"Ġpic":11699,"Ġinference":11700,"Ġindicator":11701,"Ġske":11702,"dation":11703,"Ġmer":11704,"__:":11705,"issparse":11706,"spot":11707,"Ġ37":11708,"addItem":11709,"ĠDef":11710,"Ġattn":11711,"Ġanalog":11712,"Ġsubsample":11713,"Exit":11714,"Examples":11715,"Ġcalibration":11716,"ANY":11717,"Classification":11718,"RAM":11719,"Chart":11720,"Texture":11721,"Ġprimary":11722,"Ġdatum":11723,"Ġcreates":11724,"AssertionError":11725,"Ġlstm":11726,"ĠTransform":11727,"RANGE":11728,"CUDA":11729,"architecture":11730,"667":11731,"Gene":11732,"_',":11733,"cand":11734,"eos":11735,"fortran":11736,"jpeg":11737,"inel":11738,"ernoulli":11739,"Ġturn":11740,"Ġfmin":11741,"Ġcai":11742,"ito":11743,"Ġmk":11744,"quake":11745,"upsample":11746,"imwrite":11747,"provider":11748,"Ġdip":11749,"Ġdirs":11750,"Inside":11751,"ĠSup":11752,"msgs":11753,"vir":11754,"Ġlbl":11755,"Ġenum":11756,"ĠGR":11757,"ĠOver":11758,"ReLU":11759,"Progress":11760,"Setup":11761,"COM":11762,"Ġobjs":11763,"Ġbasestring":11764,"keepdims":11765,"capital":11766,"traceback":11767,"Adapter":11768,"Ġpooling":11769,"waitKey":11770,"failUnless":11771,"Ġtkinter":11772,"Ġcatalog":11773,"allowed":11774,"Ġquantity":11775,"Parent":11776,"Integral":11777,"sliced":11778,"Particle":11779,"Finished":11780,"Bottom":11781,"ĠENERGY":11782,"212":11783,"350":11784,"=\\":11785,"gates":11786,"gau":11787,"paper":11788,"wide":11789,"}\",":11790,"å¸":11791,"åį":11792,"æİ":11793,"atypes":11794,"stone":11795,"arman":11796,"Ġims":11797,"rob":11798,"rops":11799,"laci":11800,"__\",":11801,"thin":11802,"isChecked":11803,"Ġstellar":11804,"labs":11805,"ĠĠĠĠĠĠĠĠĠĠĠĠĠĠĠĠĠĠĠ":11806,"Ġrss":11807,"Ġ:].":11808,"ders":11809,"Ġdecoded":11810,"ĠStop":11811,"Ġradi":11812,"precip":11813,"pretrained":11814,"sumo":11815,"ĠDim":11816,"Ġmaxlen":11817,"Ġindexed":11818,"Ġclas":11819,"timing":11820,"tempdir":11821,"ROP":11822,"Ġmouse":11823,"Ġblocking":11824,"coefficient":11825,"hydro":11826,"recarray":11827,"TIC":11828,"commands":11829,"Ġworks":11830,"Ġlongitude":11831,"NUMBER":11832,"Correct":11833,"Ġflush":11834,"medium":11835,"activate":11836,"attentions":11837,"rupt":11838,"Audio":11839,"ĠMesh":11840,"CB":11841,"FLUX":11842,"Ret":11843,"fabs":11844,"hm":11845,"meri":11846,"vh":11847,"yz":11848,"æĹ":11849,"Ġ=\",":11850,"Ġfine":11851,"Ġfocus":11852,"Ġsvm":11853,"),)":11854,"rist":11855,"opacity":11856,"igra":11857,"Ġstress":11858,"labelsize":11859,"ĠSpecifi":11860,"obar":11861,"ĠCPU":11862,"015":11863,"ĠRender":11864,"ĠND":11865,"latency":11866,"Ġunstacked":11867,"Ġfloats":11868,"165":11869,"ĠUp":11870,"Ġinterpre":11871,"ĠReal":11872,"versions":11873,"Ġinitialized":11874,"Ġgeneric":11875,"extras":11876,"874":11877,"Plots":11878,"Ġinterest":11879,"Ġpipe":11880,"ikes":11881,"Ġsurvey":11882,"untimeWarning":11883,"Ġtracks":11884,"smoothing":11885,"guide":11886,"ĠCompute":11887,"Trial":11888,"FAIL":11889,"directed":11890,"Ġidentifier":11891,"Ġautomatically":11892,"Ġmiddle":11893,"Abstract":11894,"received":11895,"stochastic":11896,"residues":11897,"Ġspike":11898,"Ndarray":11899,"deprecation":11900,")$":11901,"-_":11902,"ACT":11903,"_()":11904,"ah":11905,"fnames":11906,"gens":11907,"tell":11908,"xscale":11909,"}:":11910,"restraints":11911,"receptor":11912,"altitude":11913,"Ġtod":11914,"Ġ'..":11915,"lid":11916,"quote":11917,"spl":11918,"Ġvm":11919,"logistic":11920,"acle":11921,"327":11922,"scroll":11923,"Ġlogg":11924,"fno":11925,"primitive":11926,"Ġorders":11927,"Ġgroupby":11928,"MASK":11929,"ameras":11930,"LogUw":11931,"skipif":11932,"Ġplant":11933,"certain":11934,"NOT":11935,"Ġpairwise":11936,"Assign":11937,"MaskedArray":11938,"Sym":11939,"lwc":11940,"ĠPrediction":11941,"jectories":11942,"+'/'+":11943,"ĠLeft":11944,"Root":11945,"225":11946,"Find":11947,"FIN":11948,"HDF":11949,"Term":11950,"eN":11951,"lator":11952,"nsteps":11953,"xpos":11954,"za":11955,"arcs":11956,"Ġnh":11957,"Ġpalette":11958,"urls":11959,"())))":11960,"Ġwater":11961,"00000":11962,"Ġxt":11963,"Ġgg":11964,"\")],":11965,"Ġei":11966,"ifft":11967,"assertProtoEquals":11968,"scheme":11969,"Ġ51":11970,"ĠLib":11971,"ropic":11972,"localhost":11973,"Ġperformed":11974,"Ġpermutations":11975,"gru":11976,"bottleneck":11977,"FIL":11978,"initions":11979,"Ġmessages":11980,"dygraph":11981,"ĠForest":11982,"toolButton":11983,"Builder":11984,"Ġassigned":11985,"HEIGHT":11986,"Polygon":11987,"written":11988,"specified":11989,"triggered":11990,"(`":11991,":]]":11992,"FOL":11993,"HA":11994,"It":11995,"PCA":11996,"`):":11997,"cence":11998,"dti":11999,"pileup":12000,"Ġctype":12001,"Ġsam":12002,"lift":12003,"coarse":12004,"('>":12005,"thers":12006,"tero":12007,"\")(":12008,"Ġequivalent":12009,"touch":12010,"persist":12011,"Ġtower":12012,"triangle":12013,"[\"_":12014,"company":12015,"ĠDB":12016,"ĠDet":12017,"ĠForm":12018,"nnz":12019,"Ġskiprows":12020,"Ġidxs":12021,"Ġpersist":12022,"Ġtexts":12023,"Ġformats":12024,"username":12025,"Ġfiltering":12026,"Lock":12027,"integration":12028,"FIFF":12029,"MaxPool":12030,"chosen":12031,"Apply":12032,"Ġfragment":12033,"nominal":12034,"LABELS":12035,"LSTMCell":12036,"Hyper":12037,"TEXTURE":12038,"Original":12039,"ĠSortImports":12040,"?',":12041,"AST":12042,"]>":12043,"dk":12044,"fgraph":12045,"nk":12046,"nlp":12047,"rw":12048,"uf":12049,"yerr":12050,"yaw":12051,"atm":12052,"rez":12053,"stand":12054,"Ġttk":12055,"Ġbra":12056,"calendar":12057,"ĠĠĠĠĠĠĠĠĠĠĠĠĠĠĠĠĠĠ":12058,"importances":12059,"procal":12060,"keyword":12061,"ĠSingle":12062,"ĠNE":12063,"ĠNx":12064,"Ġzm":12065,"latin":12066,"ĠEstim":12067,"])).":12068,"filterwarnings":12069,"normals":12070,"openml":12071,"Ġlinks":12072,"shares":12073,"warns":12074,"ĠAnalysis":12075,"CONT":12076,"PROTO":12077,"ĠClass":12078,"1990":12079,"uclid":12080,"ĠMethod":12081,"blend":12082,"ĠSoft":12083,"iguous":12084,")[::-":12085,"BF":12086,"Pr":12087,"dB":12088,"euler":12089,"frozen":12090,"fingerprint":12091,"kx":12092,"lv":12093,"oy":12094,"ood":12095,"Ġrename":12096,"()+":12097,"abund":12098,"Ġgm":12099,"ĠTR":12100,"Ġconsole":12101,"odd":12102,"Ġdecor":12103,"tered":12104,"ciation":12105,"Ġlang":12106,"triple":12107,"017":12108,"ĠMan":12109,"reading":12110,"ips":12111,"Ġmaxiter":12112,"Ġuntil":12113,"nans":12114,"fixtures":12115,"ORD":12116,"SED":12117,"Ġcombo":12118,"Ġcalendar":12119,"Ġpermutation":12120,"cancel":12121,"universe":12122,"legal":12123,"idated":12124,"stopping":12125,"Ġfitting":12126,"buffers":12127,"Ġtrials":12128,"Ġchunksize":12129,"ColumnName":12130,"Interface":12131,"visit":12132,"months":12133,"hdfs":12134,"periodic":12135,"Ġtech":12136,"Ġmeasurements":12137,"Ġsquared":12138,"ĠLoad":12139,"dvb":12140,"consolidate":12141,"âĶĢâĶĢ":12142,">\",":12143,"birth":12144,"cifar":12145,"east":12146,"ratios":12147,"ãģ":12148,"aring":12149,"dem":12150,"Ġndims":12151,"Ġpng":12152,"locale":12153,"Ġmlp":12154,"sio":12155,"Ġ09":12156,"rance":12157,"eto":12158,"Ġequation":12159,"saving":12160,"trap":12161,"[:,:":12162,"annual":12163,"tfr":12164,"intern":12165,"needed":12166,"Ġcontroller":12167,"135":12168,"Ġregular":12169,"cellation":12170,"whit":12171,"Ġqubit":12172,"Ġgeneral":12173,"alleles":12174,"LineEdit":12175,"Ġnbt":12176,"postprocess":12177,"Ġdestination":12178,"serialized":12179,"sqlite":12180,"slide":12181,"Starting":12182,"Ġ'{:":12183,"Ġhyp":12184,"Ġfastpath":12185,"upyter":12186,"FontSize":12187,"Ġmeasures":12188,"SpinBox":12189,"PushButton":12190,"ä¾Ĩ":12191,"ensembles":12192,"obilenet":12193,"Cone":12194,"Page":12195,"Token":12196,"lnp":12197,"rss":12198,"inge":12199,"inomial":12200,"mel":12201,"Ġcard":12202,"Ġcupy":12203,"Ġini":12204,"Ġsched":12205,"getProperty":12206,"']-":12207,"Ġgive":12208,"spam":12209,"ffset":12210,"arizer":12211,"106":12212,"mov":12213,"ĠPCA":12214,"Ġpretrained":12215,"ĠLab":12216,"ERARCH":12217,"Ġpole":12218,"','--":12219,"RENT":12220,"Ġplotaxes":12221,"Ġshp":12222,"Ġsubok":12223,"errstate":12224,"ĠVar":12225,"Projection":12226,"ĊĠĠĠĠĠĠĠĠĠĠĠĠĠĠĠĠĠĠĠĠĠĠĠĠĠĠĠĠĠĠĠĠĠĠĠĠĠĠĠĠĠĠĠĠĠĠĠĠĠĠĠĠĠĠĠĠĠĠĠĠĠĠ":12227,"333":12228,"Ġqubits":12229,"Ġtopology":12230,"survey":12231,"airflow":12232,"finish":12233,"Ġpredictor":12234,"Ġpadded":12235,"Ġclustering":12236,"Ġ2016":12237,"voltage":12238,"Ġhex":12239,"Ġtracking":12240,"male":12241,"Ġpriority":12242,"HIERARCH":12243,"pnl":12244,"Pipeline":12245,"accumulate":12246,"visualize":12247,"needs":12248,"Ġauthor":12249,"pearson":12250,"Ġintegration":12251,"ĠCFG":12252,"CENTER":12253,"=(\"":12254,"Basis":12255,"Cs":12256,"Mark":12257,"Pattern":12258,"bboxes":12259,"patterns":12260,"zi":12261,"stft":12262,"ern":12263,"anim":12264,"Ġpmt":12265,"Ġsqueeze":12266,"diab":12267,"Ġrewards":12268,"Ġbpy":12269,"party":12270,"apse":12271,"aming":12272,"Ġgas":12273,"='+":12274,"Ġ3000":12275,"redraw":12276,"tshift":12277,"Ġ41":12278,"eriors":12279,"compression":12280,"Ġtimeit":12281,"ĠBlock":12282,"ĠOper":12283,"dog":12284,"Rece":12285,"Ġshadow":12286,"monoms":12287,"ĠVAL":12288,"ĠVersion":12289,"topk":12290,"uffled":12291,"MPI":12292,"Ġbasename":12293,"Ġtriangle":12294,"highlight":12295,"negatives":12296,"ferred":12297,"Ġchoose":12298,"ĠArgument":12299,"Ġtruncated":12300,"arithmetic":12301,"Photo":12302,"retrieve":12303,"'\")":12304,"230":12305,"Dock":12306,"LC":12307,"Sent":12308,"XML":12309,"bys":12310,"fancy":12311,"horiz":12312,"mcmc":12313,"srs":12314,"zh":12315,"ĠValidationError":12316,"ining":12317,"reason":12318,"Ġcsc":12319,"rove":12320,"lapping":12321,"Ġbm":12322,"idual":12323,"Ġforest":12324,"atience":12325,"lence":12326,"ably":12327,"']+":12328,"(\":\")":12329,"ĠTI":12330,"verses":12331,"Ġeb":12332,"permutations":12333,"Ġ39":12334,"minate":12335,"Ġthr":12336,"ĠRMS":12337,"Ġproper":12338,"framebuffer":12339,"__(*":12340,"ĠFa":12341,"INIT":12342,"batchnorm":12343,"ERO":12344,"Ġ\"\"\"\\":12345,"expm":12346,"repres":12347,"Ġonce":12348,"systems":12349,"Ġcompiled":12350,"Proj":12351,"Ġcalib":12352,"048":12353,"\"]).":12354,"Ġbinbounds":12355,"vsone":12356,"Ġfitted":12357,"Ġsavefig":12358,"Ġscene":12359,"Elect":12360,"Ġstatsmodels":12361,"contourf":12362,"Mouse":12363,"Edges":12364,"Descript":12365,"Coordinate":12366,"Ġcgutils":12367,"NetworkCode":12368,"member":12369,"RegisterShape":12370,"ĠMaximum":12371,"Scene":12372,"CLASS":12373,"EEG":12374,"assertNotEqual":12375,"éĢĻ":12376,"ĠGeneric":12377,"Contours":12378,"TemporaryFile":12379,"MULTI":12380,"sibly":12381,"certainties":12382,"DP":12383,"Dot":12384,"Li":12385,"Should":12386,"Unp":12387,"]<":12388,"_{}'.":12389,"cone":12390,"ngrams":12391,"pore":12392,"tg":12393,"uation":12394,"watch":12395,"Ġjo":12396,"stal":12397,"eros":12398,"enrichment":12399,"Ġfact":12400,"Ġclim":12401,"Ġinvert":12402,"Ġsnr":12403,"ctr":12404,"Ġmdc":12405,"Ġ\"\".":12406,"Ġdash":12407,"]);":12408,"thar":12409,"Ġconsider":12410,"Ġrdd":12411,"ĠDI":12412,"ĠField":12413,"LED":12414,"REC":12415,"grids":12416,"Board":12417,"Ġrandomly":12418,"blur":12419,"simulate":12420,"Ġlogeta":12421,"Ġtmpdir":12422,"276":12423,"Ġ'%.":12424,"tracking":12425,"cumulative":12426,"transitions":12427,"Runner":12428,"measured":12429,"Ġtape":12430,"Ġannotate":12431,"Ġfailure":12432,"ĠLogisticRegression":12433,"calculation":12434,"vanced":12435,"recognized":12436,"scratch":12437,"ĠDecimal":12438,"PROTOCOL":12439,"+\\":12440,"Syn":12441,"bem":12442,"language":12443,"nbytes":12444,"pval":12445,"pinv":12446,"}),":12447,"æī":12448,"sea":12449,"restart":12450,"tide":12451,"()/":12452,"Ġbus":12453,"that":12454,"namedtuple":12455,"Ġstudy":12456,"Ġxgb":12457,"Ġetypes":12458,"Ġhop":12459,"Ġdiscriminator":12460,"performance":12461,"Ġcolls":12462,"Ġ)[":12463,"ĠRob":12464,"classname":12465,"ĠMark":12466,"())]":12467,"iteral":12468,"submission":12469,"Ġtraces":12470,"Ġpoisson":12471,"Ġminim":12472,"ĠGradient":12473,"nost":12474,"bye":12475,"MEG":12476,"ListEqual":12477,"bijector":12478,"aught":12479,"Ġends":12480,"strain":12481,"multiarray":12482,"2006":12483,"Ġneural":12484,"elementBoundary":12485,"Ġsimulate":12486,"integral":12487,"Ġlibraries":12488,"Ġcodecs":12489,"LIP":12490,"letters":12491,"Ġboundaries":12492,"Generation":12493,"Ġcharacters":12494,"assertIsNot":12495,"Ġsnap":12496,"Definition":12497,"Ġrisk":12498,"Ġautos":12499,"Ġdependency":12500,"remaining":12501,"Ġreceived":12502,"mosaic":12503,"Unsupported":12504,"\"$":12505,"Cp":12506,"DG":12507,"GitHub":12508,"Patch":12509,"Press":12510,"Visual":12511,"[%":12512,"ays":12513,"fpt":12514,"flex":12515,"gold":12516,"nw":12517,"ttest":12518,"onoi":12519,"Ġcha":12520,"ctag":12521,"definition":12522,"Ġdk":12523,"setp":12524,"dss":12525,"ects":12526,"Ġ38":12527,"Ġorbit":12528,"ĠAtom":12529,"foobar":12530,"ĠMode":12531,"\"]=":12532,"ĠFit":12533,"phases":12534,"ĠBasic":12535,"{}\\":12536,"bib":12537,"Ġdocs":12538,"totals":12539,"canonical":12540,"multiindex":12541,"+'\\":12542,"807":12543,"kwarg":12544,"ĠStation":12545,"Fail":12546,"visor":12547,"slippage":12548,"BACK":12549,"assertIsNone":12550,"ĠNameError":12551,"Ġdocumentation":12552,"++++":12553,"Ġcoeffs":12554,"Slider":12555,"EVENT":12556,"effects":12557,"remainder":12558,"Rotation":12559,"servoir":12560,"æķ°":12561,"caffe":12562,"/\")":12563,"294":12564,"CN":12565,"Did":12566,"Game":12567,"Ps":12568,"Sensor":12569,"[\\":12570,"dV":12571,"dl":12572,"dry":12573,"fci":12574,"gcf":12575,"qid":12576,"xavier":12577,"Ġfully":12578,"Ġothers":12579,"Ġ1000000":12580,"uman":12581,"additional":12582,"atified":12583,"008":12584,"Ġste":12585,"Ġyt":12586,"coli":12587,"Inverse":12588,"ĠShape":12589,"Ġkf":12590,"ĠCSV":12591,"Ġensemb":12592,"Ġatt":12593,"interaction":12594,"00001":12595,"Colors":12596,"multiprocessing":12597,"truediv":12598,"Ġinitialization":12599,"170":12600,"overall":12601,"assertRaisesOpError":12602,"Seed":12603,"ĠConstant":12604,"placeholders":12605,"Ġweak":12606,"RITE":12607,"chroms":12608,"constrain":12609,"Calculate":12610,"Writing":12611,"ymgal":12612,"VICE":12613,"THRESH":12614,".]],":12615,"After":12616,"Cases":12617,"Ha":12618,"Handle":12619,"MAT":12620,"Psi":12621,"Week":12622,"`).":12623,"fused":12624,"ja":12625,"lite":12626,"mann":12627,"xz":12628,"Ġ=\\":12629,"ara":12630,"Ġpb":12631,"Ġ'>":12632,"))).":12633,"otstrap":12634,"velope":12635,"Ġgw":12636,"='/":12637,"sprop":12638,"addr":12639,"focal":12640,"usal":12641,"phen":12642,"fee":12643,"ĠMass":12644,"\"]):":12645,"izations":12646,"Ġ['',":12647,"coming":12648,"Extension":12649,"Ġdistutils":12650,"Feed":12651,"downsample":12652,"Ġsoup":12653,"transport":12654,"tablename":12655,"Ġ2015":12656,"RateMap":12657,"Ġaligned":12658,"Ġextracted":12659,"Ġquantized":12660,"Streamer":12661,"Creating":12662,"velocities":12663,"Capture":12664,"Ġflattened":12665,"Unicode":12666,"Ġnormed":12667,"Ġmembers":12668,"FILTER":12669,".-":12670,"/{":12671,"597":12672,"588":12673,"AIN":12674,"KP":12675,"Ma":12676,"SQ":12677,"git":12678,"ggest":12679,"ities":12680,"mirror":12681,"nf":12682,"pin":12683,"well":12684,"åľ":12685,"Ġlock":12686,"recording":12687,"Ġtparams":12688,"Ġnear":12689,"Ġmoment":12690,"Ġnpts":12691,"randed":12692,"rescale":12693,"argpartition":12694,"parity":12695,"Ġrn":12696,"ĠAp":12697,"107":12698,"Ġ49":12699,"640":12700,"ĠBox":12701,"ĠBATCH":12702,"Store":12703,"Ġclassifi":12704,"Ġlabelsize":12705,"emale":12706,"popt":12707,"portfolio":12708,"rslt":12709,"Ġquit":12710,"Ġ','.":12711,"Ġlatent":12712,"Ġndmin":12713,"fluxes":12714,"Transpose":12715,"xxx":12716,"communic":12717,"away":12718,"atistical":12719,"affinity":12720,"Depend":12721,"Rectangle":12722,"Ġchanges":12723,"ĠBool":12724,"ascending":12725,"Ġtruncate":12726,"Measurement":12727,"Ġsvd":12728,"sumexp":12729,",)),":12730,"AU":12731,"Eager":12732,"FWHM":12733,"Pub":12734,"Pressure":12735,"Spi":12736,"VIS":12737,"][:]":12738,"hop":12739,"hhs":12740,"oob":12741,"pprint":12742,"wins":12743,"ytables":12744,"{\"":12745,"stm":12746,"ley":12747,"animation":12748,"loth":12749,"intrin":12750,"upling":12751,"Ġstamp":12752,"(\".\")":12753,"ĠTC":12754,"Ġ%%":12755,"umprod":12756,"tru":12757,"cio":12758,"mats":12759,"324":12760,"ĠNULL":12761,"pointwise":12762,"submit":12763,"Ġprep":12764,"ĠLa":12765,"Ġminutes":12766,"LEN":12767,":]):":12768,"Ġinteraction":12769,"SEED":12770,"ĠExp":12771,"Ġhaving":12772,"ntax":12773,"embeds":12774,"Ġgraphs":12775,"mming":12776,"DOF":12777,"Quad":12778,"ConfigProto":12779,"critic":12780,"scriptors":12781,"dependency":12782,"ĊĠĠĠĠĠĠĠĠĠĠĠĠĠĠĠĠĠĠĠĠĠĠĠĠĠĠĠĠĠĠĠĠĠĠĠĠĠĠĠĠĠĠĠĠĠĠĠĠĠĠĠĠĠĠĠĠĠĠĠĠĠĠĠĠĠĠĠĠĠĠĠĠĠĠĠĠĠĠĠ":12783,"Ġfinish":12784,"Ġbottleneck":12785,"AXIS":12786,"ĠClassifier":12787,"Working":12788,"Representation":12789,"Ġindicating":12790,"MetadataColumn":12791,"decorators":12792,"Wavelength":12793,"Ġactivations":12794,"divisions":12795,"plugins":12796,"'d":12797,".]),":12798,"175":12799,"?\\":12800,"MAR":12801,"jr":12802,"lum":12803,"stroke":12804,"dee":12805,"Ġnside":12806,"Ġfall":12807,"Ġfac":12808,"loops":12809,"utls":12810,"Ġspark":12811,"Ġrev":12812,"Ġder":12813,"ransport":12814,"Ġwall":12815,"Ġwind":12816,"seterr":12817,"fromarray":12818,"='_":12819,"Ġdivide":12820,"maxes":12821,"ĠAu":12822,"Ġlgb":12823,"forces":12824,"ordinal":12825,"ĠDoc":12826,"polar":12827,"ĠHow":12828,"nsrc":12829,"ĊĠĠĠĠĠĠĠĠĠĠĠĠĠĠĠĠĠĠĠĠĠĠĠĠĠĠĠĠĠĠĠĠĠĠĠĠĠĠĠĠĠĠĠĠĠĠĠĠĠĠĠĠĠĠĠĠĠĠĠĠĠĠĠ":12830,"serving":12831,"AllAtoms":12832,"Numeric":12833,"ccd":12834,"Ġgeneration":12835,"Theta":12836,"Ġtrig":12837,"ekf":12838,"Ġallows":12839,"fetchall":12840,"Ġestimation":12841,"monitoring":12842,"Ġmodify":12843,"Ġincrement":12844,"ĠFIFF":12845,"LEVEL":12846,"Learner":12847,"seasons":12848,"Descriptor":12849,"4000":12850,"Bins":12851,"Female":12852,"GER":12853,"Hi":12854,"OIN":12855,"RAT":12856,"Used":12857,"bgr":12858,"dos":12859,"hkl":12860,"pnt":12861,"tvec":12862,"vview":12863,"Ð°":12864,"è¿":12865,"retry":12866,"reconstruct":12867,"stime":12868,"ansion":12869,"itc":12870,"Ġints":12871,"Ġmse":12872,"unct":12873,"Ġ\"\":":12874,"third":12875,"Ġxarray":12876,"aths":12877,"Ġexternal":12878,"ims":12879,"logpdf":12880,"Ġrules":12881,"ured":12882,"Ġlens":12883,"Ġkm":12884,"obel":12885,"vides":12886,"=\"\")":12887,"preload":12888,"Ġraised":12889,"compact":12890,"ĠDensity":12891,"ĠDRAW":12892,"startdate":12893,"printoptions":12894,"binomial":12895,")]])":12896,"Ġminimize":12897,"lobj":12898,"Ġcontrols":12899,"aud":12900,"weak":12901,"Ġpercentile":12902,"134":12903,"Ġformatted":12904,"GetOutput":12905,"Ġarm":12906,"Shapes":12907,"DOUBLE":12908,"protocol":12909,"Ġmagic":12910,"Ġalgos":12911,"Ġcreating":12912,"smoothed":12913,"Ġgreen":12914,"When":12915,"converged":12916,"accepted":12917,"mavlink":12918,"Ġarticle":12919,"Ġdelayed":12920,"Ġtoolbox":12921,"=',',":12922,"Ġhandles":12923,"cebqe":12924,"Circle":12925,"Legend":12926,"ĠGROUP":12927,"ĠLibrary":12928,"301":12929,"Chem":12930,"Help":12931,"Qwt":12932,"dna":12933,"lk":12934,"mysql":12935,"odic":12936,"prom":12937,"pvalue":12938,"tiny":12939,"uge":12940,"vp":12941,"zfill":12942,"recurrent":12943,"stab":12944,"Ġnl":12945,"rome":12946,"Ġmutation":12947,"mags":12948,"Ġbx":12949,"cool":12950,"adv":12951,"Ġ+\\":12952,"Ġ+------------------------":12953,"])-":12954,"']/":12955,"Ġhome":12956,"Ġdetail":12957,"redge":12958,"109":12959,"prefetch":12960,"agb":12961,"icity":12962,"Ġ{}.'.":12963,"STATE":12964,"Ġgravity":12965,"Ġvery":12966,"pared":12967,"Ġexponent":12968,"Parallel":12969,"biased":12970,"soma":12971,"147":12972,"TEN":12973,"Ġupload":12974,"ongo":12975,"Ġoverride":12976,"BoxSizer":12977,"Ġtrim":12978,"inities":12979,"Modi":12980,"Ġdetector":12981,"Trainer":12982,"Ġconvergence":12983,"writeto":12984,"OBJECT":12985,"Ġartifact":12986,"---------------------------------------------------------------------------------------------------------------+":12987,"Waiting":12988,"Ġindividuals":12989,"Stock":12990,"Ġassoc":12991,"-+---------------------------------------------------------------------------------------------------------------+":12992,"Ġ+-------------------------+---------------------------------------------------------------------------------------------------------------+":12993,"$\",":12994,")`.":12995,"/\",":12996,"BIG":12997,"Clean":12998,"KFold":12999,"Rob":13000,"Sky":13001,"Util":13002,"dbl":13003,"}%":13004,"¥½":13005,"æĢ":13006,"tively":13007,"Ġfused":13008,"Ġrelu":13009,"sizer":13010,"Ġ[.":13011,"Ġ*,":13012,"apl":13013,"ĠTop":13014,"([.":13015,"tostring":13016,"loglog":13017,"Ġ3600":13018,"ĠScalar":13019,"Ġlm":13020,"Ġlv":13021,"Ġenough":13022,"weighting":13023,"ATTR":13024,"ĠBe":13025,"notify":13026,"Ġcompile":13027,"Indexer":13028,"Ġqc":13029,"Ġaccount":13030,"thetic":13031,"Problem":13032,"ADD":13033,"LIC":13034,"Additional":13035,"losure":13036,"Assert":13037,"Ġtiles":13038,"Prior":13039,"Primary":13040,"ĠDictionary":13041,"preprocessor":13042,"Fluxs":13043,"Evaluator":13044,"Ġhours":13045,"Integration":13046,"=======":13047,"392157":13048,"lothNode":13049,"*'":13050,"Ny":13051,"NULL":13052,"Round":13053,"SGD":13054,"There":13055,"clist":13056,"dtr":13057,"players":13058,"wmt":13059,"çľĭ":13060,"stdev":13061,"arth":13062,"enqueue":13063,"decals":13064,"Ġtn":13065,"Ġcand":13066,"divergence":13067,"oll":13068,"Ġdual":13069,"setWindow":13070,"isotopes":13071,"Ġgfile":13072,"Ġydata":13073,"tosis":13074,"filelist":13075,"Ġtoks":13076,"epi":13077,"csd":13078,"compos":13079,"Ġattach":13080,"ĠLength":13081,"ĠLSTM":13082,"Ġobtain":13083,"etah":13084,"Ġinteractions":13085,"ĠKs":13086,"nsm":13087,"039":13088,"when":13089,"Ġmultiarray":13090,"executable":13091,"Ġnetworkx":13092,"Objects":13093,"decoded":13094,"ified":13095,"ï¼ģ":13096,"PROP":13097,"AAA":13098,"orescence":13099,"Connected":13100,"Ġproduce":13101,"RESULT":13102,"stitution":13103,"ĠTODO":13104,"POSITION":13105,"Ġcairo":13106,"\"$\\":13107,"Ground":13108,"PV":13109,"Sys":13110,"TK":13111,"Try":13112,"VA":13113,"fficient":13114,"xa":13115,"reload":13116,"deviation":13117,"detections":13118,"Ġtim":13119,"Ġipython":13120,"Ġfdi":13121,"Ġpure":13122,"editor":13123,"datadir":13124,"lict":13125,"Ġwfn":13126,"setChecked":13127,"through":13128,"quadrature":13129,"resolve":13130,"axy":13131,"axhline":13132,"spi":13133,"------":13134,"Ġrsp":13135,"istered":13136,"mber":13137,"ĠAuto":13138,"ĠPh":13139,"Ġsections":13140,"feh":13141,"jects":13142,"matology":13143,".,-":13144,"Ġgetmask":13145,"transfer":13146,"luon":13147,"Ġimageio":13148,"','-":13149,"ategies":13150,"checked":13151,"DESC":13152,"dots":13153,"ALT":13154,"skel":13155,"139":13156,"aive":13157,"Ġdocstring":13158,"chunksize":13159,"Ġ2014":13160,"measurements":13161,"TRAN":13162,"Ġdisabled":13163,"Ġcombiner":13164,"basicConfig":13165,"Ġdeterministic":13166,"ĠCalcul":13167,"ĠCallable":13168,"Tracker":13169,"Ġdependencies":13170,"integrator":13171,"SearchCV":13172,"(\",\")":13173,"ĠCurrent":13174,"HORIZ":13175,"ĠSignal":13176,"132":13177,"215":13178,"Blue":13179,"Cos":13180,"Mn":13181,"Phase":13182,"[]":13183,"gmail":13184,"uk":13185,"xor":13186,"Ġä¹":13187,"recomm":13188,"tips":13189,"Ġpur":13190,"Ġcax":13191,"Ġckpt":13192,"()._":13193,"lare":13194,"Ġ[[-":13195,"inten":13196,"Ġbf":13197,"cod":13198,"cosh":13199,"hamiltonian":13200,"getdata":13201,"imin":13202,"procs":13203,"\"\"\"\"":13204,"Ġdfs":13205,"ĠMPI":13206,"ĠEd":13207,"ĠLanguage":13208,"114":13209,"backwards":13210,"Ġpassword":13211,"ROW":13212,"priors":13213,"multivariate":13214,"diffs":13215,"DIS":13216,"cosine":13217,"THOD":13218,"Second":13219,"Ġ...]":13220,"Ġ'-',":13221,"clusion":13222,"glue":13223,"ResultFields":13224,"fetches":13225,"abili":13226,"ĠDEBUG":13227,"tilde":13228,"ĠasarrayX":13229,"Ġartist":13230,"footprint":13231,"DetectionResultFields":13232,"Channels":13233,"Saved":13234,"Ġappropriate":13235,"FOLDER":13236,"BOT":13237,"DY":13238,"Gn":13239,"LB":13240,"MR":13241,"Rout":13242,"ech":13243,"qy":13244,"wm":13245,"çİ":13246,"Ľ´":13247,"stick":13248,"arbitrary":13249,"tidx":13250,"tization":13251,"Ġpk":13252,"Ġpkl":13253,"Ġpserver":13254,"Ġcity":13255,"Ġrelevant":13256,"dating":13257,"Ġ\"&":13258,"exons":13259,"lik":13260,"Ġdnn":13261,"Ġwar":13262,"apor":13263,"Ġgx":13264,"Ġ_)":13265,"Ġhier":13266,"Ġkk":13267,"Ġuv":13268,"numerical":13269,"addElement":13270,"rowd":13271,"Ġnumer":13272,"ĠMapping":13273,"\"]])":13274,"STOP":13275,"elems":13276,"115":13277,"]]:":13278,"nanmax":13279,"ogene":13280,"DEPRE":13281,"Ġqs":13282,"blems":13283,"ĠUsed":13284,"ĠfunctionList":13285,"Ġiters":13286,"prim":13287,"uniq":13288,"2222":13289,"Enter":13290,"parameterize":13291,"Ġembedded":13292,"ISO":13293,"General":13294,"Ġ2013":13295,"Ġcorrectly":13296,"TRACE":13297,"RightType":13298,"MAGERR":13299,"calculator":13300,"ĠMean":13301,"ĠrcParams":13302,"wire":13303,"CLASSI":13304,"Ġintegrate":13305,"dialect":13306,"ĠSNPs":13307,"LONG":13308,"ederated":13309,"ĠLeftRightType":13310,")%":13311,"625":13312,"BR":13313,"Mixed":13314,"Pulse":13315,"PORT":13316,"Sell":13317,"SAS":13318,"bt":13319,"caching":13320,"ilo":13321,"xr":13322,"xrange":13323,"ony":13324,"selines":13325,"Ġselftest":13326,"Ġfps":13327,"async":13328,"Ġrecombination":13329,"Ġmav":13330,"liance":13331,"rise":13332,"getattribute":13333,"Ġstand":13334,"Ġstars":13335,"axs":13336,"spikes":13337,"profiles":13338,"argspec":13339,"minval":13340,"mbda":13341,"cion":13342,"Ġ47":13343,"ĠRGB":13344,"budget":13345,"**-":13346,"ransform":13347,"ĠFlat":13348,"subdtype":13349,"batchsize":13350,"ĠLoss":13351,"Ġanom":13352,"Stretch":13353,"ĠGlobal":13354,"noisy":13355,"byref":13356,"Ġspl":13357,"singular":13358,"508":13359,"Ġshader":13360,"genet":13361,"cules":13362,"TimeSeries":13363,"187":13364,"Ġnetcdf":13365,"Ġnecessary":13366,"effective":13367,"depths":13368,"Ġquot":13369,"lipsis":13370,"rottle":13371,"Ġatomic":13372,"Deep":13373,"Ġvectorizer":13374,"MaxPooling":13375,"settingsDict":13376,"serializable":13377,"tokenize":13378,"projects":13379,"Ġdisable":13380,"secondary":13381,"Ġpacked":13382,"aggregation":13383,"trunc":13384,"Creates":13385,"conjugate":13386,"PostcodeVarName":13387,"Ġcumulative":13388,"Population":13389,"ĠCreateOperator":13390,"DataCacheFunctions":13391,"Suite":13392,"åı¯":13393,"migr":13394,"åĢĭ":13395,"BUTTON":13396,"399":13397,"AK":13398,"Btn":13399,"Epochs":13400,"OE":13401,"Qubit":13402,"Tangent":13403,"bh":13404,"cid":13405,"eV":13406,"flexible":13407,"gres":13408,"vn":13409,"yp":13410,"atment":13411,"tition":13412,"Ġpha":13413,"essian":13414,"edy":13415,"Ġbz":13416,"Ġddf":13417,"Ġduns":13418,"('\"":13419,"gether":13420,"upload":13421,"Ġgps":13422,"imeca":13423,"ĠPY":13424,"shock":13425,"ĠLE":13426,"centered":13427,"workflow":13428,"Exist":13429,"ĠHz":13430,"ĠQueue":13431,"Ġtransfer":13432,"ENERGY":13433,"Models":13434,"scalars":13435,"THER":13436,"CAP":13437,"polygons":13438,"networkx":13439,"SVC":13440,"FILENAME":13441,"Ġlearner":13442,"convergence":13443,"velop":13444,"Ġfreeze":13445,"Ġwhole":13446,"Ġlargest":13447,"ĠSimulation":13448,"Ġslicing":13449,"________":13450,"Ġoccup":13451,"åĩº":13452,"quilibrium":13453,"ComboBox":13454,"112":13455,"Eff":13456,"Europe":13457,"Margin":13458,"Player":13459,"Square":13460,"Tax":13461,"Words":13462,"bla":13463,"lmp":13464,"lng":13465,"mle":13466,"paddings":13467,"rBC":13468,"tls":13469,"stops":13470,"Ġtun":13471,"Ġpseudo":13472,"pep":13473,"Ġsal":13474,"Ġmanager":13475,"coco":13476,"covery":13477,"colocate":13478,"Ġnpoints":13479,"Ġww":13480,"resden":13481,"ĠTABLE":13482,"='.":13483,"axarr":13484,"extr":13485,"motif":13486,"Ġsequen":13487,"preview":13488,"648":13489,"later":13490,"Ġ{}.":13491,"dose":13492,"Arch":13493,"senti":13494,"Ġcontents":13495,"Ġsubclass":13496,"308":13497,"152":13498,"Ġ[[(":13499,"Under":13500,"Ġoverall":13501,"cisionTree":13502,"Ġwindows":13503,"Ġprices":13504,"Ġweather":13505,"NotImplemented":13506,"CONST":13507,"ijk":13508,"Descent":13509,"SHO":13510,"contig":13511,"GRAPH":13512,"Ġanno":13513,"elevation":13514,"Ġregularizers":13515,"Skipping":13516,"CURRENT":13517,"Ġreplica":13518,"Ġclawdata":13519,"Ġnltk":13520,"lacian":13521,"Unpack":13522,"Ġensembles":13523,">')":13524,"BAD":13525,"EC":13526,"KDTree":13527,"Ring":13528,"Tol":13529,"bri":13530,"bic":13531,"cash":13532,"ever":13533,"echo":13534,"fusion":13535,"iem":13536,"passed":13537,"å¼":13538,"atus":13539,"enz":13540,"tible":13541,"Ġcep":13542,"Ġmdot":13543,"sif":13544,"otypes":13545,"aders":13546,"aborn":13547,"':['":13548,"Ġgather":13549,"Ġgauss":13550,"Ġrh":13551,"pyfits":13552,"assertListEqual":13553,"epsg":13554,"Ġkpt":13555,"phrase":13556,"019":13557,"shadow":13558,"scen":13559,"Ġatleast":13560,"INK":13561,"Constants":13562,")]]":13563,"254":13564,"ĠvariableNames":13565,"Radio":13566,"Ġ---":13567,"Clas":13568,"(*[":13569,"overflow":13570,"responses":13571,"970":13572,"surfaces":13573,"resampled":13574,"flattened":13575,"NotFound":13576,"letter":13577,"cbc":13578,"ĠProperty":13579,"Polynomial":13580,"Ġdenominator":13581,"ĠREAL":13582,"Ġseparate":13583,"ĠAccuracy":13584,"Ġ'{}'":13585,"Ġalternative":13586,"ĠXYZ":13587,"Flatten":13588,"Visible":13589,")']":13590,"+\",":13591,"-'+":13592,"Amp":13593,"Hash":13594,"IZE":13595,"Lon":13596,"Male":13597,"Rp":13598,"Sn":13599,"gis":13600,"isel":13601,"ition":13602,"ndtype":13603,"xcorr":13604,"enated":13605,"demand":13606,"Ġfloor":13607,"Ġctrl":13608,"Ġrelated":13609,"ctransport":13610,"Ġmoments":13611,"Ġbt":13612,"Ġdct":13613,"atil":13614,"Ġstc":13615,"ĠTwo":13616,"fromfunction":13617,"valueChanged":13618,"Ġdescriptor":13619,"ĠSh":13620,"Ġks":13621,"css":13622,"dirpath":13623,"Ġlogit":13624,"Ġjit":13625,"ipso":13626,"Ġzi":13627,"995":13628,"ectives":13629,"Recall":13630,"checker":13631,"Ġ86":13632,"ART":13633,"155":13634,"Proxy":13635,"ĠUsing":13636,"cao":13637,"191":13638,"Resolution":13639,"nbr":13640,"ĠArti":13641,"Ġscenario":13642,"378":13643,"Boxes":13644,"alignments":13645,"symmetric":13646,"DOC":13647,"Ġdatas":13648,"oseVersion":13649,"aaaa":13650,"Grouper":13651,"buttons":13652,"}$')":13653,"impact":13654,"Ġtranscript":13655,"Ġmeasured":13656,"waypoint":13657,"Ġcircuit":13658,"versity":13659,"Lattice":13660,"activated":13661,"Decimal":13662,"åĪ°":13663,"Ġsliced":13664,"Ġmarket":13665,"ĠRandomForestClassifier":13666,"ctransportCoefficients":13667,".{":13668,"/\"+":13669,"384":13670,"AY":13671,"Ada":13672,"AME":13673,"FONT":13674,"Given":13675,"Man":13676,"Pers":13677,"Vocab":13678,"aces":13679,"dj":13680,"jp":13681,"mun":13682,"qso":13683,"rnd":13684,"zing":13685,"}`":13686,"}})":13687,"£¡":13688,"³ķ":13689,"inline":13690,"onds":13691,"anchors":13692,"Ġpval":13693,"Ġinstructions":13694,"ĠinDataCacheDictionary":13695,"geometric":13696,"unary":13697,"covar":13698,"ĠdW":13699,"reso":13700,"parsing":13701,"ĠĠĠĠĠĠĠĠĠĠĠĠĠĠĠĠĠ":13702,"testfile":13703,"Ġresnet":13704,"ĠSci":13705,"linearities":13706,"phon":13707,"acer":13708,"triangles":13709,"012":13710,"explor":13711,"ĠOF":13712,"beat":13713,"Ġmole":13714,"Ġiteritems":13715,"5555":13716,"ĠnetCDF":13717,"DICT":13718,"ports":13719,"RAIN":13720,"Ġaddress":13721,"Ġutilities":13722,"character":13723,"Ġdimensional":13724,"CAd":13725,"nuc":13726,"disconnect":13727,"Acquisition":13728,"Ġparameterized":13729,"Columns":13730,"CheckBox":13731,"serialization":13732,"averages":13733,"Any":13734,"Ġdrawn":13735,"Asset":13736,"Modes":13737,"TRUE":13738,"Defaults":13739,"ĠChann":13740,"clamp":13741,"ragged":13742,"neighborhood":13743,"literal":13744,"completed":13745,"='--')":13746,"emission":13747,"Switch":13748,"Ġremote":13749,"950":13750,"AI":13751,"Asso":13752,"Cam":13753,"Dy":13754,"FL":13755,"Foo":13756,"Im":13757,"Knob":13758,"Mic":13759,"Spectra":13760,"_('":13761,"aes":13762,"aids":13763,"dynamics":13764,"fault":13765,"hbox":13766,"men":13767,"mir":13768,"nj":13769,"pth":13770,"pure":13771,"vd":13772,"inform":13773,"repo":13774,"Ġtpick":13775,"Ġsas":13776,"Ġretri":13777,"Ġmr":13778,"Ġmight":13779,"Ġoe":13780,"chl":13781,"idity":13782,"Ġwheel":13783,"__')":13784,"quent":13785,"consum":13786,"Ġ20000":13787,"Ġstandardize":13788,"omy":13789,"ĠassertRaises":13790,"sizeof":13791,"Ġhps":13792,"Ġrb":13793,"tape":13794,"tril":13795,"ĠPost":13796,"shut":13797,"agn":13798,"ĠRtx":13799,"mapp":13800,"Ġjacob":13801,"ocent":13802,"ĠEl":13803,"Ġpreserve":13804,"ĠLD":13805,"ĠLINE":13806,"ATOM":13807,"exponential":13808,"syms":13809,"nanmean":13810,"REEN":13811,"defaultdict":13812,"Ġexpanded":13813,"Pars":13814,"Ġmade":13815,"caller":13816,"133":13817,"1394":13818,"195":13819,"structures":13820,"Ġphrase":13821,"Unexpected":13822,"cret":13823,"LOCAL":13824,"Ġ---------":13825,"Ġscheme":13826,"polyval":13827,"Graphics":13828,"skipIf":13829,"ĠCount":13830,"Ġoperators":13831,"rmsprop":13832,"expanduser":13833,"Ġoptstash":13834,"Adjust":13835,"IMG":13836,"hashes":13837,"Editor":13838,"Report":13839,"pkg":13840,"landmarks":13841,"composer":13842,"Ġhyperparams":13843,"Ġhdulist":13844,"spearman":13845,"Ġrxn":13846,"ĠActivation":13847,"Sampling":13848,"ĠPublic":13849,":]),":13850,"Dest":13851,"KB":13852,"KEN":13853,"MU":13854,"MARY":13855,"Sche":13856,"Script":13857,"_]":13858,"_),":13859,"dT":13860,"fName":13861,"hgt":13862,"ihi":13863,"pas":13864,"Ã³":13865,"æ²":13866,"Ġ].":13867,"Ġ]:":13868,"ĠDatabase":13869,"athe":13870,"reorder":13871,"Ġfingerprint":13872,"lod":13873,"lop":13874,"Ġspect":13875,"director":13876,"Ġresampling":13877,"Ġresized":13878,"Ġaes":13879,"])],":13880,"isnear":13881,"caling":13882,"\")):":13883,"Ġequ":13884,"too":13885,"tofile":13886,"Ġvk":13887,"Ġhkl":13888,"assertLen":13889,"Ġouts":13890,"via":13891,"Ġlf":13892,"Ġlrange":13893,"Ġmeg":13894,"ĠCI":13895,"preading":13896,"Ġ`~":13897,"piece":13898,"anno":13899,"Ġchip":13900,"binsize":13901,"States":13902,"Ġbootstrap":13903,"copyright":13904,"centgal":13905,"Ġroc":13906,"checkBox":13907,"ĠView":13908,"clide":13909,"Ġdoctest":13910,"Ġvarname":13911,"Ġendpoints":13912,"245":13913,"Ġtemporal":13914,"createVariable":13915,"Ġfunctional":13916,"190":13917,"Ġelev":13918,"Union":13919,"Ġfactory":13920,"dispersion":13921,"Ġquat":13922,"Ġquarter":13923,"THON":13924,"Ġdecim":13925,"Ġdecimals":13926,"Ġtriple":13927,"ĠJOIN":13928,"+\"\\":13929,"Ġseqs":13930,"totype":13931,"digital":13932,"Ġsqlite":13933,"Regexp":13934,"circular":13935,"}{\\":13936,"merger":13937,"ĠINPUT":13938,"hemati":13939,"Pixels":13940,"genomeType":13941,"Calculates":13942,"='--',":13943,"Cloudy":13944,"Ġpyspark":13945,"Algorithm":13946,"Hook":13947,"ĠFilter":13948,"FIT":13949,"Msg":13950,"mids":13951,"rmax":13952,"yvals":13953,"å¥½":13954,"Ġé":13955,"styles":13956,"Ġide":13957,"Ġnele":13958,"Ġfar":13959,"pex":13960,"lody":13961,"Ġ'`":13962,"Ġ'{}_":13963,"Ġincluding":13964,"licon":13965,"Ġbkg":13966,"')['":13967,"=''):":13968,"ĠĠĠĠĠĠĠĠĠĠĠĠĠĠĠĠĠĠĠĠ":13969,"logue":13970,"logic":13971,"Ġhom":13972,"ĠAverage":13973,"account":13974,"ĠCre":13975,"016":13976,"Ġnumba":13977,"scans":13978,"Ġlogical":13979,"ĠEv":13980,"Division":13981,"Ġspline":13982,"Ġvert":13983,"Ġstartup":13984,"Ġchecks":13985,"bars":13986,"IDS":13987,"distorted":13988,"CHR":13989,"gbm":13990,"Ġdistortion":13991,"Ġ[-]":13992,")+'.":13993,"978":13994,"Ġcaller":13995,"Orth":13996,"arccos":13997,"Ġparticular":13998,"cleanup":13999,"xili":14000,"Ġsqlalchemy":14001,"ĠphjPostcode":14002,"PREFIX":14003,"Expression":14004,"itized":14005,"Transitions":14006,"Measured":14007,"Diffusion":14008,"Parts":14009,"Ġduplicate":14010,"prune":14011,"Ġroutine":14012,"Ġkept":14013,"HIGHEST":14014,"CAdapter":14015,".]]),":14016,"010":14017,">%":14018,"Bs":14019,"Nu":14020,"RTL":14021,"gly":14022,"nir":14023,"pname":14024,"tlt":14025,"Ð¾":14026,"Ġran":14027,"Ġ())":14028,"related":14029,"Ġtck":14030,"Ġfolds":14031,"diam":14032,"essel":14033,"Ġrestore":14034,"Ġow":14035,"experiments":14036,"coor":14037,"Ġwcs":14038,"parcellation":14039,"Ġyd":14040,"Ġyr":14041,"Ġru":14042,"Ġtestdata":14043,"numba":14044,"Ġcollision":14045,"\"]/":14046,"ĠDIST":14047,"ĠFutureWarning":14048,"Ġatlas":14049,"Ġaltitude":14050,"ĠEnum":14051,"Ġuncertainty":14052,"ĠXy":14053,"Statistics":14054,"116":14055,"117":14056,"centroids":14057,"centrations":14058,"edgecolor":14059,"RECT":14060,"MEM":14061,"Extract":14062,"titles":14063,"Ġ[[]":14064,"198":14065,"Ġ||":14066,"nonlinearities":14067,"Ġphen":14068,"345":14069,"222":14070,"Ġwidths":14071,"Ġconventions":14072,"Ġmodules":14073,"Ġ...\")":14074,"Ġsmallest":14075,"ĠDataTypes":14076,"Templates":14077,"Ġalgorithms":14078,"compareBoth":14079,"dups":14080,"}$'":14081,"Ġpolygon":14082,"Ġtransparent":14083,"Ġflask":14084,"public":14085,"Ġlabeled":14086,"decorator":14087,"Ġdistribute":14088,"Ġstochastic":14089,"HORIZONT":14090,"athered":14091,".).":14092,"CAN":14093,"Ctrl":14094,"DONE":14095,"Gr":14096,"PN":14097,"Plugin":14098,"beg":14099,"hess":14100,"osition":14101,"sdf":14102,"seis":14103,"deps":14104,"Ġfla":14105,"Ġfew":14106,"mplot":14107,"Ġpush":14108,"Ġreli":14109,"Ġmv":14110,"Ġour":14111,"mable":14112,"copt":14113,"adc":14114,"abb":14115,"='-',":14116,"outlier":14117,"Ġvary":14118,"logprob":14119,"maxiter":14120,"ĠSto":14121,"plotdir":14122,"mburst":14123,"pho":14124,"014":14125,"Ġzone":14126,"Ġ\\'":14127,"Ġpreprocessor":14128,"utiful":14129,"ERENCE":14130,"Converter":14131,"ATED":14132,"ndvi":14133,"ĠGiven":14134,"2020":14135,"Pose":14136,"ExteriorElement":14137,"Ġintern":14138,"convention":14139,"essboard":14140,"contexts":14141,"ronco":14142,"(*(":14143,"Ġuproot":14144,"packed":14145,"mtl":14146,"LOC":14147,"Ġqueries":14148,"Registry":14149,"363":14150,"Ġtrip":14151,"SAPT":14152,"Ġ2500":14153,"CONV":14154,"999999":14155,"Ġskipna":14156,"Ġestimates":14157,"ĠautoGenerate":14158,"inuum":14159,"ĠLooseVersion":14160,"modify":14161,"Ġextensions":14162,"FDRE":14163,"Partition":14164,"snapshot":14165,"Ġexactly":14166,"deterministic":14167,"broker":14168,"electrons":14169,"ĠElement":14170,"SIGNAL":14171,"Ġcopied":14172,"BI":14173,"Ba":14174,"EM":14175,"EVAL":14176,"IES":14177,"OG":14178,"Vs":14179,"aq":14180,"cz":14181,"cupy":14182,"taper":14183,"vlen":14184,"xtick":14185,"è©":14186,"relax":14187,"standardize":14188,"Ġnmr":14189,"Ġfnames":14190,"Ġfwhm":14191,"Ġpct":14192,"Ġcrs":14193,"Ġcifar":14194,"Ġ'&":14195,"Ġslc":14196,"lifter":14197,"('=":14198,"Ġisotopes":14199,"Ġstroke":14200,"':\"":14201,"Ġgles":14202,"(\"{}":14203,"spd":14204,"Ġhref":14205,"Ġrz":14206,"ilation":14207,"Indicator":14208,"ĠSig":14209,"Ġcoo":14210,"Ġparsing":14211,"018":14212,"scenario":14213,"Ġpymp":14214,"ĠBot":14215,"Ġcomposite":14216,"Required":14217,"emy":14218,"Ġqr":14219,"Exists":14220,"ĠUInt":14221,"...',":14222,"ĠExperiment":14223,"Ġmeaning":14224,"Ġapplies":14225,"']['_":14226,"Debug":14227,"cholesky":14228,"ĠStep":14229,"INTS":14230,"PerRegion":14231,"Vars":14232,"Vectorization":14233,"Scaling":14234,"Ġ\"-\"":14235,"dividu":14236,"Ġdetermined":14237,"alkers":14238,"Soup":14239,"writable":14240,"utcnow":14241,"VertexArray":14242,"Circuit":14243,"AUTO":14244,"Velocity":14245,"NotImplementedError":14246,"atility":14247,"utifulSoup":14248,"\";":14249,"\")))":14250,"Black":14251,"Old":14252,"PD":14253,"Quest":14254,"VO":14255,"dust":14256,"equivalent":14257,"kin":14258,"nrow":14259,"ratings":14260,"tall":14261,"}).":14262,"åī":14263,"èĥ½":14264,"inception":14265,"indiv":14266,"attemp":14267,"restricted":14268,"ante":14269,"Ġsan":14270,"Ġox":14271,"Ġograd":14272,"uninsulated":14273,"Ġ(\\":14274,"('',":14275,"thres":14276,"andbox":14277,"abla":14278,"arraylike":14279,"Ġstrength":14280,"Ġxdata":14281,"ĠTYPE":14282,"Ġhalo":14283,"eph":14284,"Incar":14285,"corded":14286,"observer":14287,"visibility":14288,"ĠAR":14289,"ĠMake":14290,"Ġ58":14291,"arnm":14292,"ĠIF":14293,"Ġjrec":14294,"Ġtimeseries":14295,"libraries":14296,"tfrecord":14297,"ATOR":14298,"Ġmins":14299,"symb":14300,"sensitivity":14301,"Ġspaces":14302,"307":14303,"thetas":14304,"ĠthisLogUw":14305,"188":14306,"cai":14307,"194":14308,"packet":14309,"algorithms":14310,"337":14311,"Ġadding":14312,"Ġmultiply":14313,"Plotting":14314,"pename":14315,"Common":14316,"Ġjoined":14317,"regularizers":14318,"Ġdowncast":14319,"ĠCompiler":14320,"Ġsmoothed":14321,"Ġrepeats":14322,"CTIONS":14323,"Ġspecs":14324,"Ġactors":14325,"CLASSES":14326,"hooks":14327,"Ġdonor":14328,"Joint":14329,"ĠDiscrete":14330,"fluorescence":14331,"Ġbuiltins":14332,"WINDOW":14333,"sitl":14334,"éĩĳ":14335,"ĠStopIteration":14336,"HORIZONTAL":14337,"Incarcer":14338,"164":14339,">,":14340,"Horizontal":14341,"IMP":14342,"OV":14343,"Usage":14344,"VSA":14345,"iinfo":14346,"icies":14347,"ulo":14348,"zones":14349,"Ġ._":14350,"onto":14351,"alone":14352,"ascade":14353,"antial":14354,"Ġsdf":14355,"Ġmarg":14356,"Ġ\":":14357,"lave":14358,"006":14359,"igar":14360,"']==":14361,"Ġxsize":14362,"(\"../":14363,"Ġemit":14364,"Ġhbase":14365,"Ġrvs":14366,"tailed":14367,"ĠShould":14368,"ĠShot":14369,"Ġkde":14370,"Ġlg":14371,"Ġmemo":14372,"prepared":14373,"shallow":14374,"326":14375,"Ġproposed":14376,"ĠDraw":14377,"ĠItem":14378,"ĠFin":14379,"Ġzz":14380,"INF":14381,"Condition":14382,"Ġonto":14383,"ĠOrange":14384,"Comple":14385,"acts":14386,"136":14387,"138":14388,"ToString":14389,"Ġlocs":14390,"Trade":14391,"GraphDef":14392,"Ġcalling":14393,"ĠComplex":14394,"hasattr":14395,"TICAL":14396,"Colormap":14397,"Dirty":14398,"NOCC":14399,"SPACE":14400,"games":14401,"}$',":14402,"Ġppc":14403,"Ġcombination":14404,"lisher":14405,"Signals":14406,"maln":14407,"ScaleFactor":14408,"agnetic":14409,"separator":14410,"Probability":14411,"GROUP":14412,"stocks":14413,"Placeholder":14414,"StaticText":14415,"atisfied":14416,"silent":14417,"Ġcubes":14418,"composites":14419,"*,":14420,".\"\"\")":14421,"/'+":14422,":/":14423,"Ans":14424,"APE":14425,"Drop":14426,"Growth":14427,"MFn":14428,"Sort":14429,"SNR":14430,"UID":14431,"fos":14432,"ials":14433,"iased":14434,"kip":14435,"kmeans":14436,"zbin":14437,"zbins":14438,"Ðµ":14439,"recon":14440,"reboot":14441,"Ġng":14442,"Ġndata":14443,"Ġcer":14444,"love":14445,"Ġincr":14446,"urizer":14447,"sides":14448,"Ġown":14449,"ung":14450,"hemi":14451,"five":14452,"intain":14453,"Ġbel":14454,"Ġbuff":14455,"chs":14456,"idge":14457,"setLayout":14458,"'])))":14459,"Ġxray":14460,"Ġxaxis":14461,"ĠTT":14462,"assertArray":14463,"illa":14464,"ĠSD":14465,"ĠSX":14466,"Ġoutp":14467,"corder":14468,"victor":14469,"Ġmed":14470,"Ġmedi":14471,"ĠCOL":14472,"Ġ46":14473,"ĠMIN":14474,"Ġ50000":14475,"untu":14476,"Ġ@_":14477,"subtest":14478,"ĠEnd":14479,"expanded":14480,"luence":14481,"Ġfuncs":14482,"checkpoints":14483,"Ġbatched":14484,"sqr":14485,"paw":14486,"Ġ72":14487,"cfc":14488,"Ġdicts":14489,"SITE":14490,"clic":14491,"ĠKEY":14492,"Ġmotif":14493,"035":14494,"036":14495,"Ġsync":14496,"Reshape":14497,"177":14498,"Ġgrouper":14499,"MPY":14500,")]).":14501,"Ġadv":14502,"Ġadaptive":14503,"408":14504,"vsdin":14505,"rotated":14506,"270":14507,"cmds":14508,"autograd":14509,"ĠCoord":14510,"QtWidgets":14511,"Ġranks":14512,"Ġabstract":14513,"takeoff":14514,"Ġmpp":14515,"Descr":14516,"000000000":14517,"Ġviews":14518,"Dimensions":14519,"Latitude":14520,"satellite":14521,"Ġannual":14522,"notebook":14523,"neuron":14524,"Ġumath":14525,"warmup":14526,"GAMESS":14527,"DELTA":14528,"Micros":14529,"*[":14530,".):":14531,"20000":14532,"=:":14533,"BLOCK":14534,"Lens":14535,"Mirrored":14536,"golden":14537,"jnp":14538,"knn":14539,"alth":14540,"allocation":14541,"arff":14542,"articles":14543,"mpt":14544,"Ġpot":14545,"rocs":14546,"itory":14547,"Ġsizer":14548,"Ġsps":14549,"Ġsweep":14550,"()[:":14551,"edom":14552,"Ġ130":14553,"filen":14554,"Ġ(((":14555,"serif":14556,"ltest":14557,"Ġnpy":14558,"Ġdrift":14559,"vehicle":14560,"profit":14561,"Ġvirtual":14562,"perform":14563,"Ġdecomposition":14564,"acces":14565,"lying":14566,"325":14567,"ĠMath":14568,"Ġ57":14569,"readers":14570,"joined":14571,"Ġanimation":14572,"Ġ102":14573,"ĠBea":14574,"STER":14575,"neigh":14576,"basepath":14577,"Ġcontinuous":14578,"pura":14579,"inality":14580,"Pointer":14581,"distinct":14582,"ĠExtra":14583,"COMM":14584,"contextmanager":14585,"globals":14586,"what":14587,"solid":14588,"firm":14589,"Ġoverlay":14590,"Ġconvolve":14591,"ĠParallel":14592,"CAM":14593,"Ġextend":14594,"TOT":14595,"awater":14596,"VarLenFeature":14597,"oov":14598,"saturation":14599,"ĠMasked":14600,"Toolbar":14601,"Ġseparation":14602,"brements":14603,"closing":14604,"clouds":14605,"Ġheatmap":14606,"Ġsequencing":14607,"Ġcephes":14608,"/]":14609,"975":14610,"Auth":14611,"Blob":14612,"FNOCC":14613,"Tip":14614,"Uint":14615,"UDF":14616,"bfill":14617,"euclid":14618,"hps":14619,"ncol":14620,"oise":14621,"relay":14622,"arpe":14623,"ening":14624,"Ġtit":14625,"Ġnobs":14626,"Ġpaddings":14627,"Ġrecursive":14628,"ĠmX":14629,"Ġ160":14630,"unsupported":14631,"macros":14632,"Ġdn":14633,"--')":14634,"risk":14635,"quick":14636,"Ġxb":14637,"([[\"":14638,"imu":14639,"colname":14640,"Ġconnections":14641,"strat":14642,"ewm":14643,"addAction":14644,"Ġrasteri":14645,"ĠDif":14646,"occur":14647,"itertools":14648,"121":14649,"1200":14650,"Conversion":14651,"ĠGNU":14652,"Ġ('%":14653,"ONLY":14654,"Ġspot":14655,"emon":14656,"50675":14657,"Ġsubmission":14658,"acher":14659,"acteri":14660,"estimated":14661,"Ġmovie":14662,"notnull":14663,"UTF":14664,"Ġclassname":14665,"gpuarray":14666,"charges":14667,"dians":14668,"4545":14669,"snak":14670,"Compare":14671,"KeyStr":14672,"Fails":14673,"tracker":14674,"networks":14675,"Ġxytext":14676,"Subset":14677,"repeated":14678,"Dims":14679,"Ġ2012":14680,"Ġcosmo":14681,"accessCount":14682,"ĠRegular":14683,"Support":14684,"fenY":14685,"purpura":14686,"denombrements":14687,"BasedOn":14688,"Ġradii":14689,"ĠDimension":14690,"byshe":14691,"DEPRECATION":14692,"xiliary":14693,"ĠBeautifulSoup":14694,"./(":14695,"Age":14696,"Ds":14697,"EK":14698,"EFF":14699,"Nmesh":14700,"hints":14701,"pressed":14702,"shear":14703,"tseries":14704,"wg":14705,"inflow":14706,"Ġ=',":14707,"Ġnight":14708,"Ġfcivec":14709,"Ġcats":14710,"Ġsnt":14711,"defor":14712,"fish":14713,"filer":14714,"lained":14715,"Ġbboxes":14716,"Ġbrew":14717,"covars":14718,"coinc":14719,"isquare":14720,"Ġstn":14721,"parc":14722,"keh":14723,"frombuffer":14724,"tobj":14725,"Ġconditional":14726,"strument":14727,"Ġcover":14728,"ĠAL":14729,"Datum":14730,"hoods":14731,"124":14732,"Ġalias":14733,"ĠEmbedding":14734,"INV":14735,
[...]
